<pad>	0
<unk>	0
<bos>	0
<eos>	0
▁t	-0
▁a	-1
▁th	-2
in	-3
▁the	-4
re	-5
on	-6
er	-7
▁s	-8
▁c	-9
▁o	-10
▁w	-11
at	-12
en	-13
▁,	-14
▁.	-15
is	-16
▁p	-17
it	-18
▁f	-19
▁b	-20
es	-21
or	-22
an	-23
▁m	-24
▁in	-25
▁an	-26
▁of	-27
ion	-28
ou	-29
al	-30
▁to	-31
ed	-32
ar	-33
▁and	-34
▁h	-35
▁d	-36
ing	-37
ro	-38
ic	-39
▁e	-40
le	-41
ent	-42
▁n	-43
▁re	-44
st	-45
om	-46
il	-47
▁is	-48
ve	-49
▁l	-50
as	-51
ct	-52
▁be	-53
▁g	-54
ly	-55
▁i	-56
ot	-57
▁u	-58
ation	-59
▁for	-60
▁on	-61
▁we	-62
ur	-63
▁y	-64
▁that	-65
ut	-66
▁wh	-67
et	-68
▁st	-69
ce	-70
se	-71
▁it	-72
▁pro	-73
ch	-74
id	-75
ra	-76
ol	-77
▁con	-78
▁al	-79
ment	-80
▁com	-81
ith	-82
pe	-83
▁with	-84
▁you	-85
ver	-86
ri	-87
▁as	-88
ow	-89
▁are	-90
ul	-91
▁de	-92
▁this	-93
ay	-94
ort	-95
ill	-96
ad	-97
ir	-98
ld	-99
res	-100
ers	-101
ate	-102
ig	-103
▁v	-104
▁su	-105
est	-106
▁not	-107
▁ha	-108
im	-109
el	-110
▁ne	-111
th	-112
ble	-113
▁un	-114
oun	-115
▁ex	-116
qu	-117
ge	-118
am	-119
ity	-120
▁'	-121
ess	-122
ter	-123
ke	-124
▁eu	-125
▁or	-126
pp	-127
▁se	-128
ive	-129
os	-130
▁at	-131
em	-132
op	-133
ant	-134
▁have	-135
ore	-136
rom	-137
▁by	-138
ies	-139
▁will	-140
ust	-141
▁sh	-142
us	-143
▁par	-144
▁ch	-145
un	-146
ist	-147
ich	-148
ere	-149
ould	-150
ci	-151
▁comm	-152
ain	-153
▁euro	-154
▁from	-155
▁en	-156
▁1	-157
and	-158
▁all	-159
od	-160
▁europe	-161
▁can	-162
▁which	-163
▁le	-164
▁r	-165
ia	-166
if	-167
mp	-168
ect	-169
ht	-170
ac	-171
sion	-172
▁j	-173
ie	-174
ure	-175
um	-176
▁2	-177
iv	-178
▁(	-179
ard	-180
▁has	-181
▁wor	-182
▁)	-183
00	-184
our	-185
▁res	-186
▁our	-187
▁us	-188
▁comp	-189
▁so	-190
so	-191
▁cont	-192
oc	-193
▁k	-194
all	-195
end	-196
ions	-197
▁ma	-198
▁ad	-199
ber	-200
▁there	-201
▁int	-202
ally	-203
▁pl	-204
ud	-205
ast	-206
▁was	-207
▁ag	-208
▁european	-209
ated	-210
▁coun	-211
▁your	-212
▁ac	-213
▁part	-214
▁ta	-215
ous	-216
▁imp	-217
▁pres	-218
pt	-219
ff	-220
▁me	-221
▁also	-222
age	-223
ost	-224
▁do	-225
very	-226
ission	-227
▁he	-228
ations	-229
der	-230
ire	-231
▁but	-232
▁ab	-233
▁-	-234
king	-235
ish	-236
are	-237
out	-238
▁qu	-239
able	-240
du	-241
ome	-242
ab	-243
cess	-244
▁go	-245
ult	-246
ans	-247
▁am	-248
lo	-249
act	-250
▁:	-251
▁ro	-252
ary	-253
per	-254
ree	-255
ice	-256
▁commission	-257
ical	-258
▁man	-259
ine	-260
ance	-261
port	-262
▁would	-263
vel	-264
▁reg	-265
▁its	-266
▁more	-267
ag	-268
her	-269
ition	-270
▁tr	-271
▁new	-272
ther	-273
▁if	-274
▁ar	-275
ong	-276
▁inc	-277
iz	-278
con	-279
ates	-280
▁inter	-281
ll	-282
▁ser	-283
ue	-284
ind	-285
▁pol	-286
ments	-287
orm	-288
▁app	-289
▁li	-290
og	-291
lic	-292
rig	-293
▁mr	-294
oug	-295
▁one	-296
ite	-297
▁up	-298
ach	-299
ction	-300
▁their	-301
▁mem	-302
▁off	-303
ide	-304
ear	-305
▁tra	-306
reat	-307
▁no	-308
▁must	-309
▁been	-310
ks	-311
ign	-312
▁pre	-313
▁spe	-314
▁hot	-315
▁sp	-316
▁tim	-317
ru	-318
▁dis	-319
si	-320
ace	-321
ail	-322
cial	-323
ight	-324
▁’	-325
▁count	-326
ase	-327
▁should	-328
▁ind	-329
▁out	-330
▁they	-331
ry	-332
▁hotel	-333
ound	-334
art	-335
▁who	-336
ip	-337
▁co	-338
▁pe	-339
▁presid	-340
ens	-341
▁ev	-342
▁te	-343
▁?	-344
ren	-345
form	-346
ence	-347
▁need	-348
▁year	-349
ough	-350
pport	-351
ap	-352
▁cl	-353
▁pos	-354
▁what	-355
erm	-356
ial	-357
▁mar	-358
▁other	-359
itt	-360
ject	-361
▁`	-362
▁than	-363
▁these	-364
ub	-365
int	-366
ities	-367
right	-368
▁like	-369
▁``	-370
▁any	-371
ame	-372
▁only	-373
▁very	-374
ern	-375
au	-376
▁bec	-377
▁produ	-378
▁sy	-379
▁how	-380
one	-381
▁po	-382
▁prov	-383
▁bet	-384
ational	-385
av	-386
mm	-387
▁time	-388
ack	-389
ose	-390
▁right	-391
▁cons	-392
▁about	-393
▁gr	-394
ress	-395
▁rel	-396
ord	-397
fore	-398
▁president	-399
▁ra	-400
▁200	-401
▁fir	-402
ors	-403
▁fe	-404
▁inst	-405
▁rec	-406
▁union	-407
▁3	-408
ces	-409
▁per	-410
ak	-411
▁serv	-412
ise	-413
ric	-414
▁act	-415
▁dec	-416
wn	-417
▁when	-418
pos	-419
▁over	-420
▁''	-421
ass	-422
iew	-423
▁member	-424
▁cent	-425
we	-426
ian	-427
lia	-428
ility	-429
▁trans	-430
▁report	-431
ile	-432
▁af	-433
▁des	-434
▁peop	-435
▁parlia	-436
▁sub	-437
▁work	-438
ep	-439
▁acc	-440
ution	-441
▁sa	-442
▁intern	-443
pl	-444
ced	-445
▁import	-446
ful	-447
▁some	-448
▁states	-449
ang	-450
tain	-451
velop	-452
ures	-453
▁mad	-454
▁parliament	-455
▁my	-456
▁people	-457
▁gu	-458
ries	-459
▁fin	-460
igh	-461
ious	-462
▁develop	-463
now	-464
▁now	-465
de	-466
▁them	-467
ular	-468
▁just	-469
lud	-470
▁use	-471
▁under	-472
ings	-473
pect	-474
▁ob	-475
▁conc	-476
ual	-477
▁into	-478
stem	-479
▁take	-480
▁world	-481
oo	-482
get	-483
eren	-484
ays	-485
..	-486
▁add	-487
▁first	-488
▁la	-489
▁pri	-490
▁many	-491
cept	-492
▁such	-493
▁loc	-494
▁dire	-495
cy	-496
ket	-497
ater	-498
▁were	-499
▁system	-500
low	-501
▁!	-502
ause	-503
▁fun	-504
▁support	-505
▁19	-506
▁ent	-507
▁well	-508
▁tw	-509
ft	-510
▁sol	-511
ween	-512
conom	-513
▁may	-514
▁min	-515
feren	-516
▁between	-517
▁bas	-518
▁room	-519
▁countries	-520
▁dem	-521
▁pr	-522
▁cre	-523
▁eff	-524
▁inv	-525
▁prog	-526
▁requ	-527
▁econom	-528
▁his	-529
▁inform	-530
▁mon	-531
▁most	-532
▁pers	-533
sible	-534
▁high	-535
ory	-536
▁after	-537
▁partic	-538
▁sm	-539
lect	-540
▁again	-541
ality	-542
▁br	-543
▁...	-544
xt	-545
sel	-546
ov	-547
▁make	-548
▁direct	-549
cil	-550
ention	-551
▁mod	-552
▁aut	-553
▁dif	-554
▁polic	-555
▁propos	-556
me	-557
fic	-558
▁even	-559
▁every	-560
te	-561
day	-562
ild	-563
oth	-564
ative	-565
▁includ	-566
▁council	-567
▁important	-568
ple	-569
▁leg	-570
li	-571
▁bu	-572
▁gen	-573
▁thr	-574
▁know	-575
▁op	-576
▁col	-577
▁way	-578
ph	-579
▁5	-580
▁ke	-581
▁str	-582
▁see	-583
▁two	-584
▁cour	-585
▁because	-586
▁–	-587
▁av	-588
ents	-589
ating	-590
▁form	-591
▁set	-592
▁made	-593
ee	-594
ange	-595
▁att	-596
▁ext	-597
▁where	-598
ever	-599
ages	-600
ract	-601
▁bel	-602
▁through	-603
pon	-604
als	-605
▁cle	-606
ms	-607
ues	-608
▁pub	-609
ts	-610
uring	-611
ices	-612
▁good	-613
▁own	-614
▁4	-615
own	-616
▁those	-617
▁agree	-618
▁great	-619
ning	-620
▁however	-621
▁;	-622
▁cr	-623
▁information	-624
▁ph	-625
ards	-626
▁view	-627
▁quest	-628
▁market	-629
▁product	-630
▁ass	-631
▁state	-632
▁proble	-633
ural	-634
ath	-635
oup	-636
▁em	-637
▁bus	-638
▁area	-639
▁polit	-640
▁economic	-641
ob	-642
ove	-643
rib	-644
▁rem	-645
▁point	-646
▁years	-647
▁person	-648
▁hel	-649
gy	-650
▁mu	-651
▁disc	-652
▁particular	-653
chn	-654
▁ap	-655
▁therefore	-656
▁sc	-657
▁deb	-658
▁want	-659
▁appro	-660
▁place	-661
atic	-662
▁sit	-663
ision	-664
▁fact	-665
▁rest	-666
▁then	-667
▁group	-668
ied	-669
ink	-670
▁cur	-671
▁here	-672
ib	-673
any	-674
ieve	-675
land	-676
lish	-677
▁had	-678
▁process	-679
arm	-680
▁iss	-681
▁num	-682
▁prot	-683
▁commun	-684
▁progra	-685
ady	-686
vern	-687
▁vot	-688
▁policy	-689
▁provid	-690
▁respon	-691
arge	-692
ific	-693
arch	-694
▁sim	-695
▁help	-696
▁long	-697
▁being	-698
▁possible	-699
led	-700
▁air	-701
▁rep	-702
▁aw	-703
ount	-704
ouse	-705
▁find	-706
▁within	-707
▁const	-708
▁order	-709
ck	-710
urn	-711
▁est	-712
▁exp	-713
▁free	-714
les	-715
▁techn	-716
lement	-717
▁gener	-718
gan	-719
ism	-720
wor	-721
▁conf	-722
▁incre	-723
▁result	-724
▁international	-725
ds	-726
gr	-727
ited	-728
ustom	-729
▁exper	-730
▁z	-731
olog	-732
▁cer	-733
▁sec	-734
▁web	-735
▁main	-736
▁contin	-737
ved	-738
▁ed	-739
▁fr	-740
▁cor	-741
▁mat	-742
▁sch	-743
▁too	-744
▁small	-745
ety	-746
ood	-747
ruct	-748
▁custom	-749
air	-750
erest	-751
▁public	-752
▁car	-753
▁emp	-754
▁project	-755
ince	-756
▁ref	-757
iness	-758
▁both	-759
▁%	-760
▁hum	-761
▁med	-762
▁same	-763
▁situ	-764
▁stand	-765
▁comple	-766
▁curren	-767
bers	-768
▁end	-769
▁dist	-770
▁govern	-771
▁sw	-772
▁ful	-773
▁met	-774
ional	-775
▁play	-776
▁interest	-777
ised	-778
▁dat	-779
▁fol	-780
▁ver	-781
▁political	-782
com	-783
▁bo	-784
ered	-785
ines	-786
▁oper	-787
ection	-788
▁allow	-789
▁could	-790
▁access	-791
▁concern	-792
ook	-793
ives	-794
ower	-795
▁adv	-796
▁last	-797
▁clear	-798
▁committ	-799
io	-800
ily	-801
▁val	-802
▁cap	-803
▁call	-804
▁does	-805
ne	-806
ty	-807
▁avail	-808
▁effect	-809
▁rights	-810
▁country	-811
▁development	-812
row	-813
▁sur	-814
▁open	-815
▁compet	-816
▁without	-817
ell	-818
cond	-819
ready	-820
▁human	-821
▁still	-822
hip	-823
▁bl	-824
ict	-825
min	-826
▁fam	-827
▁ple	-828
▁vis	-829
▁down	-830
▁start	-831
▁already	-832
▁services	-833
its	-834
ency	-835
▁today	-836
err	-837
ient	-838
ists	-839
▁det	-840
▁get	-841
▁back	-842
self	-843
▁require	-844
▁ins	-845
▁sign	-846
▁used	-847
▁before	-848
▁service	-849
▁differen	-850
uc	-851
ted	-852
vers	-853
work	-854
▁much	-855
▁speci	-856
▁contro	-857
▁fl	-858
▁art	-859
▁dra	-860
▁lead	-861
eration	-862
▁course	-863
▁design	-864
▁against	-865
▁question	-866
dit	-867
ner	-868
ute	-869
▁wr	-870
▁pur	-871
▁business	-872
ken	-873
ten	-874
alth	-875
▁ban	-876
▁bar	-877
utions	-878
▁organ	-879
▁offers	-880
▁available	-881
▁bre	-882
▁exam	-883
▁prof	-884
▁level	-885
ug	-886
kes	-887
red	-888
ants	-889
ving	-890
▁env	-891
▁key	-892
▁case	-893
▁during	-894
▁special	-895
ral	-896
sib	-897
ting	-898
▁equ	-899
▁lif	-900
▁rev	-901
▁germ	-902
▁rooms	-903
▁treat	-904
▁follow	-905
iven	-906
▁nat	-907
▁put	-908
mental	-909
▁house	-910
▁since	-911
old	-912
▁ca	-913
ason	-914
▁var	-915
ually	-916
▁auth	-917
▁prev	-918
▁second	-919
▁social	-920
▁current	-921
▁present	-922
▁national	-923
iron	-924
▁amend	-925
▁offer	-926
ulation	-927
▁number	-928
ves	-929
▁def	-930
▁fur	-931
ether	-932
other	-933
▁data	-934
▁term	-935
▁certain	-936
▁members	-937
▁committee	-938
fort	-939
▁wel	-940
▁hand	-941
▁environ	-942
mb	-943
▁“	-944
▁ach	-945
ately	-946
▁city	-947
▁conv	-948
▁meet	-949
▁stay	-950
▁guest	-951
▁experi	-952
ys	-953
ene	-954
▁20	-955
▁real	-956
arg	-957
ope	-958
ital	-959
▁fac	-960
▁fra	-961
▁able	-962
▁each	-963
▁fore	-964
▁democ	-965
ness	-966
▁applic	-967
ix	-968
loy	-969
▁her	-970
▁say	-971
ather	-972
▁show	-973
▁jo	-974
▁consid	-975
▁regard	-976
ics	-977
▁aff	-978
▁bud	-979
▁ens	-980
▁saf	-981
▁ener	-982
▁fund	-983
▁meas	-984
▁stud	-985
▁debate	-986
▁indust	-987
▁further	-988
ick	-989
▁el	-990
▁plan	-991
▁sect	-992
▁control	-993
▁quality	-994
▁priv	-995
▁while	-996
▁author	-997
▁programm	-998
to	-999
▁che	-1000
▁day	-1001
▁cost	-1002
▁elect	-1003
▁necess	-1004
▁believe	-1005
▁cit	-1006
▁maj	-1007
▁why	-1008
ilities	-1009
▁specific	-1010
▁im	-1011
hing	-1012
line	-1013
▁far	-1014
▁few	-1015
▁imm	-1016
▁law	-1017
▁old	-1018
▁suc	-1019
▁war	-1020
▁said	-1021
▁health	-1022
▁instit	-1023
▁different	-1024
▁commissioner	-1025
▁beh	-1026
▁rese	-1027
▁power	-1028
▁invest	-1029
▁products	-1030
uss	-1031
come	-1032
ivid	-1033
▁dep	-1034
▁ide	-1035
▁best	-1036
▁list	-1037
▁major	-1038
▁common	-1039
▁object	-1040
▁another	-1041
▁agreement	-1042
▁”	-1043
omm	-1044
▁gra	-1045
▁inf	-1046
▁supp	-1047
▁increas	-1048
▁addition	-1049
▁es	-1050
omet	-1051
ining	-1052
▁accept	-1053
▁centre	-1054
ss	-1055
ized	-1056
▁found	-1057
▁budget	-1058
▁energy	-1059
▁implement	-1060
▁sk	-1061
▁bal	-1062
▁eas	-1063
▁port	-1064
▁issue	-1065
▁think	-1066
▁respect	-1067
▁pay	-1068
▁pop	-1069
▁coop	-1070
▁citiz	-1071
▁impro	-1072
▁change	-1073
ize	-1074
▁15	-1075
▁ear	-1076
▁eng	-1077
▁fut	-1078
▁neg	-1079
iting	-1080
urity	-1081
▁care	-1082
▁areas	-1083
▁finan	-1084
▁position	-1085
▁proposal	-1086
▁research	-1087
jo	-1088
up	-1089
ateg	-1090
utes	-1091
riend	-1092
▁life	-1093
ablish	-1094
▁example	-1095
▁necessary	-1096
aut	-1097
eng	-1098
ways	-1099
▁adop	-1100
▁happ	-1101
▁problem	-1102
til	-1103
rodu	-1104
▁199	-1105
▁come	-1106
▁sing	-1107
▁trad	-1108
▁child	-1109
▁future	-1110
▁establish	-1111
▁protection	-1112
ax	-1113
ense	-1114
ules	-1115
▁run	-1116
▁cult	-1117
▁hist	-1118
illion	-1119
▁means	-1120
isation	-1121
▁reason	-1122
▁problems	-1123
▁situation	-1124
aur	-1125
▁10	-1126
▁ty	-1127
ared	-1128
▁cam	-1129
▁uni	-1130
ology	-1131
▁rece	-1132
ential	-1133
ration	-1134
▁given	-1135
▁large	-1136
▁three	-1137
▁citizens	-1138
▁including	-1139
▁transport	-1140
▁6	-1141
lus	-1142
ont	-1143
▁bro	-1144
▁cro	-1145
▁fre	-1146
▁let	-1147
▁hope	-1148
▁chang	-1149
▁pract	-1150
▁success	-1151
▁whether	-1152
▁government	-1153
▁7	-1154
000	-1155
▁tour	-1156
▁activ	-1157
ability	-1158
▁please	-1159
▁strong	-1160
▁financial	-1161
que	-1162
▁resol	-1163
▁using	-1164
▁employ	-1165
▁manage	-1166
▁located	-1167
▁restaur	-1168
▁directive	-1169
cc	-1170
nt	-1171
ps	-1172
ina	-1173
ird	-1174
leg	-1175
▁ris	-1176
▁exce	-1177
▁grow	-1178
▁pass	-1179
▁prom	-1180
▁wind	-1181
▁based	-1182
▁shall	-1183
▁thank	-1184
▁general	-1185
▁security	-1186
▁8	-1187
gin	-1188
ons	-1189
ware	-1190
▁conn	-1191
▁inte	-1192
▁next	-1193
▁build	-1194
▁water	-1195
▁matter	-1196
▁address	-1197
▁&	-1198
▁9	-1199
els	-1200
ier	-1201
isl	-1202
▁ir	-1203
ield	-1204
lose	-1205
▁less	-1206
▁look	-1207
▁mult	-1208
▁test	-1209
▁webs	-1210
▁among	-1211
▁short	-1212
▁action	-1213
▁contact	-1214
▁individ	-1215
▁cooperation	-1216
bal	-1217
ify	-1218
ains	-1219
eric	-1220
reen	-1221
▁ask	-1222
▁mot	-1223
▁bene	-1224
▁prin	-1225
▁soft	-1226
▁friend	-1227
▁comfort	-1228
▁profess	-1229
▁community	-1230
co	-1231
nov	-1232
ool	-1233
ined	-1234
▁exc	-1235
▁lim	-1236
▁non	-1237
▁opt	-1238
▁cris	-1239
▁wish	-1240
ources	-1241
▁somet	-1242
▁taken	-1243
sibility	-1244
▁di	-1245
▁pa	-1246
▁net	-1247
▁sta	-1248
▁tri	-1249
▁wee	-1250
ified	-1251
itive	-1252
iving	-1253
▁mean	-1254
▁redu	-1255
▁summ	-1256
ensive	-1257
▁beaut	-1258
▁frame	-1259
ditions	-1260
▁account	-1261
▁central	-1262
▁location	-1263
10	-1264
iti	-1265
ogn	-1266
ners	-1267
oura	-1268
▁tax	-1269
stand	-1270
▁char	-1271
▁enjo	-1272
▁page	-1273
▁site	-1274
▁soci	-1275
▁vote	-1276
▁break	-1277
▁close	-1278
▁itself	-1279
▁proced	-1280
▁single	-1281
▁company	-1282
▁measures	-1283
▁personal	-1284
▁customers	-1285
fer	-1286
por	-1287
ret	-1288
ling	-1289
▁del	-1290
▁doc	-1291
▁glo	-1292
▁hol	-1293
▁ret	-1294
ently	-1295
▁read	-1296
▁invol	-1297
▁create	-1298
▁ensure	-1299
▁integr	-1300
▁repres	-1301
▁complete	-1302
ars	-1303
ung	-1304
▁cho	-1305
▁fil	-1306
▁him	-1307
▁mus	-1308
ficult	-1309
ization	-1310
▁welcome	-1311
▁working	-1312
▁difficult	-1313
he	-1314
▁[	-1315
cing	-1316
▁dri	-1317
arant	-1318
▁deal	-1319
▁feat	-1320
▁legal	-1321
▁needs	-1322
▁reach	-1323
▁americ	-1324
▁modern	-1325
▁provide	-1326
▁approach	-1327
az	-1328
gg	-1329
▁]	-1330
ark	-1331
ium	-1332
▁ve	-1333
ward	-1334
▁cas	-1335
▁fish	-1336
▁home	-1337
▁step	-1338
▁west	-1339
▁guarant	-1340
▁minutes	-1341
▁systems	-1342
▁particularly	-1343
alf	-1344
ock	-1345
par	-1346
▁12	-1347
▁ann	-1348
▁mrs	-1349
▁give	-1350
▁host	-1351
▁enter	-1352
▁rules	-1353
▁until	-1354
aterial	-1355
▁accord	-1356
▁princi	-1357
▁install	-1358
▁individual	-1359
pr	-1360
way	-1361
▁18	-1362
▁vi	-1363
itor	-1364
most	-1365
rict	-1366
tern	-1367
▁lab	-1368
▁yet	-1369
thing	-1370
▁docu	-1371
▁sure	-1372
ically	-1373
▁crisis	-1374
▁legisl	-1375
▁region	-1376
▁private	-1377
▁subject	-1378
▁decision	-1379
▁industry	-1380
▁conditions	-1381
ale	-1382
ann	-1383
ible	-1384
▁bed	-1385
▁did	-1386
ising	-1387
gether	-1388
▁third	-1389
ference	-1390
▁better	-1391
▁democr	-1392
▁family	-1393
▁recogn	-1394
▁request	-1395
▁internet	-1396
▁material	-1397
▁together	-1398
▁experience	-1399
▁environment	-1400
▁ge	-1401
▁mil	-1402
rigin	-1403
▁days	-1404
▁food	-1405
▁lang	-1406
▁near	-1407
▁always	-1408
▁origin	-1409
▁website	-1410
▁consider	-1411
▁effective	-1412
▁framework	-1413
ux	-1414
▁x	-1415
ule	-1416
ands	-1417
load	-1418
word	-1419
▁lat	-1420
ought	-1421
▁tool	-1422
ooking	-1423
▁enjoy	-1424
▁terms	-1425
▁whole	-1426
pportun	-1427
▁compan	-1428
▁global	-1429
▁opportun	-1430
eur	-1431
fact	-1432
less	-1433
orth	-1434
peci	-1435
room	-1436
▁rom	-1437
▁tot	-1438
▁tow	-1439
▁wal	-1440
▁bank	-1441
▁ital	-1442
▁vill	-1443
▁exist	-1444
▁field	-1445
▁become	-1446
▁detail	-1447
▁issues	-1448
▁review	-1449
▁united	-1450
by	-1451
ng	-1452
of	-1453
erv	-1454
men	-1455
▁gl	-1456
soci	-1457
▁bor	-1458
▁mid	-1459
▁pal	-1460
ators	-1461
▁comb	-1462
▁expl	-1463
▁mach	-1464
▁name	-1465
▁pack	-1466
▁apart	-1467
▁begin	-1468
▁creat	-1469
▁least	-1470
▁never	-1471
▁struct	-1472
▁improve	-1473
▁provided	-1474
be	-1475
ik	-1476
iss	-1477
ond	-1478
raph	-1479
▁aid	-1480
▁enc	-1481
▁fav	-1482
ither	-1483
▁away	-1484
▁crit	-1485
▁done	-1486
▁kind	-1487
▁live	-1488
▁going	-1489
▁often	-1490
▁pages	-1491
▁price	-1492
▁super	-1493
▁associ	-1494
▁consum	-1495
▁treaty	-1496
▁serious	-1497
▁management	-1498
na	-1499
lev	-1500
oti	-1501
▁ur	-1502
ased	-1503
iful	-1504
▁job	-1505
imate	-1506
▁bath	-1507
▁educ	-1508
▁news	-1509
▁once	-1510
▁basis	-1511
▁extre	-1512
▁staff	-1513
▁trade	-1514
▁visit	-1515
ination	-1516
▁excell	-1517
▁sector	-1518
▁travel	-1519
pecially	-1520
▁introdu	-1521
▁beautiful	-1522
▁companies	-1523
▁lo	-1524
side	-1525
▁pat	-1526
aking	-1527
▁clic	-1528
▁full	-1529
▁fully	-1530
▁langu	-1531
▁prior	-1532
▁expect	-1533
▁negoti	-1534
▁rather	-1535
▁achieve	-1536
▁finally	-1537
▁progress	-1538
▁represent	-1539
▁especially	-1540
▁production	-1541
▁restaurant	-1542
ave	-1543
▁ri	-1544
▁wom	-1545
ittle	-1546
ories	-1547
▁move	-1548
▁turn	-1549
▁benef	-1550
▁month	-1551
▁press	-1552
▁quite	-1553
▁proper	-1554
▁safety	-1555
▁school	-1556
▁contrib	-1557
▁germany	-1558
▁mention	-1559
▁version	-1560
▁tradition	-1561
▁sl	-1562
ably	-1563
cies	-1564
ours	-1565
▁flo	-1566
▁occ	-1567
▁sea	-1568
▁she	-1569
▁sou	-1570
▁east	-1571
▁phot	-1572
▁terr	-1573
▁text	-1574
isions	-1575
▁light	-1576
▁makes	-1577
▁sever	-1578
▁constit	-1579
▁various	-1580
ash	-1581
ins	-1582
ody	-1583
ote	-1584
ury	-1585
▁dev	-1586
fully	-1587
▁head	-1588
▁keep	-1589
▁larg	-1590
▁simp	-1591
ending	-1592
▁class	-1593
▁innov	-1594
▁peace	-1595
▁things	-1596
▁partners	-1597
▁software	-1598
▁solution	-1599
▁proposals	-1600
▁30	-1601
ived	-1602
▁big	-1603
▁due	-1604
▁try	-1605
▁und	-1606
ences	-1607
ended	-1608
▁appe	-1609
▁line	-1610
▁night	-1611
▁young	-1612
▁entire	-1613
▁growth	-1614
▁little	-1615
▁communic	-1616
▁following	-1617
▁programme	-1618
ext	-1619
ilt	-1620
ron	-1621
fast	-1622
over	-1623
pare	-1624
▁den	-1625
▁eur	-1626
▁2009	-1627
▁post	-1628
▁role	-1629
▁above	-1630
▁beach	-1631
▁initi	-1632
▁local	-1633
▁works	-1634
▁taking	-1635
▁window	-1636
▁million	-1637
▁children	-1638
▁required	-1639
▁amendment	-1640
▁presidency	-1641
ats	-1642
edi	-1643
eed	-1644
ert	-1645
ime	-1646
▁ess	-1647
▁tal	-1648
▁top	-1649
ister	-1650
▁user	-1651
▁funda	-1652
▁almost	-1653
▁around	-1654
▁guests	-1655
▁simply	-1656
▁capital	-1657
▁foreign	-1658
▁society	-1659
▁function	-1660
▁signific	-1661
▁relations	-1662
▁/	-1663
▁|	-1664
ade	-1665
ane	-1666
iod	-1667
irc	-1668
xim	-1669
▁id	-1670
ffic	-1671
▁tar	-1672
▁card	-1673
▁opin	-1674
ricult	-1675
▁green	-1676
▁really	-1677
▁context	-1678
▁extreme	-1679
▁include	-1680
▁prevent	-1681
▁several	-1682
▁agricult	-1683
▁regional	-1684
▁excellent	-1685
▁convention	-1686
ged	-1687
ipp	-1688
oney	-1689
▁abs	-1690
▁men	-1691
▁alth	-1692
▁deli	-1693
▁four	-1694
▁risk	-1695
▁autom	-1696
▁chall	-1697
▁check	-1698
▁regul	-1699
▁meeting	-1700
▁although	-1701
▁continue	-1702
▁breakfast	-1703
▁resources	-1704
▁competition	-1705
▁responsibility	-1706
gu	-1707
ok	-1708
▁0	-1709
und	-1710
▁dou	-1711
▁foc	-1712
▁sty	-1713
▁upd	-1714
ances	-1715
▁easy	-1716
▁hard	-1717
▁road	-1718
▁stat	-1719
▁subm	-1720
idence	-1721
▁click	-1722
▁colle	-1723
▁madam	-1724
▁money	-1725
ountain	-1726
▁active	-1727
▁period	-1728
▁recomm	-1729
▁search	-1730
▁perform	-1731
▁results	-1732
▁contract	-1733
▁according	-1734
▁democratic	-1735
wh	-1736
ler	-1737
airs	-1738
icle	-1739
osed	-1740
▁aud	-1741
▁cut	-1742
▁dom	-1743
▁mor	-1744
▁opp	-1745
▁tas	-1746
epend	-1747
▁aust	-1748
▁seem	-1749
▁town	-1750
▁week	-1751
▁broad	-1752
▁event	-1753
▁quick	-1754
ception	-1755
▁german	-1756
▁having	-1757
▁making	-1758
▁something	-1759
▁standards	-1760
▁technical	-1761
▁legislation	-1762
br	-1763
ze	-1764
▁et	-1765
ises	-1766
▁ant	-1767
▁cal	-1768
▁cri	-1769
▁fle	-1770
▁lin	-1771
▁via	-1772
arity	-1773
itted	-1774
▁circ	-1775
▁fail	-1776
▁file	-1777
▁past	-1778
▁pric	-1779
▁court	-1780
▁focus	-1781
▁force	-1782
▁comput	-1783
▁online	-1784
pporteur	-1785
▁changes	-1786
▁continu	-1787
▁parties	-1788
▁projects	-1789
▁certainly	-1790
▁increasing	-1791
▁rapporteur	-1792
▁professional	-1793
ca	-1794
ery	-1795
iet	-1796
ode	-1797
ops	-1798
val	-1799
▁14	-1800
ator	-1801
ison	-1802
itch	-1803
▁dam	-1804
▁der	-1805
ected	-1806
▁gent	-1807
▁achie	-1808
▁bring	-1809
▁china	-1810
▁costs	-1811
▁holid	-1812
▁music	-1813
▁times	-1814
▁called	-1815
▁either	-1816
▁express	-1817
▁opinion	-1818
▁directly	-1819
▁download	-1820
▁independ	-1821
▁mountain	-1822
▁questions	-1823
▁resolution	-1824
▁significant	-1825
go	-1826
sw	-1827
ims	-1828
lin	-1829
▁11	-1830
edom	-1831
ript	-1832
▁hon	-1833
▁low	-1834
▁sci	-1835
▁tur	-1836
acter	-1837
ening	-1838
ggest	-1839
▁left	-1840
▁perf	-1841
▁stre	-1842
▁thus	-1843
▁along	-1844
▁share	-1845
▁speak	-1846
▁women	-1847
utional	-1848
▁effort	-1849
▁favour	-1850
▁suggest	-1851
▁towards	-1852
▁features	-1853
▁understand	-1854
▁application	-1855
gth	-1856
uge	-1857
▁sal	-1858
▁win	-1859
anced	-1860
atory	-1861
thers	-1862
▁arch	-1863
▁perm	-1864
▁rate	-1865
▁wide	-1866
ension	-1867
rength	-1868
selves	-1869
▁relax	-1870
▁solid	-1871
▁space	-1872
▁assist	-1873
▁groups	-1874
▁freedom	-1875
▁keyword	-1876
▁customer	-1877
▁provides	-1878
▁education	-1879
▁principle	-1880
▁solutions	-1881
▁activities	-1882
▁facilities	-1883
▁technology	-1884
▁fundamental	-1885
20	-1886
pa	-1887
irt	-1888
▁16	-1889
▁24	-1890
▁dr	-1891
ired	-1892
mber	-1893
racy	-1894
ured	-1895
▁log	-1896
ished	-1897
round	-1898
ufact	-1899
▁answ	-1900
▁cond	-1901
▁draw	-1902
▁team	-1903
▁upon	-1904
ograph	-1905
▁aware	-1906
▁front	-1907
▁heart	-1908
▁might	-1909
▁offic	-1910
▁island	-1911
▁needed	-1912
▁prices	-1913
▁reform	-1914
▁discuss	-1915
▁natural	-1916
ification	-1917
▁language	-1918
▁strength	-1919
▁guarantee	-1920
▁importance	-1921
gn	-1922
sc	-1923
aps	-1924
irm	-1925
lig	-1926
▁ce	-1927
▁fa	-1928
ides	-1929
▁sun	-1930
arian	-1931
ember	-1932
▁desc	-1933
▁farm	-1934
▁feel	-1935
▁lear	-1936
▁send	-1937
▁vide	-1938
▁admin	-1939
▁ident	-1940
▁party	-1941
▁total	-1942
▁views	-1943
▁histor	-1944
▁others	-1945
▁values	-1946
▁forward	-1947
▁manufact	-1948
▁particip	-1949
▁standard	-1950
▁attention	-1951
▁additional	-1952
▁concerning	-1953
▁investment	-1954
▁institutions	-1955
acy	-1956
bon	-1957
ees	-1958
ott	-1959
ria	-1960
▁25	-1961
atch	-1962
ians	-1963
ored	-1964
rect	-1965
▁ber	-1966
▁pot	-1967
▁san	-1968
▁tem	-1969
ategy	-1970
ledge	-1971
▁true	-1972
▁effic	-1973
ibility	-1974
ruction	-1975
▁credit	-1976
▁demand	-1977
▁gentle	-1978
▁remain	-1979
▁created	-1980
▁distrib	-1981
▁perfect	-1982
▁program	-1983
▁increase	-1984
▁proposed	-1985
▁strategy	-1986
▁surround	-1987
▁extremely	-1988
▁amendments	-1989
▁conference	-1990
▁negotiations	-1991
▁communication	-1992
ead	-1993
ior	-1994
ned	-1995
▁ec	-1996
aste	-1997
ites	-1998
ples	-1999
tion	-2000
▁cop	-2001
▁lad	-2002
▁mob	-2003
▁mov	-2004
▁pan	-2005
▁sat	-2006
ering	-2007
▁dest	-2008
▁game	-2009
▁gard	-2010
▁viol	-2011
▁basic	-2012
▁nature	-2013
▁recent	-2014
▁adopted	-2015
▁clearly	-2016
▁history	-2017
▁network	-2018
▁univers	-2019
▁windows	-2020
▁maintain	-2021
▁currently	-2022
▁procedure	-2023
▁everything	-2024
▁implementation	-2025
att	-2026
cut	-2027
hod	-2028
mar	-2029
pri	-2030
ven	-2031
▁50	-2032
▁ul	-2033
oint	-2034
▁dut	-2035
▁red	-2036
▁spa	-2037
ussia	-2038
▁2008	-2039
▁dial	-2040
▁mech	-2041
▁mind	-2042
▁nice	-2043
ussion	-2044
▁built	-2045
▁cross	-2046
▁manag	-2047
▁stage	-2048
▁voted	-2049
▁months	-2050
▁complex	-2051
▁content	-2052
▁monitor	-2053
▁administ	-2054
▁cultural	-2055
▁situated	-2056
▁training	-2057
▁character	-2058
▁mentioned	-2059
▁regulation	-2060
▁comfortable	-2061
▁environmental	-2062
ets	-2063
ony	-2064
oss	-2065
une	-2066
use	-2067
▁bi	-2068
▁er	-2069
ened	-2070
lear	-2071
pose	-2072
ring	-2073
▁lic	-2074
▁rad	-2075
iable	-2076
▁2010	-2077
▁anal	-2078
▁date	-2079
▁pool	-2080
▁capac	-2081
▁image	-2082
▁parts	-2083
▁sound	-2084
▁takes	-2085
▁value	-2086
▁ground	-2087
▁living	-2088
▁method	-2089
▁russia	-2090
atically	-2091
▁concept	-2092
▁greater	-2093
▁outside	-2094
▁station	-2095
▁actually	-2096
▁building	-2097
▁computer	-2098
▁friendly	-2099
▁includes	-2100
▁internal	-2101
▁policies	-2102
▁concerned	-2103
▁decisions	-2104
▁gentlemen	-2105
▁recommend	-2106
▁requirements	-2107
la	-2108
▁*	-2109
has	-2110
oot	-2111
ters	-2112
▁six	-2113
ommod	-2114
rench	-2115
stain	-2116
▁harm	-2117
▁hold	-2118
▁rule	-2119
▁safe	-2120
▁comes	-2121
▁floor	-2122
▁later	-2123
▁purch	-2124
ression	-2125
▁allows	-2126
▁commit	-2127
▁enough	-2128
▁ladies	-2129
▁mechan	-2130
▁select	-2131
▁though	-2132
▁climate	-2133
▁encoura	-2134
▁accommod	-2135
▁connection	-2136
▁traditional	-2137
dle	-2138
key	-2139
▁17	-2140
▁cy	-2141
aces	-2142
bour	-2143
ires	-2144
ster	-2145
▁mom	-2146
▁ter	-2147
▁typ	-2148
erous	-2149
istic	-2150
itary	-2151
light	-2152
▁anim	-2153
▁book	-2154
▁caus	-2155
▁ever	-2156
▁five	-2157
▁flex	-2158
▁soon	-2159
▁fight	-2160
▁joint	-2161
▁north	-2162
▁range	-2163
▁users	-2164
▁words	-2165
▁aspect	-2166
▁commer	-2167
▁events	-2168
▁immedi	-2169
▁longer	-2170
▁regist	-2171
▁return	-2172
▁target	-2173
▁unique	-2174
▁instead	-2175
▁package	-2176
▁contains	-2177
▁document	-2178
▁interests	-2179
▁authorities	-2180
no	-2181
for	-2182
ker	-2183
ots	-2184
▁km	-2185
,000	-2186
sequ	-2187
wide	-2188
▁ago	-2189
▁ten	-2190
▁won	-2191
▁arri	-2192
▁item	-2193
▁prec	-2194
▁side	-2195
ctions	-2196
itions	-2197
itting	-2198
▁email	-2199
▁extra	-2200
▁ideal	-2201
▁oblig	-2202
▁exclus	-2203
▁france	-2204
▁french	-2205
▁instru	-2206
▁points	-2207
▁benefit	-2208
▁century	-2209
▁consult	-2210
▁holiday	-2211
▁italian	-2212
▁looking	-2213
▁related	-2214
▁reports	-2215
▁sustain	-2216
▁writing	-2217
▁capacity	-2218
▁involved	-2219
▁essential	-2220
▁objective	-2221
▁transpare	-2222
▁established	-2223
▁responsible	-2224
ef	-2225
elf	-2226
hib	-2227
let	-2228
man	-2229
oid	-2230
urg	-2231
▁il	-2232
▁wa	-2233
empt	-2234
ivil	-2235
cious	-2236
▁cham	-2237
▁decl	-2238
▁link	-2239
▁mass	-2240
▁pain	-2241
▁sens	-2242
▁sent	-2243
▁type	-2244
▁civil	-2245
▁defin	-2246
▁known	-2247
▁south	-2248
▁style	-2249
▁tools	-2250
▁emphas	-2251
▁indeed	-2252
▁airport	-2253
▁efforts	-2254
▁markets	-2255
▁publish	-2256
▁reviews	-2257
▁strateg	-2258
▁stability	-2259
▁discussion	-2260
▁employment	-2261
▁population	-2262
▁opportunity	-2263
.0	-2264
.5	-2265
ha	-2266
kt	-2267
sp	-2268
equ	-2269
sid	-2270
str	-2271
ceed	-2272
ogue	-2273
rast	-2274
ried	-2275
unch	-2276
vere	-2277
▁oil	-2278
▁tab	-2279
▁tre	-2280
ients	-2281
itten	-2282
oking	-2283
ously	-2284
ulate	-2285
▁exch	-2286
▁fair	-2287
▁furn	-2288
▁mess	-2289
▁note	-2290
▁park	-2291
▁afric	-2292
▁apply	-2293
▁board	-2294
▁march	-2295
▁rates	-2296
▁round	-2297
▁thing	-2298
▁video	-2299
▁advant	-2300
▁record	-2301
▁simple	-2302
▁affairs	-2303
▁confirm	-2304
▁correct	-2305
▁economy	-2306
▁popular	-2307
▁protect	-2308
▁quickly	-2309
▁everyone	-2310
▁existing	-2311
▁positive	-2312
▁democracy	-2313
▁developed	-2314
▁materials	-2315
▁submitted	-2316
▁successful	-2317
▁applications	-2318
▁accommodation	-2319
apt	-2320
den	-2321
off	-2322
▁13	-2323
▁40	-2324
▁du	-2325
▁tv	-2326
ames	-2327
lier	-2328
ross	-2329
▁cru	-2330
▁emb	-2331
▁enl	-2332
▁etc	-2333
▁lis	-2334
▁lux	-2335
▁obv	-2336
▁ult	-2337
▁vol	-2338
ident	-2339
▁deep	-2340
▁fast	-2341
▁firm	-2342
▁half	-2343
▁pict	-2344
▁virt	-2345
atives	-2346
▁demon	-2347
▁indic	-2348
▁behalf	-2349
▁depend	-2350
▁moment	-2351
▁reserv	-2352
▁supply	-2353
▁culture	-2354
▁machine	-2355
▁obvious	-2356
▁designed	-2357
▁previous	-2358
▁knowledge	-2359
▁developing	-2360
▁programmes	-2361
bo	-2362
yn	-2363
iab	-2364
aced	-2365
grat	-2366
haps	-2367
▁amb	-2368
▁blo	-2369
▁oct	-2370
antic	-2371
antly	-2372
ipped	-2373
ublic	-2374
▁agre	-2375
▁face	-2376
▁prob	-2377
▁task	-2378
▁tele	-2379
▁took	-2380
▁vict	-2381
▁early	-2382
▁liber	-2383
▁sense	-2384
▁amount	-2385
▁choose	-2386
▁middle	-2387
▁terror	-2388
▁threat	-2389
▁america	-2390
▁attract	-2391
▁conclud	-2392
▁congrat	-2393
▁partner	-2394
▁majority	-2395
▁military	-2396
▁practice	-2397
▁transfer	-2398
▁beginning	-2399
▁initiative	-2400
▁innovation	-2401
▁themselves	-2402
▁throughout	-2403
lu	-2404
ma	-2405
200	-2406
hes	-2407
ino	-2408
olf	-2409
zer	-2410
▁vo	-2411
ania	-2412
eria	-2413
ival	-2414
ouch	-2415
▁ill	-2416
▁mer	-2417
▁sil	-2418
▁squ	-2419
ables	-2420
▁appl	-2421
▁idea	-2422
▁muse	-2423
▁norm	-2424
▁rele	-2425
▁wall	-2426
▁accom	-2427
▁below	-2428
▁cases	-2429
▁clean	-2430
▁immig	-2431
▁media	-2432
▁print	-2433
▁speed	-2434
▁sport	-2435
▁terra	-2436
▁white	-2437
▁behind	-2438
▁center	-2439
▁except	-2440
▁interv	-2441
▁article	-2442
▁contain	-2443
▁counter	-2444
▁largest	-2445
▁perhaps	-2446
▁receive	-2447
▁regions	-2448
▁western	-2449
▁workers	-2450
ategories	-2451
▁american	-2452
▁bathroom	-2453
▁minister	-2454
▁produced	-2455
▁received	-2456
▁regarding	-2457
▁commercial	-2458
▁solidarity	-2459
▁interesting	-2460
▁agricultural	-2461
▁construction	-2462
ank	-2463
che	-2464
opp	-2465
pro	-2466
lied	-2467
ober	-2468
play	-2469
rupt	-2470
▁100	-2471
▁aim	-2472
▁cla	-2473
▁exe	-2474
▁har	-2475
▁hig	-2476
▁jud	-2477
▁nor	-2478
▁pen	-2479
▁sav	-2480
▁ste	-2481
▁urg	-2482
▁camp	-2483
▁cast	-2484
▁desp	-2485
▁emer	-2486
▁fall	-2487
▁held	-2488
▁land	-2489
▁size	-2490
▁vari	-2491
▁wood	-2492
uclear	-2493
urance	-2494
▁avoid	-2495
▁funds	-2496
▁leave	-2497
▁maxim	-2498
▁minim	-2499
▁separ	-2500
▁shows	-2501
▁subst	-2502
▁thous	-2503
▁determ	-2504
▁enable	-2505
▁famous	-2506
▁lisbon	-2507
▁museum	-2508
▁turkey	-2509
▁useful	-2510
▁english	-2511
▁october	-2512
▁reality	-2513
▁written	-2514
▁appropri	-2515
▁concerns	-2516
▁official	-2517
▁documents	-2518
▁practical	-2519
▁treatment	-2520
gs	-2521
▁‘	-2522
ada	-2523
ech	-2524
gra	-2525
mbh	-2526
raq	-2527
▁21	-2528
acks	-2529
amic	-2530
ilar	-2531
ming	-2532
term	-2533
uted	-2534
▁bad	-2535
▁chr	-2536
▁div	-2537
▁ele	-2538
▁jan	-2539
▁rus	-2540
aring	-2541
ights	-2542
olute	-2543
ource	-2544
▁2007	-2545
▁clos	-2546
▁iraq	-2547
▁jobs	-2548
▁june	-2549
▁phys	-2550
▁pros	-2551
▁rail	-2552
▁self	-2553
fortun	-2554
inated	-2555
▁becom	-2556
▁coord	-2557
▁decor	-2558
▁equip	-2559
▁model	-2560
▁seems	-2561
▁shown	-2562
▁altern	-2563
▁conver	-2564
▁corpor	-2565
▁reduce	-2566
▁subsid	-2567
▁summer	-2568
▁thanks	-2569
▁collect	-2570
▁conflic	-2571
▁nations	-2572
▁promote	-2573
▁sectors	-2574
▁tourism	-2575
▁absolute	-2576
▁original	-2577
▁unfortun	-2578
▁direction	-2579
▁increased	-2580
▁potential	-2581
▁providing	-2582
rs	-2583
alu	-2584
ano	-2585
bor	-2586
cel	-2587
new	-2588
ona	-2589
reg	-2590
▁je	-2591
aily	-2592
ilit	-2593
imes	-2594
know	-2595
raft	-2596
resh	-2597
▁alb	-2598
▁bra	-2599
▁bul	-2600
▁dig	-2601
▁fel	-2602
▁mic	-2603
▁ord	-2604
etary	-2605
inary	-2606
▁argu	-2607
▁body	-2608
▁flow	-2609
▁jour	-2610
▁prep	-2611
▁qual	-2612
▁seen	-2613
▁spir	-2614
▁swed	-2615
▁charg	-2616
▁daily	-2617
▁oppos	-2618
▁satis	-2619
▁steps	-2620
▁assess	-2621
▁depart	-2622
▁extern	-2623
▁wonder	-2624
isations	-2625
rastruct	-2626
▁billion	-2627
▁friends	-2628
▁matters	-2629
▁nothing	-2630
▁nuclear	-2631
▁reflect	-2632
▁village	-2633
▁achieved	-2634
▁demonstr	-2635
▁probably	-2636
▁property	-2637
▁recently	-2638
▁republic	-2639
▁authority	-2640
▁consumers	-2641
▁extensive	-2642
▁integrated	-2643
▁independent	-2644
▁infrastruct	-2645
ex	-2646
su	-2647
ta	-2648
ese	-2649
mos	-2650
rop	-2651
ser	-2652
ton	-2653
ding	-2654
face	-2655
ging	-2656
ills	-2657
more	-2658
ooks	-2659
rael	-2660
road	-2661
▁198	-2662
▁buy	-2663
▁die	-2664
▁fed	-2665
eless	-2666
ivity	-2667
▁else	-2668
▁gmbh	-2669
▁guid	-2670
▁huge	-2671
▁late	-2672
▁prem	-2673
▁repl	-2674
▁suff	-2675
▁weak	-2676
encies	-2677
▁doing	-2678
▁draft	-2679
▁hours	-2680
▁paper	-2681
issions	-2682
pective	-2683
▁answer	-2684
▁became	-2685
▁berlin	-2686
▁client	-2687
▁coming	-2688
▁config	-2689
▁engine	-2690
▁higher	-2691
▁israel	-2692
▁latest	-2693
▁promot	-2694
▁series	-2695
▁allowed	-2696
▁despite	-2697
▁enlarge	-2698
▁leaders	-2699
▁limited	-2700
▁persons	-2701
▁challeng	-2702
▁dialogue	-2703
▁equipped	-2704
▁secondly	-2705
sibilities	-2706
▁highlight	-2707
▁operation	-2708
▁completely	-2709
▁procedures	-2710
▁university	-2711
▁integration	-2712
▁opportunities	-2713
▁infrastructure	-2714
30	-2715
50	-2716
bt	-2717
cl	-2718
ls	-2719
▁€	-2720
ges	-2721
ift	-2722
net	-2723
osp	-2724
put	-2725
uly	-2726
▁ey	-2727
▁fu	-2728
▁hy	-2729
▁uk	-2730
berg	-2731
idge	-2732
iter	-2733
rial	-2734
sels	-2735
uary	-2736
▁hor	-2737
▁lot	-2738
▁rot	-2739
▁veh	-2740
ially	-2741
verty	-2742
▁cert	-2743
▁club	-2744
▁dece	-2745
▁fest	-2746
▁gain	-2747
▁gree	-2748
▁iran	-2749
▁star	-2750
▁stor	-2751
▁tell	-2752
porary	-2753
▁evalu	-2754
▁famil	-2755
▁files	-2756
▁motor	-2757
▁ready	-2758
▁reser	-2759
▁table	-2760
▁annual	-2761
▁damage	-2762
▁forest	-2763
▁former	-2764
▁garden	-2765
▁minist	-2766
▁motion	-2767
▁austria	-2768
▁booking	-2769
▁brought	-2770
▁highest	-2771
▁poverty	-2772
▁similar	-2773
▁consumer	-2774
▁external	-2775
▁prepared	-2776
categories	-2777
▁employees	-2778
▁mountains	-2779
▁presented	-2780
▁agreements	-2781
▁enlargement	-2782
▁immediately	-2783
▁manufacture	-2784
▁regulations	-2785
af	-2786
ai	-2787
ana	-2788
gen	-2789
pre	-2790
the	-2791
ump	-2792
apan	-2793
eral	-2794
mark	-2795
▁box	-2796
▁mal	-2797
itect	-2798
lands	-2799
▁came	-2800
▁eleg	-2801
▁gold	-2802
▁hosp	-2803
▁hous	-2804
▁love	-2805
▁path	-2806
▁rent	-2807
▁repe	-2808
▁sept	-2809
▁stop	-2810
▁stra	-2811
▁tren	-2812
▁condu	-2813
▁exhib	-2814
▁final	-2815
▁happy	-2816
▁micro	-2817
▁neigh	-2818
▁study	-2819
▁weeks	-2820
itarian	-2821
iveness	-2822
▁border	-2823
▁choice	-2824
▁christ	-2825
▁compli	-2826
▁double	-2827
▁forces	-2828
▁medium	-2829
▁multip	-2830
▁resort	-2831
▁secret	-2832
▁speech	-2833
▁status	-2834
▁voting	-2835
▁colleag	-2836
▁connect	-2837
▁consequ	-2838
▁crucial	-2839
▁effects	-2840
▁enterpr	-2841
▁january	-2842
▁maximum	-2843
▁meaning	-2844
▁purpose	-2845
▁variety	-2846
▁district	-2847
▁monetary	-2848
▁requires	-2849
▁condition	-2850
▁construct	-2851
▁efficient	-2852
▁elections	-2853
▁equipment	-2854
▁exclusive	-2855
▁worldwide	-2856
▁association	-2857
▁performance	-2858
▁sustainable	-2859
▁organisations	-2860
▁unfortunately	-2861
.1	-2862
.00	-2863
gar	-2864
hol	-2865
oph	-2866
pid	-2867
ray	-2868
ses	-2869
▁mo	-2870
▁ut	-2871
ases	-2872
body	-2873
enge	-2874
enty	-2875
ream	-2876
reci	-2877
rian	-2878
▁age	-2879
▁deg	-2880
▁don	-2881
▁fig	-2882
▁led	-2883
▁mac	-2884
▁pow	-2885
where	-2886
▁2000	-2887
▁asia	-2888
▁brit	-2889
▁brus	-2890
▁code	-2891
▁copy	-2892
▁dise	-2893
▁film	-2894
▁load	-2895
▁lost	-2896
▁unit	-2897
▁ways	-2898
action	-2899
▁black	-2900
▁calls	-2901
▁carry	-2902
▁decid	-2903
▁gives	-2904
▁goods	-2905
▁grant	-2906
▁graph	-2907
▁hands	-2908
▁italy	-2909
▁japan	-2910
▁pleas	-2911
▁refer	-2912
▁russi	-2913
▁sales	-2914
▁across	-2915
▁agreed	-2916
▁charge	-2917
▁circum	-2918
▁conven	-2919
▁larger	-2920
▁launch	-2921
▁office	-2922
▁relate	-2923
▁scient	-2924
▁season	-2925
▁techni	-2926
ological	-2927
▁actions	-2928
▁aspects	-2929
▁attempt	-2930
▁comprom	-2931
▁element	-2932
▁fishing	-2933
▁leading	-2934
▁precise	-2935
▁reasons	-2936
▁section	-2937
▁accepted	-2938
▁anything	-2939
▁creating	-2940
▁detailed	-2941
▁distance	-2942
▁movement	-2943
▁response	-2944
▁architect	-2945
▁challenge	-2946
▁september	-2947
▁apartments	-2948
▁interested	-2949
▁respective	-2950
-1	-2951
do	-2952
ari	-2953
▁cu	-2954
cent	-2955
enda	-2956
just	-2957
kets	-2958
ones	-2959
ques	-2960
ties	-2961
wise	-2962
▁arr	-2963
▁cat	-2964
▁dru	-2965
▁fit	-2966
▁gre	-2967
▁mun	-2968
▁pet	-2969
▁sex	-2970
▁sha	-2971
▁ski	-2972
▁tro	-2973
anean	-2974
aries	-2975
craft	-2976
▁2003	-2977
▁2005	-2978
▁base	-2979
▁buff	-2980
▁lake	-2981
▁lies	-2982
▁mand	-2983
▁swim	-2984
▁talk	-2985
▁walk	-2986
▁word	-2987
▁crime	-2988
▁equal	-2989
▁river	-2990
▁waste	-2991
▁whose	-2992
ourable	-2993
▁agenda	-2994
▁finish	-2995
▁highly	-2996
▁impact	-2997
▁mobile	-2998
▁obtain	-2999
▁palest	-3000
▁reject	-3001
▁server	-3002
▁stress	-3003
▁welcom	-3004
fficient	-3005
▁balance	-3006
▁concent	-3007
▁display	-3008
▁finance	-3009
▁justice	-3010
▁liberal	-3011
▁morning	-3012
▁produce	-3013
▁reached	-3014
▁reading	-3015
▁sources	-3016
▁started	-3017
▁comments	-3018
▁december	-3019
▁exchange	-3020
▁included	-3021
▁numerous	-3022
▁pressure	-3023
▁priority	-3024
▁starting	-3025
▁advantage	-3026
▁sometimes	-3027
▁structure	-3028
▁commitment	-3029
▁industrial	-3030
▁partnership	-3031
▁relationship	-3032
▁institutional	-3033
.2	-3034
ah	-3035
sh	-3036
asc	-3037
ban	-3038
era	-3039
ger	-3040
ira	-3041
reh	-3042
ril	-3043
▁23	-3044
bert	-3045
dict	-3046
fied	-3047
hern	-3048
icip	-3049
semb	-3050
star	-3051
▁197	-3052
▁got	-3053
▁mag	-3054
▁mig	-3055
▁mix	-3056
▁rat	-3057
▁slo	-3058
anish	-3059
arent	-3060
eries	-3061
house	-3062
iency	-3063
iterr	-3064
izing	-3065
lines	-3066
▁2002	-3067
▁cand	-3068
▁coll	-3069
▁goes	-3070
▁golf	-3071
▁hung	-3072
▁leav	-3073
▁rout	-3074
▁sett	-3075
▁weap	-3076
istics	-3077
▁adapt	-3078
▁asked	-3079
▁atmos	-3080
▁learn	-3081
▁limit	-3082
▁occur	-3083
▁photo	-3084
▁plant	-3085
▁quiet	-3086
▁trust	-3087
ressive	-3088
▁agency	-3089
▁appear	-3090
▁export	-3091
▁hotels	-3092
▁option	-3093
▁player	-3094
▁spirit	-3095
▁studio	-3096
▁tabled	-3097
▁update	-3098
▁compreh	-3099
▁conclus	-3100
▁conduct	-3101
▁details	-3102
▁facilit	-3103
▁managed	-3104
▁setting	-3105
▁storage	-3106
▁walking	-3107
▁activity	-3108
▁criteria	-3109
▁peaceful	-3110
▁strongly	-3111
▁violence	-3112
iterranean	-3113
▁apartment	-3114
▁carefully	-3115
▁corporate	-3116
▁statement	-3117
▁objectives	-3118
▁alternative	-3119
▁appropriate	-3120
▁governments	-3121
bu	-3122
ka	-3123
sy	-3124
ür	-3125
aug	-3126
avi	-3127
dom	-3128
ico	-3129
ike	-3130
ume	-3131
una	-3132
unt	-3133
▁60	-3134
▁au	-3135
▁ii	-3136
imed	-3137
lled	-3138
ocks	-3139
ooth	-3140
read	-3141
▁bey	-3142
▁gas	-3143
▁lay	-3144
▁mis	-3145
based	-3146
iture	-3147
legal	-3148
ounts	-3149
phere	-3150
poses	-3151
ureau	-3152
▁2001	-3153
▁2006	-3154
▁batt	-3155
▁capt	-3156
▁fear	-3157
▁fire	-3158
▁foot	-3159
▁lack	-3160
▁nove	-3161
▁sold	-3162
▁warm	-3163
ateral	-3164
ground	-3165
illing	-3166
▁alone	-3167
▁award	-3168
▁coast	-3169
▁cover	-3170
▁death	-3171
▁impos	-3172
▁influ	-3173
▁intel	-3174
▁minor	-3175
▁prime	-3176
▁radio	-3177
▁resid	-3178
▁sched	-3179
▁worth	-3180
stances	-3181
▁africa	-3182
▁assemb	-3183
▁bureau	-3184
▁caused	-3185
▁compon	-3186
▁estate	-3187
▁execut	-3188
▁harmon	-3189
▁levels	-3190
▁likely	-3191
▁nether	-3192
▁perman	-3193
▁source	-3194
▁summit	-3195
▁appears	-3196
▁appoint	-3197
▁appreci	-3198
▁describ	-3199
▁earlier	-3200
▁offered	-3201
▁payment	-3202
▁proceed	-3203
▁running	-3204
▁russian	-3205
▁sitting	-3206
▁advanced	-3207
▁delivery	-3208
▁historic	-3209
▁restrict	-3210
▁reception	-3211
▁absolutely	-3212
▁assistance	-3213
▁introduced	-3214
▁agriculture	-3215
▁furthermore	-3216
▁perspective	-3217
▁installation	-3218
▁circumstances	-3219
cd	-3220
eu	-3221
add	-3222
cer	-3223
cks	-3224
ien	-3225
ips	-3226
isc	-3227
ncy	-3228
omb	-3229
pir	-3230
uck	-3231
ude	-3232
▁mm	-3233
chen	-3234
uses	-3235
view	-3236
▁ben	-3237
▁bit	-3238
▁bur	-3239
▁dol	-3240
▁dur	-3241
▁err	-3242
▁gar	-3243
▁ire	-3244
▁jav	-3245
▁vac	-3246
▁ven	-3247
icles	-3248
inese	-3249
odies	-3250
▁king	-3251
▁mist	-3252
▁nort	-3253
▁rich	-3254
▁stri	-3255
▁wine	-3256
hesion	-3257
itable	-3258
office	-3259
opping	-3260
orders	-3261
ulated	-3262
▁belie	-3263
▁categ	-3264
▁drive	-3265
▁entit	-3266
▁fresh	-3267
▁grand	-3268
▁legit	-3269
▁optim	-3270
▁rapid	-3271
▁relig	-3272
▁renew	-3273
▁teach	-3274
▁touch	-3275
▁ultim	-3276
▁villa	-3277
▁wrong	-3278
ription	-3279
▁accomp	-3280
▁affect	-3281
▁listed	-3282
▁powers	-3283
▁prepar	-3284
▁secure	-3285
▁undert	-3286
iability	-3287
standing	-3288
▁ability	-3289
▁applies	-3290
▁consist	-3291
▁eastern	-3292
▁funding	-3293
▁ireland	-3294
▁message	-3295
▁methods	-3296
▁traffic	-3297
▁approved	-3298
▁critical	-3299
▁currency	-3300
▁electron	-3301
▁moreover	-3302
▁northern	-3303
▁november	-3304
▁relating	-3305
▁separate	-3306
▁functions	-3307
▁insurance	-3308
▁mechanism	-3309
▁operating	-3310
▁strategic	-3311
▁supported	-3312
▁thousands	-3313
▁associated	-3314
▁compliance	-3315
▁constantly	-3316
▁priorities	-3317
▁processing	-3318
▁structural	-3319
▁immigration	-3320
▁instruments	-3321
▁possibility	-3322
▁recognition	-3323
▁restaurants	-3324
▁difficulties	-3325
▁increasingly	-3326
▁transparency	-3327
11	-3328
fe	-3329
za	-3330
bru	-3331
bus	-3332
fol	-3333
ica	-3334
ley	-3335
mas	-3336
ney	-3337
org	-3338
uff	-3339
ula	-3340
umb	-3341
▁22	-3342
▁ep	-3343
▁ic	-3344
▁pu	-3345
burg	-3346
ends	-3347
time	-3348
▁adm	-3349
▁dip	-3350
▁lam	-3351
▁tob	-3352
ature	-3353
ester	-3354
▁bear	-3355
▁chem	-3356
▁cove	-3357
▁feed	-3358
▁hall	-3359
▁join	-3360
▁mail	-3361
▁paid	-3362
▁symp	-3363
▁thin	-3364
▁uses	-3365
elines	-3366
elling	-3367
rative	-3368
▁april	-3369
▁depos	-3370
▁doubt	-3371
▁glass	-3372
▁kitch	-3373
▁paris	-3374
▁renov	-3375
▁spain	-3376
▁spend	-3377
▁stock	-3378
▁store	-3379
lection	-3380
vereign	-3381
▁abroad	-3382
▁anyone	-3383
▁belong	-3384
▁beyond	-3385
▁candid	-3386
▁compos	-3387
▁crimin	-3388
▁divers	-3389
▁easily	-3390
▁flight	-3391
▁giving	-3392
▁hostel	-3393
▁metres	-3394
▁networ	-3395
▁square	-3396
▁street	-3397
▁transl	-3398
inations	-3399
▁carried	-3400
▁charged	-3401
▁deliver	-3402
▁digital	-3403
▁evening	-3404
▁farmers	-3405
▁growing	-3406
▁illegal	-3407
▁measure	-3408
▁opening	-3409
▁talking	-3410
▁terrace	-3411
▁thought	-3412
▁typical	-3413
▁affected	-3414
▁brussels	-3415
▁compared	-3416
▁concentr	-3417
▁families	-3418
▁festival	-3419
▁interact	-3420
▁machines	-3421
▁palestin	-3422
▁physical	-3423
▁purposes	-3424
▁spacious	-3425
▁yourself	-3426
▁emissions	-3427
▁reference	-3428
▁wonderful	-3429
▁challenges	-3430
▁confidence	-3431
▁convenient	-3432
▁definition	-3433
▁guidelines	-3434
▁honourable	-3435
▁innovative	-3436
▁monitoring	-3437
▁scientific	-3438
▁effectively	-3439
▁flexibility	-3440
▁congratulate	-3441
▁distribution	-3442
▁parliamentary	-3443
▁administration	-3444
aw	-3445
ij	-3446
ki	-3447
yl	-3448
ata	-3449
cle	-3450
eth	-3451
ini	-3452
med	-3453
▁gi	-3454
/200	-3455
cast	-3456
gypt	-3457
izes	-3458
mail	-3459
mbol	-3460
ores	-3461
uine	-3462
▁000	-3463
▁ast	-3464
▁bir	-3465
▁dim	-3466
▁dyn	-3467
▁fix	-3468
▁hom	-3469
▁joh	-3470
▁lie	-3471
▁pie	-3472
▁tit	-3473
▁van	-3474
asing	-3475
astic	-3476
illed	-3477
inate	-3478
itors	-3479
itory	-3480
rimin	-3481
▁2004	-3482
▁acqu	-3483
▁born	-3484
▁cath	-3485
▁cele	-3486
▁cred	-3487
▁dang	-3488
▁duty	-3489
▁elim	-3490
▁init	-3491
▁reve	-3492
govern	-3493
inding	-3494
respon	-3495
▁adopt	-3496
▁cause	-3497
▁dream	-3498
▁egypt	-3499
▁febru	-3500
▁incor	-3501
▁lands	-3502
▁links	-3503
▁lives	-3504
▁match	-3505
▁occas	-3506
▁raise	-3507
▁sides	-3508
▁simpl	-3509
▁surpr	-3510
▁swiss	-3511
▁telev	-3512
▁acknow	-3513
▁announ	-3514
▁buffet	-3515
▁chance	-3516
▁contem	-3517
▁disast	-3518
▁expert	-3519
▁labour	-3520
▁myself	-3521
▁prefer	-3522
▁screen	-3523
▁stated	-3524
▁switch	-3525
▁symbol	-3526
▁winter	-3527
ferences	-3528
ilateral	-3529
▁animals	-3530
▁applied	-3531
▁arrange	-3532
▁borders	-3533
▁british	-3534
▁chinese	-3535
▁clients	-3536
▁decided	-3537
▁experts	-3538
▁genuine	-3539
▁involve	-3540
▁minimum	-3541
▁options	-3542
▁players	-3543
▁remains	-3544
▁aircraft	-3545
▁cohesion	-3546
▁controls	-3547
▁electric	-3548
▁ensuring	-3549
▁intended	-3550
▁pictures	-3551
▁planning	-3552
▁students	-3553
▁supports	-3554
▁swimming	-3555
▁visitors	-3556
▁budgetary	-3557
▁committed	-3558
▁continues	-3559
▁organised	-3560
▁permanent	-3561
▁provision	-3562
▁published	-3563
▁sovereign	-3564
▁atmosphere	-3565
▁colleagues	-3566
▁considered	-3567
▁historical	-3568
▁principles	-3569
▁ultimately	-3570
▁netherlands	-3571
▁constitution	-3572
▁developments	-3573
▁humanitarian	-3574
▁organisation	-3575
▁mediterranean	-3576
12	-3577
nd	-3578
rm	-3579
aci	-3580
app	-3581
emp	-3582
erc	-3583
fur	-3584
hab	-3585
ife	-3586
ole	-3587
orn	-3588
oub	-3589
pay	-3590
tic	-3591
ush	-3592
▁cd	-3593
▁ip	-3594
cape	-3595
free	-3596
here	-3597
hood	-3598
iles	-3599
ocol	-3600
onom	-3601
rary	-3602
zech	-3603
▁300	-3604
▁ang	-3605
▁aug	-3606
▁bag	-3607
▁bes	-3608
▁bon	-3609
▁enh	-3610
▁eye	-3611
▁gam	-3612
▁kil	-3613
▁los	-3614
▁mas	-3615
▁mit	-3616
▁spo	-3617
▁usa	-3618
aging	-3619
alled	-3620
bourg	-3621
ength	-3622
ience	-3623
itzer	-3624
overy	-3625
rants	-3626
verse	-3627
▁blue	-3628
▁bott	-3629
▁cook	-3630
▁fine	-3631
▁heav	-3632
▁loss	-3633
▁mere	-3634
▁ones	-3635
▁rein	-3636
▁wire	-3637
agraph	-3638
making	-3639
▁added	-3640
▁adequ	-3641
▁album	-3642
▁czech	-3643
▁enorm	-3644
▁exact	-3645
▁forum	-3646
▁occup	-3647
▁older	-3648
▁remov	-3649
▁scope	-3650
▁tasks	-3651
▁taste	-3652
▁train	-3653
entions	-3654
▁analys	-3655
▁bodies	-3656
▁celebr	-3657
▁debian	-3658
▁degree	-3659
▁device	-3660
▁expand	-3661
▁explan	-3662
▁images	-3663
▁inclus	-3664
▁interm	-3665
▁limits	-3666
▁placed	-3667
▁plants	-3668
▁resist	-3669
▁spring	-3670
▁stream	-3671
▁strict	-3672
▁superv	-3673
▁trying	-3674
▁worked	-3675
▁advance	-3676
▁changed	-3677
▁comment	-3678
▁covered	-3679
▁demands	-3680
▁elected	-3681
▁elegant	-3682
▁explore	-3683
▁founded	-3684
▁getting	-3685
▁leaving	-3686
▁medical	-3687
▁numbers	-3688
▁parking	-3689
▁pleased	-3690
▁reduced	-3691
▁regular	-3692
▁schools	-3693
▁studies	-3694
▁usually	-3695
▁victims	-3696
▁weapons	-3697
▁adoption	-3698
▁category	-3699
▁contacts	-3700
▁discover	-3701
▁entirely	-3702
▁entitled	-3703
▁experien	-3704
▁february	-3705
▁instruct	-3706
▁purchase	-3707
▁relation	-3708
▁accession	-3709
▁continent	-3710
▁furnished	-3711
▁influence	-3712
▁ministers	-3713
▁operators	-3714
▁otherwise	-3715
▁paragraph	-3716
▁processes	-3717
▁businesses	-3718
▁expression	-3719
▁guaranteed	-3720
▁operations	-3721
▁profession	-3722
▁strengthen	-3723
▁techniques	-3724
▁television	-3725
▁improvement	-3726
▁contemporary	-3727
▁introduction	-3728
▁registration	-3729
▁surroundings	-3730
▁comprehensive	-3731
▁understanding	-3732
▁constitutional	-3733
15	-3734
fs	-3735
oe	-3736
tt	-3737
ww	-3738
és	-3739
▁с	-3740
:00	-3741
aks	-3742
ben	-3743
bit	-3744
ero	-3745
ked	-3746
lim	-3747
mor	-3748
ovo	-3749
pal	-3750
rep	-3751
rid	-3752
ste	-3753
▁90	-3754
▁da	-3755
▁pc	-3756
akes	-3757
comm	-3758
comp	-3759
head	-3760
ingu	-3761
isms	-3762
rant	-3763
rief	-3764
soft	-3765
vert	-3766
▁196	-3767
▁alt	-3768
▁cos	-3769
▁cou	-3770
▁cry	-3771
▁dry	-3772
▁fer	-3773
▁gal	-3774
▁hat	-3775
▁isl	-3776
▁max	-3777
▁pic	-3778
▁sen	-3779
itude	-3780
phone	-3781
rient	-3782
usion	-3783
▁band	-3784
▁blog	-3785
▁calc	-3786
▁dead	-3787
▁dict	-3788
▁imag	-3789
▁miss	-3790
▁plat	-3791
▁poor	-3792
▁prim	-3793
▁quot	-3794
▁reci	-3795
▁rise	-3796
▁rock	-3797
▁sale	-3798
▁save	-3799
▁sess	-3800
▁told	-3801
employ	-3802
ifying	-3803
▁analy	-3804
▁audio	-3805
▁began	-3806
▁chann	-3807
▁earth	-3808
▁entry	-3809
▁flash	-3810
▁frequ	-3811
▁ideas	-3812
▁lower	-3813
▁medic	-3814
▁mount	-3815
▁relev	-3816
▁reply	-3817
▁story	-3818
▁taxes	-3819
▁tobac	-3820
▁track	-3821
▁truly	-3822
▁wants	-3823
atively	-3824
▁bridge	-3825
▁cities	-3826
▁closer	-3827
▁decide	-3828
▁easier	-3829
▁exceed	-3830
▁extent	-3831
▁fellow	-3832
▁greece	-3833
▁happen	-3834
▁inside	-3835
▁length	-3836
▁master	-3837
▁meters	-3838
▁opened	-3839
▁photos	-3840
▁raised	-3841
▁regret	-3842
▁rotary	-3843
▁signed	-3844
▁smooth	-3845
▁sweden	-3846
▁unable	-3847
▁vision	-3848
▁wealth	-3849
▁wishes	-3850
▁worksh	-3851
▁equally	-3852
▁helpful	-3853
▁initial	-3854
▁islands	-3855
▁license	-3856
▁passeng	-3857
▁smaller	-3858
▁spanish	-3859
▁subsidi	-3860
▁totally	-3861
▁updated	-3862
▁virtual	-3863
▁willing	-3864
▁argument	-3865
▁assembly	-3866
▁becoming	-3867
▁benefits	-3868
▁creation	-3869
▁networks	-3870
▁presents	-3871
▁programs	-3872
▁remember	-3873
▁requests	-3874
▁shopping	-3875
▁stronger	-3876
▁achieving	-3877
▁buildings	-3878
▁correspon	-3879
▁decorated	-3880
▁marketing	-3881
▁renovated	-3882
▁residence	-3883
▁seriously	-3884
▁collection	-3885
▁compromise	-3886
▁efficiency	-3887
▁exhibition	-3888
▁governance	-3889
▁instrument	-3890
▁membership	-3891
governmental	-3892
▁competitive	-3893
▁transparent	-3894
▁undertaking	-3895
▁contribution	-3896
▁independence	-3897
▁representative	-3898
▁representatives	-3899
99	-3900
ml	-3901
sm	-3902
vd	-3903
▁п	-3904
ake	-3905
ara	-3906
ids	-3907
imb	-3908
nel	-3909
sch	-3910
ugg	-3911
▁70	-3912
▁pi	-3913
▁sn	-3914
amed	-3915
anim	-3916
back	-3917
enna	-3918
ffee	-3919
icht	-3920
ider	-3921
leep	-3922
obby	-3923
opes	-3924
pper	-3925
urch	-3926
ying	-3927
▁fru	-3928
▁ham	-3929
▁ign	-3930
▁map	-3931
▁pra	-3932
▁ren	-3933
▁uns	-3934
atell	-3935
ender	-3936
estic	-3937
force	-3938
lling	-3939
produ	-3940
thern	-3941
tical	-3942
▁aims	-3943
▁belg	-3944
▁cong	-3945
▁cuis	-3946
▁debt	-3947
▁elev	-3948
▁fran	-3949
▁fulf	-3950
▁hear	-3951
▁kore	-3952
▁magn	-3953
▁menu	-3954
▁mill	-3955
▁mode	-3956
▁phil	-3957
▁plug	-3958
▁race	-3959
▁rome	-3960
▁sand	-3961
▁scan	-3962
▁seek	-3963
▁snow	-3964
▁song	-3965
▁tack	-3966
acking	-3967
ancing	-3968
ashion	-3969
called	-3970
celona	-3971
charge	-3972
marily	-3973
▁abuse	-3974
▁banks	-3975
▁bison	-3976
▁chair	-3977
▁champ	-3978
▁charm	-3979
▁explo	-3980
▁expos	-3981
▁games	-3982
▁guide	-3983
▁irish	-3984
▁labor	-3985
▁latin	-3986
▁outdo	-3987
▁penal	-3988
▁pursu	-3989
▁shift	-3990
▁sites	-3991
▁spent	-3992
▁units	-3993
▁veget	-3994
▁youth	-3995
olution	-3996
oration	-3997
tenance	-3998
theless	-3999
▁adjust	-4000
▁advice	-4001
▁animal	-4002
▁attack	-4003
▁august	-4004
▁battle	-4005
▁causes	-4006
▁church	-4007
▁closed	-4008
▁corner	-4009
▁driver	-4010
▁failed	-4011
▁forget	-4012
▁police	-4013
▁refuge	-4014
▁shower	-4015
▁spread	-4016
▁arrival	-4017
▁artists	-4018
▁beaches	-4019
▁bedroom	-4020
▁dealing	-4021
▁granted	-4022
▁happens	-4023
▁kitchen	-4024
▁regards	-4025
▁release	-4026
▁respond	-4027
▁switzer	-4028
▁tobacco	-4029
▁tourist	-4030
▁vehicle	-4031
abilities	-4032
▁chemical	-4033
▁conflict	-4034
▁enormous	-4035
▁greatest	-4036
▁informed	-4037
▁multiple	-4038
▁overview	-4039
▁register	-4040
▁southern	-4041
▁spending	-4042
▁suitable	-4043
▁barcelona	-4044
▁contracts	-4045
▁discussed	-4046
▁encourage	-4047
▁exception	-4048
▁executive	-4049
▁expressed	-4050
▁generally	-4051
▁increases	-4052
▁languages	-4053
▁precisely	-4054
▁primarily	-4055
▁territory	-4056
▁transform	-4057
▁appreciate	-4058
▁difference	-4059
▁discussing	-4060
▁enterprise	-4061
▁previously	-4062
▁recognized	-4063
▁structures	-4064
▁sufficient	-4065
▁implemented	-4066
▁outstanding	-4067
▁reservation	-4068
▁surrounding	-4069
▁switzerland	-4070
▁expectations	-4071
▁nevertheless	-4072
▁organization	-4073
▁automatically	-4074
▁establishment	-4075
-0	-4076
5.	-4077
80	-4078
di	-4079
ev	-4080
ga	-4081
hr	-4082
▁+	-4083
ani	-4084
azz	-4085
bre	-4086
dam	-4087
dra	-4088
gue	-4089
hot	-4090
hus	-4091
ito	-4092
lav	-4093
oom	-4094
oud	-4095
sen	-4096
ued	-4097
urs	-4098
uth	-4099
utt	-4100
vak	-4101
▁--	-4102
▁31	-4103
▁32	-4104
▁ba	-4105
▁fi	-4106
▁kn	-4107
▁si	-4108
▁ze	-4109
aged	-4110
ctor	-4111
hold	-4112
iant	-4113
noon	-4114
part	-4115
vent	-4116
▁500	-4117
▁alp	-4118
▁ara	-4119
▁caf	-4120
▁din	-4121
▁fif	-4122
▁gro	-4123
▁hes	-4124
▁kos	-4125
▁nav	-4126
▁pun	-4127
▁que	-4128
▁raw	-4129
▁saw	-4130
▁sie	-4131
▁syn	-4132
▁yes	-4133
anges	-4134
aters	-4135
cking	-4136
going	-4137
grade	-4138
lying	-4139
ounge	-4140
sized	-4141
▁anti	-4142
▁bars	-4143
▁cart	-4144
▁clar	-4145
▁fant	-4146
▁hair	-4147
▁laws	-4148
▁pact	-4149
▁poll	-4150
▁pure	-4151
▁says	-4152
▁skin	-4153
▁slow	-4154
▁stro	-4155
▁vent	-4156
▁whom	-4157
atever	-4158
border	-4159
oubted	-4160
overed	-4161
▁birth	-4162
▁brief	-4163
▁divid	-4164
▁fixed	-4165
▁fraud	-4166
▁goals	-4167
▁gramm	-4168
▁incom	-4169
▁india	-4170
▁label	-4171
▁linux	-4172
▁luxur	-4173
▁natur	-4174
▁obser	-4175
▁plans	-4176
▁quant	-4177
▁semin	-4178
▁serve	-4179
▁surve	-4180
▁toler	-4181
▁trial	-4182
▁tried	-4183
▁voice	-4184
▁watch	-4185
▁write	-4186
itation	-4187
lectual	-4188
ologies	-4189
quality	-4190
▁beauty	-4191
▁brings	-4192
▁button	-4193
▁camera	-4194
▁critic	-4195
▁father	-4196
▁format	-4197
▁golden	-4198
▁income	-4199
▁leader	-4200
▁nearly	-4201
▁orient	-4202
▁output	-4203
▁planet	-4204
▁portug	-4205
▁rental	-4206
▁satell	-4207
▁stands	-4208
▁suffer	-4209
▁suites	-4210
▁unanim	-4211
ximately	-4212
▁autonom	-4213
▁binding	-4214
▁classic	-4215
▁corrupt	-4216
▁cuisine	-4217
▁denmark	-4218
▁devices	-4219
▁disease	-4220
▁fashion	-4221
▁feature	-4222
▁federal	-4223
▁firstly	-4224
▁fisherm	-4225
▁helping	-4226
▁legitim	-4227
▁mission	-4228
▁picture	-4229
▁seeking	-4230
▁showing	-4231
▁adequate	-4232
▁apparent	-4233
▁austrian	-4234
▁changing	-4235
▁criminal	-4236
▁definite	-4237
▁flexible	-4238
▁followed	-4239
▁happened	-4240
▁interior	-4241
▁negative	-4242
▁offering	-4243
▁packages	-4244
▁password	-4245
▁powerful	-4246
▁presence	-4247
▁province	-4248
▁repeated	-4249
▁supposed	-4250
▁whatever	-4251
ifications	-4252
▁afternoon	-4253
▁awareness	-4254
▁installed	-4255
▁reduction	-4256
▁selection	-4257
▁undoubted	-4258
▁accordance	-4259
▁assessment	-4260
▁background	-4261
▁impressive	-4262
▁reasonable	-4263
▁regardless	-4264
▁supplement	-4265
▁transition	-4266
▁attractions	-4267
▁communities	-4268
▁conclusions	-4269
▁description	-4270
▁individuals	-4271
▁institution	-4272
▁legislative	-4273
▁maintenance	-4274
▁palestinian	-4275
▁considerable	-4276
▁coordination	-4277
▁intervention	-4278
▁approximately	-4279
▁administrative	-4280
.9	-4281
bs	-4282
fo	-4283
ja	-4284
ky	-4285
ns	-4286
ен	-4287
bar	-4288
ett	-4289
fin	-4290
gon	-4291
ham	-4292
nal	-4293
nes	-4294
nis	-4295
och	-4296
rap	-4297
rel	-4298
run	-4299
zil	-4300
▁26	-4301
▁27	-4302
▁28	-4303
▁iv	-4304
ache	-4305
amet	-4306
arus	-4307
esty	-4308
iers	-4309
iser	-4310
olid	-4311
olit	-4312
onia	-4313
ught	-4314
▁arm	-4315
▁das	-4316
▁eth	-4317
▁fab	-4318
▁für	-4319
▁god	-4320
▁inn	-4321
▁mex	-4322
▁nar	-4323
▁pap	-4324
▁pul	-4325
▁rub	-4326
▁sam	-4327
▁sky	-4328
▁tib	-4329
▁voc	-4330
▁von	-4331
abled	-4332
board	-4333
folio	-4334
gence	-4335
gment	-4336
idden	-4337
ivers	-4338
ondon	-4339
paign	-4340
▁1996	-4341
▁amaz	-4342
▁balk	-4343
▁dark	-4344
▁disp	-4345
▁door	-4346
▁edge	-4347
▁gall	-4348
▁gave	-4349
▁goal	-4350
▁libr	-4351
▁mart	-4352
▁orch	-4353
▁quar	-4354
▁runs	-4355
▁sant	-4356
▁shop	-4357
▁ukra	-4358
▁wild	-4359
anging	-4360
erring	-4361
imedia	-4362
itious	-4363
▁ahead	-4364
▁croat	-4365
▁datab	-4366
▁dates	-4367
▁delay	-4368
▁deleg	-4369
▁domin	-4370
▁dutch	-4371
▁exerc	-4372
▁firms	-4373
▁gradu	-4374
▁heard	-4375
▁items	-4376
▁movie	-4377
▁names	-4378
▁panor	-4379
▁parad	-4380
▁react	-4381
▁scale	-4382
▁scand	-4383
▁schem	-4384
▁sleep	-4385
▁spect	-4386
▁title	-4387
▁types	-4388
▁votes	-4389
▁worry	-4390
ulating	-4391
▁actual	-4392
▁afford	-4393
▁balcon	-4394
▁coffee	-4395
▁combat	-4396
▁distin	-4397
▁excess	-4398
▁hospit	-4399
▁kosovo	-4400
▁linked	-4401
▁london	-4402
▁merely	-4403
▁models	-4404
▁munich	-4405
▁nearby	-4406
▁places	-4407
▁played	-4408
▁plenty	-4409
▁proved	-4410
▁regime	-4411
▁remark	-4412
▁reveal	-4413
▁saying	-4414
▁silver	-4415
▁spaces	-4416
▁surely	-4417
▁termin	-4418
▁vienna	-4419
▁wanted	-4420
▁yester	-4421
ulations	-4422
▁becomes	-4423
▁belarus	-4424
▁capable	-4425
▁courses	-4426
▁cutting	-4427
▁defined	-4428
▁deposit	-4429
▁enables	-4430
▁follows	-4431
▁hostels	-4432
▁offices	-4433
▁operate	-4434
▁pension	-4435
▁planned	-4436
▁politic	-4437
▁proport	-4438
▁railway	-4439
▁reserve	-4440
▁science	-4441
▁someone	-4442
▁succeed	-4443
▁surface	-4444
▁trading	-4445
▁agencies	-4446
▁campaign	-4447
▁consolid	-4448
▁elements	-4449
▁equality	-4450
▁improved	-4451
▁investig	-4452
▁learning	-4453
▁opposite	-4454
▁payments	-4455
▁pleasant	-4456
▁prospect	-4457
▁provider	-4458
▁referred	-4459
▁relevant	-4460
▁substant	-4461
▁wireless	-4462
▁continued	-4463
▁dangerous	-4464
▁discharge	-4465
▁discrimin	-4466
▁emphasise	-4467
▁entertain	-4468
▁furniture	-4469
▁institute	-4470
▁interface	-4471
▁landscape	-4472
▁luxurious	-4473
▁microsoft	-4474
▁obviously	-4475
▁officials	-4476
▁portfolio	-4477
▁recognise	-4478
▁resulting	-4479
▁sensitive	-4480
▁telephone	-4481
▁terrorism	-4482
▁yesterday	-4483
▁applicable	-4484
▁competence	-4485
▁components	-4486
▁continuing	-4487
▁determined	-4488
▁foundation	-4489
▁impossible	-4490
▁personally	-4491
▁photograph	-4492
▁provisions	-4493
▁registered	-4494
▁strategies	-4495
▁supporting	-4496
▁electricity	-4497
▁obligations	-4498
▁undoubtedly	-4499
▁architecture	-4500
▁constructive	-4501
▁implementing	-4502
▁intellectual	-4503
45	-4504
cr	-4505
dp	-4506
fi	-4507
fy	-4508
rd	-4509
ör	-4510
те	-4511
ald	-4512
cia	-4513
enn	-4514
han	-4515
iar	-4516
ias	-4517
lom	-4518
▁..	-4519
▁29	-4520
▁3-	-4521
▁35	-4522
▁4-	-4523
▁hi	-4524
abil	-4525
ades	-4526
adow	-4527
agen	-4528
aint	-4529
ancy	-4530
ball	-4531
book	-4532
conf	-4533
enue	-4534
fare	-4535
ilst	-4536
iney	-4537
like	-4538
orry	-4539
osen	-4540
otic	-4541
pres	-4542
rase	-4543
vest	-4544
wing	-4545
ylum	-4546
▁150	-4547
▁awa	-4548
▁cab	-4549
▁ded	-4550
▁ein	-4551
▁het	-4552
▁ist	-4553
▁jew	-4554
▁nos	-4555
▁pil	-4556
▁rob	-4557
▁sad	-4558
▁sov	-4559
▁sul	-4560
▁tan	-4561
▁tic	-4562
▁tun	-4563
▁unw	-4564
▁vul	-4565
▁wto	-4566
▁yor	-4567
▁zur	-4568
ached	-4569
arily	-4570
iance	-4571
iding	-4572
ishes	-4573
isure	-4574
retch	-4575
wards	-4576
▁1990	-4577
▁1997	-4578
▁bill	-4579
▁cere	-4580
▁cold	-4581
▁cuts	-4582
▁fill	-4583
▁fort	-4584
▁fuel	-4585
▁hamb	-4586
▁hour	-4587
▁kern	-4588
▁lugg	-4589
▁plus	-4590
▁proc	-4591
▁sequ	-4592
▁susp	-4593
▁trek	-4594
▁trip	-4595
▁trou	-4596
▁urge	-4597
▁vary	-4598
▁vers	-4599
▁vice	-4600
▁visa	-4601
commun	-4602
iation	-4603
lantic	-4604
morrow	-4605
reneur	-4606
verage	-4607
▁advoc	-4608
▁alloc	-4609
▁cloth	-4610
▁deser	-4611
▁drawn	-4612
▁heavy	-4613
▁helps	-4614
▁lines	-4615
▁lobby	-4616
▁looks	-4617
▁maybe	-4618
▁multi	-4619
▁paint	-4620
▁risks	-4621
▁shops	-4622
▁therm	-4623
▁tibet	-4624
▁topic	-4625
▁viney	-4626
▁vital	-4627
▁walls	-4628
▁advert	-4629
▁asking	-4630
▁asylum	-4631
▁attend	-4632
▁bottom	-4633
▁canada	-4634
▁casino	-4635
▁claims	-4636
▁collab	-4637
▁condem	-4638
▁cooper	-4639
▁enthus	-4640
▁entrep	-4641
▁factor	-4642
▁gender	-4643
▁houses	-4644
▁manner	-4645
▁margin	-4646
▁module	-4647
▁namely	-4648
▁normal	-4649
▁safegu	-4650
▁script	-4651
▁signal	-4652
▁skills	-4653
▁temper	-4654
▁urgent	-4655
▁visual	-4656
▁whilst	-4657
entially	-4658
▁anticip	-4659
▁benefic	-4660
▁chamber	-4661
▁closely	-4662
▁command	-4663
▁creates	-4664
▁formats	-4665
▁journal	-4666
▁journey	-4667
▁leisure	-4668
▁luggage	-4669
▁neither	-4670
▁outdoor	-4671
▁overall	-4672
▁prepare	-4673
▁primary	-4674
▁propose	-4675
▁prosper	-4676
▁resolve	-4677
itiveness	-4678
▁balanced	-4679
▁bringing	-4680
▁conclude	-4681
▁consists	-4682
▁constant	-4683
▁contrary	-4684
▁creative	-4685
▁database	-4686
▁disaster	-4687
▁domestic	-4688
▁evidence	-4689
▁incorpor	-4690
▁meetings	-4691
▁overcome	-4692
▁platform	-4693
▁protocol	-4694
▁recorded	-4695
▁released	-4696
▁reliable	-4697
▁revision	-4698
▁thinking	-4699
▁tomorrow	-4700
▁ambitious	-4701
▁automatic	-4702
▁concluded	-4703
▁fisheries	-4704
▁fishermen	-4705
▁happening	-4706
▁improving	-4707
▁intensive	-4708
▁introduce	-4709
▁liability	-4710
▁neighbour	-4711
▁renewable	-4712
▁sanctions	-4713
▁satellite	-4714
▁satisfact	-4715
▁attractive	-4716
▁evaluation	-4717
▁facilitate	-4718
▁federation	-4719
▁multimedia	-4720
▁opposition	-4721
▁publishing	-4722
▁regulatory	-4723
▁situations	-4724
▁combination	-4725
▁commitments	-4726
▁experienced	-4727
▁participate	-4728
▁sovereignty	-4729
▁associations	-4730
▁conventional	-4731
▁entrepreneur	-4732
▁presentation	-4733
▁reservations	-4734
▁subsidiarity	-4735
▁successfully	-4736
▁technologies	-4737
▁consideration	-4738
▁contributions	-4739
▁possibilities	-4740
▁significantly	-4741
▁transportation	-4742
40	-4743
60	-4744
90	-4745
ba	-4746
fa	-4747
tr	-4748
uk	-4749
uz	-4750
500	-4751
ama	-4752
bel	-4753
bia	-4754
enz	-4755
gro	-4756
hof	-4757
how	-4758
ios	-4759
itz	-4760
nic	-4761
ora	-4762
pol	-4763
umn	-4764
zen	-4765
▁cm	-4766
▁hu	-4767
▁ok	-4768
▁rh	-4769
▁wi	-4770
arks	-4771
asse	-4772
atre	-4773
band	-4774
cont	-4775
furt	-4776
ille	-4777
lich	-4778
ller	-4779
odes	-4780
onic	-4781
quid	-4782
sole	-4783
used	-4784
▁agg	-4785
▁alg	-4786
▁bat	-4787
▁dav	-4788
▁ecb	-4789
▁ice	-4790
▁ing	-4791
▁mut	-4792
▁psy	-4793
▁spl	-4794
▁sud	-4795
▁tor	-4796
▁www	-4797
acing	-4798
build	-4799
cient	-4800
conds	-4801
entic	-4802
habit	-4803
igned	-4804
isory	-4805
itime	-4806
matic	-4807
oring	-4808
orses	-4809
oslav	-4810
pired	-4811
while	-4812
▁1999	-4813
▁arms	-4814
▁cott	-4815
▁deut	-4816
▁doll	-4817
▁gets	-4818
▁gone	-4819
▁gran	-4820
▁java	-4821
▁mark	-4822
▁monu	-4823
▁onto	-4824
▁pace	-4825
▁roof	-4826
▁sets	-4827
▁smes	-4828
▁sort	-4829
▁trib	-4830
▁unto	-4831
▁wars	-4832
accept	-4833
iction	-4834
ishing	-4835
▁block	-4836
▁boast	-4837
▁books	-4838
▁bound	-4839
▁cards	-4840
▁catal	-4841
▁claim	-4842
▁clubs	-4843
▁compl	-4844
▁dealt	-4845
▁decre	-4846
▁delic	-4847
▁drink	-4848
▁error	-4849
▁frank	-4850
▁fruit	-4851
▁horiz	-4852
▁judic	-4853
▁kinds	-4854
▁mouse	-4855
▁moved	-4856
▁named	-4857
▁patch	-4858
▁phase	-4859
▁phone	-4860
▁proof	-4861
▁rural	-4862
▁shape	-4863
▁solve	-4864
▁sorry	-4865
▁subsc	-4866
▁trend	-4867
▁upper	-4868
▁valid	-4869
▁woman	-4870
lements	-4871
smoking	-4872
sterdam	-4873
▁brazil	-4874
▁bright	-4875
▁bulgar	-4876
▁career	-4877
▁chosen	-4878
▁comply	-4879
▁diplom	-4880
▁exists	-4881
▁facing	-4882
▁fields	-4883
▁latter	-4884
▁licens	-4885
▁lounge	-4886
▁lovely	-4887
▁memory	-4888
▁mother	-4889
▁orders	-4890
▁poland	-4891
▁prison	-4892
▁severe	-4893
▁sexual	-4894
▁showed	-4895
▁slovak	-4896
▁sports	-4897
▁stable	-4898
▁stages	-4899
▁tennis	-4900
▁troops	-4901
▁twenty	-4902
▁volunt	-4903
▁weight	-4904
▁widely	-4905
▁african	-4906
▁answers	-4907
▁balcony	-4908
▁budgets	-4909
▁colours	-4910
▁compete	-4911
▁edition	-4912
▁entered	-4913
▁explain	-4914
▁failure	-4915
▁figures	-4916
▁forests	-4917
▁hamburg	-4918
▁himself	-4919
▁inhabit	-4920
▁kilomet	-4921
▁objects	-4922
▁peoples	-4923
▁privacy	-4924
▁quarter	-4925
▁schedul	-4926
▁seconds	-4927
▁session	-4928
▁speaker	-4929
▁species	-4930
▁subsequ	-4931
▁testing	-4932
▁trouble	-4933
▁accounts	-4934
▁airlines	-4935
▁allowing	-4936
▁configur	-4937
▁emphasis	-4938
▁expected	-4939
▁geograph	-4940
▁holidays	-4941
▁hospital	-4942
▁instance	-4943
▁involves	-4944
▁maritime	-4945
▁motorway	-4946
▁recovery	-4947
▁romantic	-4948
▁selected	-4949
▁stations	-4950
▁vehicles	-4951
▁versions	-4952
▁welcomed	-4953
▁accompany	-4954
▁addressed	-4955
▁amsterdam	-4956
▁broadcast	-4957
▁candidate	-4958
▁confirmed	-4959
▁connected	-4960
▁demanding	-4961
▁determine	-4962
▁dimension	-4963
▁directory	-4964
▁everybody	-4965
▁immediate	-4966
▁intention	-4967
▁intermedi	-4968
▁investors	-4969
▁migration	-4970
▁naturally	-4971
▁ourselves	-4972
▁pollution	-4973
▁protected	-4974
▁secretary	-4975
▁acceptable	-4976
▁advantages	-4977
▁containing	-4978
▁continuous	-4979
▁contribute	-4980
▁definitely	-4981
▁electronic	-4982
▁frequently	-4983
▁generation	-4984
▁industries	-4985
▁legitimacy	-4986
▁mechanisms	-4987
▁originally	-4988
▁resistance	-4989
▁statements	-4990
▁accordingly	-4991
▁distributed	-4992
▁exceptional	-4993
▁experiences	-4994
▁politically	-4995
▁proceedings	-4996
▁capabilities	-4997
▁confirmation	-4998
▁consequences	-4999
▁instructions	-5000
▁participants	-5001
▁commissioners	-5002
▁corresponding	-5003
▁effectiveness	-5004
▁manufacturers	-5005
▁manufacturing	-5006
▁professionals	-5007
▁competitiveness	-5008
.3	-5009
.4	-5010
.7	-5011
31	-5012
32	-5013
57	-5014
hi	-5015
ny	-5016
po	-5017
ön	-5018
▁в	-5019
ais	-5020
ala	-5021
amb	-5022
bad	-5023
can	-5024
ede	-5025
eds	-5026
ena	-5027
got	-5028
iny	-5029
mes	-5030
met	-5031
mon	-5032
rad	-5033
rol	-5034
rum	-5035
sec	-5036
see	-5037
set	-5038
spe	-5039
ube	-5040
urb	-5041
▁80	-5042
▁ib	-5043
▁ll	-5044
▁os	-5045
▁zu	-5046
ault	-5047
ella	-5048
etic	-5049
euro	-5050
ghan	-5051
gies	-5052
hips	-5053
ibly	-5054
iest	-5055
inst	-5056
isch	-5057
list	-5058
lock	-5059
ogne	-5060
olic	-5061
onym	-5062
oral	-5063
oren	-5064
pped	-5065
quis	-5066
rate	-5067
rest	-5068
rete	-5069
umed	-5070
umes	-5071
west	-5072
what	-5073
▁bab	-5074
▁cha	-5075
▁een	-5076
▁fee	-5077
▁flu	-5078
▁gri	-5079
▁jun	-5080
▁kar	-5081
▁lag	-5082
▁mur	-5083
▁oce	-5084
▁ped	-5085
▁ran	-5086
▁rig	-5087
▁unf	-5088
▁unt	-5089
celer	-5090
engen	-5091
ented	-5092
ingly	-5093
inter	-5094
iscal	-5095
istan	-5096
orate	-5097
sibly	-5098
table	-5099
uting	-5100
▁1000	-5101
▁1998	-5102
▁acts	-5103
▁brow	-5104
▁bush	-5105
▁cars	-5106
▁cash	-5107
▁core	-5108
▁dele	-5109
▁dies	-5110
▁elig	-5111
▁hund	-5112
▁lift	-5113
▁logo	-5114
▁mini	-5115
▁para	-5116
▁pill	-5117
▁pret	-5118
▁purs	-5119
▁rare	-5120
▁ship	-5121
▁stim	-5122
▁stru	-5123
▁tend	-5124
▁unus	-5125
▁util	-5126
▁went	-5127
▁zero	-5128
ansion	-5129
friend	-5130
ipping	-5131
nowned	-5132
phrase	-5133
ressed	-5134
▁adult	-5135
▁array	-5136
▁brand	-5137
▁dedic	-5138
▁drugs	-5139
▁estim	-5140
▁faced	-5141
▁faith	-5142
▁forth	-5143
▁hence	-5144
▁imper	-5145
▁korea	-5146
▁miles	-5147
▁newly	-5148
▁piece	-5149
▁prove	-5150
▁psych	-5151
▁recon	-5152
▁roman	-5153
▁route	-5154
▁sight	-5155
▁sizes	-5156
▁suite	-5157
▁tests	-5158
▁theme	-5159
▁trace	-5160
▁urban	-5161
cession	-5162
ifiable	-5163
inating	-5164
ugoslav	-5165
umption	-5166
▁afghan	-5167
▁airbus	-5168
▁alpine	-5169
▁castle	-5170
▁compat	-5171
▁couple	-5172
▁courts	-5173
▁covers	-5174
▁decent	-5175
▁dishes	-5176
▁domain	-5177
▁exclud	-5178
▁extend	-5179
▁figure	-5180
▁gained	-5181
▁horses	-5182
▁impose	-5183
▁incent	-5184
▁inspir	-5185
▁joined	-5186
▁lastly	-5187
▁liable	-5188
▁liquid	-5189
▁madrid	-5190
▁manual	-5191
▁minute	-5192
▁moving	-5193
▁nation	-5194
▁notice	-5195
▁owners	-5196
▁portal	-5197
▁seeing	-5198
▁served	-5199
▁shares	-5200
▁skiing	-5201
▁slight	-5202
▁stores	-5203
▁tackle	-5204
▁transm	-5205
▁trends	-5206
▁unless	-5207
▁vulner	-5208
▁acceler	-5209
▁average	-5210
▁calling	-5211
▁charter	-5212
▁cologne	-5213
▁condemn	-5214
▁defence	-5215
▁divided	-5216
▁drivers	-5217
▁dynamic	-5218
▁exactly	-5219
▁grounds	-5220
▁leather	-5221
▁lessons	-5222
▁mandate	-5223
▁modules	-5224
▁municip	-5225
▁orchest	-5226
▁paramet	-5227
▁periods	-5228
▁pointed	-5229
▁privile	-5230
▁reforms	-5231
▁replace	-5232
▁spectac	-5233
▁studied	-5234
▁summary	-5235
▁swedish	-5236
▁targets	-5237
▁thermal	-5238
▁urgency	-5239
▁weather	-5240
▁welfare	-5241
▁applause	-5242
▁approval	-5243
▁attitude	-5244
▁auditors	-5245
▁certific	-5246
▁concepts	-5247
▁concrete	-5248
▁congress	-5249
▁democrat	-5250
▁discount	-5251
▁diseases	-5252
▁distingu	-5253
▁freedoms	-5254
▁identity	-5255
▁listings	-5256
▁mobility	-5257
▁modified	-5258
▁occasion	-5259
▁properly	-5260
▁reaction	-5261
▁reducing	-5262
▁religion	-5263
▁renowned	-5264
▁reserves	-5265
▁schengen	-5266
▁sections	-5267
▁speakers	-5268
▁supplier	-5269
▁thousand	-5270
▁unemploy	-5271
▁workshop	-5272
▁addresses	-5273
▁appointed	-5274
▁christian	-5275
▁completed	-5276
▁conflicts	-5277
▁departure	-5278
▁dictators	-5279
▁diversity	-5280
▁economics	-5281
▁expansion	-5282
▁panoramic	-5283
▁positions	-5284
▁practices	-5285
▁preparing	-5286
▁requested	-5287
▁residents	-5288
▁safeguard	-5289
▁searching	-5290
▁terrorist	-5291
▁acceptance	-5292
▁apparently	-5293
▁consistent	-5294
▁corruption	-5295
▁discovered	-5296
▁eventually	-5297
▁identified	-5298
▁immigrants	-5299
▁leadership	-5300
▁obligation	-5301
▁properties	-5302
▁prosperity	-5303
▁represents	-5304
▁statistics	-5305
▁surprising	-5306
▁composition	-5307
▁demonstrate	-5308
▁encouraging	-5309
▁explanation	-5310
▁inhabitants	-5311
▁interactive	-5312
▁involvement	-5313
▁operational	-5314
▁politicians	-5315
▁recommended	-5316
▁suggestions	-5317
▁availability	-5318
▁contextually	-5319
▁demonstrated	-5320
▁meaningfully	-5321
▁restrictions	-5322
▁specifically	-5323
▁grammatically	-5324
▁participation	-5325
▁discrimination	-5326
.6	-5327
1/	-5328
22	-5329
70	-5330
da	-5331
eb	-5332
ii	-5333
je	-5334
oz	-5335
án	-5336
ро	-5337
▁и	-5338
▁м	-5339
ads	-5340
aga	-5341
alt	-5342
cts	-5343
ded	-5344
eli	-5345
enh	-5346
gic	-5347
hen	-5348
ief	-5349
jud	-5350
lex	-5351
mer	-5352
oes	-5353
pel	-5354
ran	-5355
roy	-5356
tom	-5357
win	-5358
▁36	-5359
▁46	-5360
▁eg	-5361
▁ky	-5362
▁ol	-5363
▁pt	-5364
▁ye	-5365
alia	-5366
aves	-5367
card	-5368
care	-5369
cket	-5370
date	-5371
egro	-5372
gent	-5373
gest	-5374
ifts	-5375
igen	-5376
iler	-5377
long	-5378
mann	-5379
omas	-5380
orge	-5381
orse	-5382
pack	-5383
serv	-5384
sess	-5385
stal	-5386
▁1.5	-5387
▁600	-5388
▁amp	-5389
▁ath	-5390
▁bid	-5391
▁cin	-5392
▁dar	-5393
▁dun	-5394
▁dvd	-5395
▁ech	-5396
▁eco	-5397
▁fet	-5398
▁gun	-5399
▁haz	-5400
▁hit	-5401
▁jur	-5402
▁las	-5403
▁lit	-5404
▁nur	-5405
▁sac	-5406
▁sem	-5407
▁son	-5408
▁ton	-5409
▁ves	-5410
▁vib	-5411
▁vig	-5412
▁vir	-5413
▁wik	-5414
ading	-5415
aught	-5416
bours	-5417
ctive	-5418
edral	-5419
eland	-5420
ement	-5421
eties	-5422
ierra	-5423
ieval	-5424
iling	-5425
inery	-5426
isive	-5427
itage	-5428
level	-5429
paper	-5430
place	-5431
plant	-5432
pping	-5433
uable	-5434
under	-5435
water	-5436
▁beds	-5437
▁bomb	-5438
▁cell	-5439
▁cool	-5440
▁desk	-5441
▁died	-5442
▁drug	-5443
▁exec	-5444
▁fans	-5445
▁fees	-5446
▁guit	-5447
▁july	-5448
▁lose	-5449
▁lots	-5450
▁mast	-5451
▁meat	-5452
▁meps	-5453
▁mich	-5454
▁neut	-5455
▁nine	-5456
▁obst	-5457
▁paul	-5458
▁sell	-5459
▁shot	-5460
▁stun	-5461
▁surf	-5462
▁thor	-5463
▁vend	-5464
▁wear	-5465
▁york	-5466
ailing	-5467
atures	-5468
aviour	-5469
coming	-5470
europe	-5471
ighted	-5472
ivered	-5473
orient	-5474
ourage	-5475
▁asset	-5476
▁barri	-5477
▁barro	-5478
▁borne	-5479
▁breat	-5480
▁canal	-5481
▁catch	-5482
▁color	-5483
▁compr	-5484
▁crown	-5485
▁deskt	-5486
▁disag	-5487
▁fifth	-5488
▁flows	-5489
▁georg	-5490
▁greek	-5491
▁heads	-5492
▁hesit	-5493
▁input	-5494
▁knows	-5495
▁lists	-5496
▁magaz	-5497
▁memor	-5498
▁metal	-5499
▁moroc	-5500
▁notes	-5501
▁ocean	-5502
▁pilot	-5503
▁poore	-5504
▁ports	-5505
▁prize	-5506
▁prodi	-5507
▁roads	-5508
▁saint	-5509
▁satur	-5510
▁seats	-5511
▁shoot	-5512
▁spite	-5513
▁steel	-5514
▁stras	-5515
▁syria	-5516
▁tarif	-5517
▁templ	-5518
▁thumb	-5519
▁thurs	-5520
▁trips	-5521
▁truth	-5522
▁usual	-5523
▁worst	-5524
alities	-5525
istical	-5526
itorial	-5527
station	-5528
tenegro	-5529
▁advent	-5530
▁arrest	-5531
▁attrib	-5532
▁awards	-5533
▁baltic	-5534
▁behold	-5535
▁cancel	-5536
▁checks	-5537
▁dining	-5538
▁dispar	-5539
▁divide	-5540
▁duties	-5541
▁enjoys	-5542
▁firmly	-5543
▁fiscal	-5544
▁forced	-5545
▁forgot	-5546
▁fourth	-5547
▁incred	-5548
▁invite	-5549
▁johann	-5550
▁kernel	-5551
▁listen	-5552
▁luxury	-5553
▁mainly	-5554
▁overlo	-5555
▁palace	-5556
▁paying	-5557
▁pursue	-5558
▁refers	-5559
▁remind	-5560
▁remote	-5561
▁remove	-5562
▁retain	-5563
▁shared	-5564
▁sights	-5565
▁sphere	-5566
▁stabil	-5567
▁superb	-5568
▁theory	-5569
▁upload	-5570
▁waters	-5571
▁amongst	-5572
▁ancient	-5573
▁approve	-5574
▁assured	-5575
▁belgian	-5576
▁besides	-5577
▁biggest	-5578
▁college	-5579
▁concert	-5580
▁consent	-5581
▁croatia	-5582
▁default	-5583
▁defense	-5584
▁deliber	-5585
▁depends	-5586
▁desired	-5587
▁editing	-5588
▁endorse	-5589
▁enhance	-5590
▁finland	-5591
▁flights	-5592
▁focused	-5593
▁gardens	-5594
▁housing	-5595
▁infring	-5596
▁jointly	-5597
▁justify	-5598
▁keeping	-5599
▁kingdom	-5600
▁lasting	-5601
▁legally	-5602
▁library	-5603
▁manager	-5604
▁opposed	-5605
▁outcome	-5606
▁predict	-5607
▁referen	-5608
▁reprodu	-5609
▁romania	-5610
▁smoking	-5611
▁theatre	-5612
▁threats	-5613
▁tickets	-5614
▁ukraine	-5615
▁updates	-5616
▁withdra	-5617
▁articles	-5618
▁bulgaria	-5619
▁combined	-5620
▁declared	-5621
▁director	-5622
▁division	-5623
▁election	-5624
▁eligible	-5625
▁everyday	-5626
▁exercise	-5627
▁exposure	-5628
▁extended	-5629
▁fighting	-5630
▁graphics	-5631
▁heritage	-5632
▁interpre	-5633
▁japanese	-5634
▁medieval	-5635
▁messages	-5636
▁politics	-5637
▁portugal	-5638
▁regarded	-5639
▁regulate	-5640
▁resolved	-5641
▁sciences	-5642
▁settings	-5643
▁somewhat	-5644
▁speaking	-5645
▁targeted	-5646
▁unaccept	-5647
▁valuable	-5648
▁villages	-5649
▁whenever	-5650
▁worrying	-5651
▁yugoslav	-5652
▁acknowled	-5653
▁announced	-5654
▁authentic	-5655
▁behaviour	-5656
▁cathedral	-5657
▁christmas	-5658
▁competent	-5659
▁computers	-5660
▁configure	-5661
▁copyright	-5662
▁delivered	-5663
▁excessive	-5664
▁fantastic	-5665
▁hungarian	-5666
▁inclusion	-5667
▁integrity	-5668
▁interview	-5669
▁measuring	-5670
▁passenger	-5671
▁personnel	-5672
▁professor	-5673
▁promotion	-5674
▁prospects	-5675
▁referring	-5676
▁reflected	-5677
▁satisfied	-5678
▁societies	-5679
▁temporary	-5680
▁universal	-5681
▁vineyards	-5682
▁accessible	-5683
▁appearance	-5684
▁complement	-5685
▁consulting	-5686
▁creativity	-5687
▁delegation	-5688
▁developers	-5689
▁montenegro	-5690
▁prevention	-5691
▁references	-5692
▁relatively	-5693
▁relaxation	-5694
▁revolution	-5695
▁strasbourg	-5696
▁acknowledge	-5697
▁considering	-5698
▁contributed	-5699
▁countryside	-5700
▁destruction	-5701
▁differences	-5702
▁discussions	-5703
▁engineering	-5704
▁enterprises	-5705
▁maintaining	-5706
▁parliaments	-5707
▁progressive	-5708
▁achievements	-5709
▁consultation	-5710
▁destinations	-5711
▁individually	-5712
▁unacceptable	-5713
▁collaboration	-5714
▁configuration	-5715
▁liberalisation	-5716
▁characteristics	-5717
▁recommendations	-5718
21	-5719
44	-5720
gb	-5721
iw	-5722
ox	-5723
sa	-5724
sk	-5725
vi	-5726
ws	-5727
ya	-5728
är	-5729
ón	-5730
на	-5731
ов	-5732
ре	-5733
▁q	-5734
acc	-5735
aza	-5736
cal	-5737
col	-5738
ela	-5739
elt	-5740
ige	-5741
inc	-5742
ius	-5743
mak	-5744
max	-5745
oor	-5746
oro	-5747
ows	-5748
pet	-5749
phe	-5750
ris	-5751
rit	-5752
tra	-5753
uch	-5754
uit	-5755
ени	-5756
▁00	-5757
▁ax	-5758
▁ho	-5759
▁kl	-5760
▁lt	-5761
▁mi	-5762
▁od	-5763
▁wo	-5764
2010	-5765
adem	-5766
ails	-5767
appe	-5768
ares	-5769
aria	-5770
eras	-5771
fall	-5772
iate	-5773
iger	-5774
ilet	-5775
ints	-5776
iver	-5777
keep	-5778
lets	-5779
mine	-5780
nail	-5781
oria	-5782
outs	-5783
page	-5784
plus	-5785
prus	-5786
quet	-5787
rich	-5788
site	-5789
stic	-5790
udes	-5791
user	-5792
wick	-5793
year	-5794
zing	-5795
▁120	-5796
▁400	-5797
▁800	-5798
▁ads	-5799
▁aer	-5800
▁aqu	-5801
▁bay	-5802
▁bol	-5803
▁cup	-5804
▁dal	-5805
▁dub	-5806
▁eat	-5807
▁ecu	-5808
▁fan	-5809
▁fem	-5810
▁hun	-5811
▁hus	-5812
▁jac	-5813
▁lcd	-5814
▁mos	-5815
▁nic	-5816
▁nom	-5817
▁poc	-5818
▁por	-5819
▁spr	-5820
▁swe	-5821
▁tip	-5822
▁usb	-5823
▁vat	-5824
▁vit	-5825
▁whe	-5826
▁wid	-5827
ander	-5828
encia	-5829
heren	-5830
hotel	-5831
night	-5832
oning	-5833
ontal	-5834
osoph	-5835
otive	-5836
point	-5837
press	-5838
rally	-5839
scale	-5840
stein	-5841
▁arab	-5842
▁bang	-5843
▁bern	-5844
▁calm	-5845
▁carp	-5846
▁cosy	-5847
▁dell	-5848
▁disk	-5849
▁dism	-5850
▁drin	-5851
▁exit	-5852
▁eyes	-5853
▁felt	-5854
▁gate	-5855
▁hect	-5856
▁infl	-5857
▁info	-5858
▁inqu	-5859
▁jack	-5860
▁lapt	-5861
▁lect	-5862
▁liby	-5863
▁math	-5864
▁mont	-5865
▁nato	-5866
▁pipe	-5867
▁push	-5868
▁ring	-5869
▁rose	-5870
▁scen	-5871
▁shap	-5872
▁sole	-5873
▁taxi	-5874
▁zone	-5875
▁zoom	-5876
abling	-5877
active	-5878
ceived	-5879
itored	-5880
liness	-5881
nesses	-5882
ocking	-5883
ounter	-5884
▁aimed	-5885
▁alarm	-5886
▁blood	-5887
▁brill	-5888
▁chain	-5889
▁chapt	-5890
▁chart	-5891
▁clash	-5892
▁colon	-5893
▁diver	-5894
▁doors	-5895
▁euros	-5896
▁facts	-5897
▁flour	-5898
▁forms	-5899
▁gross	-5900
▁guard	-5901
▁hills	-5902
▁index	-5903
▁islam	-5904
▁leads	-5905
▁liter	-5906
▁marks	-5907
▁monte	-5908
▁noise	-5909
▁poker	-5910
▁promp	-5911
▁quote	-5912
▁remed	-5913
▁reput	-5914
▁rough	-5915
▁scene	-5916
▁setup	-5917
▁seven	-5918
▁ships	-5919
▁smart	-5920
▁solar	-5921
▁stuck	-5922
▁stuff	-5923
▁texts	-5924
▁trail	-5925
actions	-5926
appoint	-5927
ascript	-5928
compass	-5929
embourg	-5930
related	-5931
urement	-5932
▁acting	-5933
▁agents	-5934
▁agrees	-5935
▁arrive	-5936
▁assure	-5937
▁batter	-5938
▁compar	-5939
▁contra	-5940
▁crises	-5941
▁cyprus	-5942
▁doctor	-5943
▁emerge	-5944
▁expend	-5945
▁extrem	-5946
▁fulfil	-5947
▁hidden	-5948
▁honour	-5949
▁legend	-5950
▁mexico	-5951
▁monday	-5952
▁mostly	-5953
▁parent	-5954
▁passed	-5955
▁polish	-5956
▁profit	-5957
▁prohib	-5958
▁recall	-5959
▁retail	-5960
▁rising	-5961
▁routes	-5962
▁scheme	-5963
▁sierra	-5964
▁slopes	-5965
▁soviet	-5966
▁spoken	-5967
▁stance	-5968
▁stimul	-5969
▁string	-5970
▁submit	-5971
▁taxpay	-5972
▁therap	-5973
▁toilet	-5974
▁tracks	-5975
▁tradem	-5976
▁tragic	-5977
▁valley	-5978
building	-5979
communic	-5980
ervation	-5981
european	-5982
iversary	-5983
ographic	-5984
▁arising	-5985
▁attacks	-5986
▁barroso	-5987
▁burning	-5988
▁captain	-5989
▁centres	-5990
▁channel	-5991
▁classes	-5992
▁compens	-5993
▁cookies	-5994
▁cooking	-5995
▁damages	-5996
▁fitness	-5997
▁gallery	-5998
▁georgia	-5999
▁harvest	-6000
▁healthy	-6001
▁hearing	-6002
▁holding	-6003
▁licence	-6004
▁massive	-6005
▁morocco	-6006
▁museums	-6007
▁neutral	-6008
▁ongoing	-6009
▁ordered	-6010
▁penalty	-6011
▁percent	-6012
▁persist	-6013
▁playing	-6014
▁profits	-6015
▁protest	-6016
▁restric	-6017
▁serving	-6018
▁silence	-6019
▁streets	-6020
▁tension	-6021
▁thirdly	-6022
▁treated	-6023
▁underst	-6024
▁upgrade	-6025
▁waiting	-6026
▁warrant	-6027
▁washing	-6028
▁whereby	-6029
president	-6030
▁adopting	-6031
▁analysis	-6032
▁channels	-6033
▁charming	-6034
▁contents	-6035
▁decisive	-6036
▁disagree	-6037
▁dominant	-6038
▁examples	-6039
▁exciting	-6040
▁facility	-6041
▁football	-6042
▁hardware	-6043
▁identify	-6044
▁inspired	-6045
▁medicine	-6046
▁mistakes	-6047
▁pleasure	-6048
▁precious	-6049
▁printing	-6050
▁proposes	-6051
▁reaching	-6052
▁refugees	-6053
▁rejected	-6054
▁reported	-6055
▁resource	-6056
▁returned	-6057
▁saturday	-6058
▁schedule	-6059
▁shipping	-6060
▁slovakia	-6061
▁straight	-6062
▁thursday	-6063
▁withdraw	-6064
▁applicant	-6065
▁assurance	-6066
▁brilliant	-6067
▁centrally	-6068
▁certified	-6069
▁champions	-6070
▁combating	-6071
▁component	-6072
▁correctly	-6073
▁criticism	-6074
▁delighted	-6075
▁encompass	-6076
▁encounter	-6077
▁exchanges	-6078
▁exclusion	-6079
▁existence	-6080
▁extension	-6081
▁frankfurt	-6082
▁fundament	-6083
▁indicated	-6084
▁labelling	-6085
▁locations	-6086
▁machinery	-6087
▁meanwhile	-6088
▁monitored	-6089
▁orchestra	-6090
▁organized	-6091
▁paintings	-6092
▁philosoph	-6093
▁prisoners	-6094
▁producing	-6095
▁promoting	-6096
▁receiving	-6097
▁religious	-6098
▁scheduled	-6099
▁specified	-6100
▁subsidies	-6101
▁thumbnail	-6102
▁virtually	-6103
▁voluntary	-6104
▁affordable	-6105
▁approached	-6106
▁automotive	-6107
▁conclusion	-6108
▁contextual	-6109
▁controlled	-6110
▁encouraged	-6111
▁functional	-6112
▁horizontal	-6113
▁javascript	-6114
▁kilometres	-6115
▁maintained	-6116
▁neighbours	-6117
▁presenting	-6118
▁purchasing	-6119
▁recognised	-6120
▁remarkable	-6121
▁substances	-6122
▁travelling	-6123
▁accessories	-6124
▁afghanistan	-6125
▁anniversary	-6126
▁concentrate	-6127
▁exclusively	-6128
▁foundations	-6129
▁generations	-6130
▁highlighted	-6131
▁hospitality	-6132
▁initiatives	-6133
▁procurement	-6134
▁reliability	-6135
▁transaction	-6136
▁additionally	-6137
▁establishing	-6138
▁geographical	-6139
▁improvements	-6140
▁manufacturer	-6141
▁telecommunic	-6142
▁transactions	-6143
▁unemployment	-6144
▁entertainment	-6145
▁entrepreneurs	-6146
▁supplementary	-6147
▁vulnerability	-6148
▁specifications	-6149
/1	-6150
36	-6151
5-	-6152
85	-6153
:0	-6154
:1	-6155
ae	-6156
bc	-6157
dl	-6158
ec	-6159
fr	-6160
km	-6161
ko	-6162
tl	-6163
tv	-6164
vo	-6165
yp	-6166
zi	-6167
zy	-6168
по	-6169
...	-6170
5-0	-6171
:30	-6172
abe	-6173
ado	-6174
aft	-6175
box	-6176
bra	-6177
ema	-6178
iel	-6179
iff	-6180
ika	-6181
iry	-6182
kov	-6183
law	-6184
mat	-6185
nen	-6186
oir	-6187
olo	-6188
orf	-6189
ram	-6190
rob	-6191
ros	-6192
vid	-6193
yal	-6194
▁2-	-6195
▁33	-6196
▁5-	-6197
▁ay	-6198
▁az	-6199
▁cs	-6200
▁gn	-6201
▁gy	-6202
▁hd	-6203
▁ju	-6204
▁mp	-6205
▁mü	-6206
▁nu	-6207
▁om	-6208
▁pd	-6209
▁py	-6210
▁um	-6211
-200	-6212
alle	-6213
anch	-6214
aren	-6215
cles	-6216
club	-6217
deav	-6218
erie	-6219
feld	-6220
ford	-6221
gart	-6222
hony	-6223
iary	-6224
iera	-6225
info	-6226
irts	-6227
isse	-6228
ista	-6229
izer	-6230
lers	-6231
leys	-6232
oned	-6233
outh	-6234
ribe	-6235
sche	-6236
stop	-6237
ungs	-6238
usal	-6239
wood	-6240
▁195	-6241
▁24-	-6242
▁250	-6243
▁acp	-6244
▁bio	-6245
▁blu	-6246
▁ces	-6247
▁cra	-6248
▁cul	-6249
▁cum	-6250
▁dos	-6251
▁dro	-6252
▁era	-6253
▁fax	-6254
▁gdp	-6255
▁imf	-6256
▁iso	-6257
▁kam	-6258
▁kur	-6259
▁mcc	-6260
▁pig	-6261
▁sri	-6262
▁sum	-6263
▁una	-6264
▁unc	-6265
▁xml	-6266
▁yel	-6267
anied	-6268
arged	-6269
aside	-6270
ateau	-6271
atics	-6272
built	-6273
class	-6274
enary	-6275
erted	-6276
ifies	-6277
iform	-6278
ilder	-6279
irect	-6280
iters	-6281
itter	-6282
known	-6283
opard	-6284
ounds	-6285
ribed	-6286
rogen	-6287
secut	-6288
sions	-6289
trans	-6290
undry	-6291
▁1970	-6292
▁1995	-6293
▁2011	-6294
▁alco	-6295
▁alps	-6296
▁arts	-6297
▁audi	-6298
▁baby	-6299
▁bass	-6300
▁bike	-6301
▁blow	-6302
▁bold	-6303
▁busy	-6304
▁chip	-6305
▁clin	-6306
▁cord	-6307
▁dive	-6308
▁dram	-6309
▁ease	-6310
▁eine	-6311
▁enem	-6312
▁feet	-6313
▁flat	-6314
▁grav	-6315
▁heat	-6316
▁hill	-6317
▁iron	-6318
▁john	-6319
▁laid	-6320
▁latv	-6321
▁lets	-6322
▁lord	-6323
▁luck	-6324
▁marb	-6325
▁ment	-6326
▁mort	-6327
▁poly	-6328
▁pray	-6329
▁rely	-6330
▁roll	-6331
▁roma	-6332
▁sich	-6333
▁solo	-6334
▁stip	-6335
▁surv	-6336
▁tail	-6337
▁tast	-6338
▁thai	-6339
▁tree	-6340
▁trig	-6341
▁unne	-6342
▁vast	-6343
▁wife	-6344
▁yach	-6345
ancies	-6346
ounder	-6347
pected	-6348
racies	-6349
undant	-6350
▁absor	-6351
▁apple	-6352
▁arise	-6353
▁aspir	-6354
▁await	-6355
▁behav	-6356
▁bonus	-6357
▁boost	-6358
▁booth	-6359
▁boxes	-6360
▁brass	-6361
▁cance	-6362
▁carib	-6363
▁cheap	-6364
▁coins	-6365
▁costa	-6366
▁cycle	-6367
▁deals	-6368
▁defic	-6369
▁dynam	-6370
▁embed	-6371
▁films	-6372
▁gifts	-6373
▁gover	-6374
▁homes	-6375
▁honor	-6376
▁hosts	-6377
▁lakes	-6378
▁libya	-6379
▁mobil	-6380
▁navig	-6381
▁opera	-6382
▁ought	-6383
▁owner	-6384
▁panel	-6385
▁pharm	-6386
▁plays	-6387
▁posts	-6388
▁prere	-6389
▁proud	-6390
▁recip	-6391
▁reign	-6392
▁santa	-6393
▁saved	-6394
▁shock	-6395
▁signs	-6396
▁spons	-6397
▁stake	-6398
▁stars	-6399
▁stone	-6400
▁stops	-6401
▁sunny	-6402
▁throw	-6403
▁tours	-6404
▁unequ	-6405
▁unter	-6406
▁winds	-6407
agement	-6408
aration	-6409
comings	-6410
enhagen	-6411
ificent	-6412
keeping	-6413
onymous	-6414
retched	-6415
▁acquis	-6416
▁actors	-6417
▁argent	-6418
▁assume	-6419
▁autumn	-6420
▁avenue	-6421
▁begins	-6422
▁blocks	-6423
▁canary	-6424
▁convin	-6425
▁dialog	-6426
▁differ	-6427
▁dispos	-6428
▁dreams	-6429
▁drives	-6430
▁edited	-6431
▁empire	-6432
▁endeav	-6433
▁fabric	-6434
▁filter	-6435
▁fought	-6436
▁gather	-6437
▁george	-6438
▁greens	-6439
▁helped	-6440
▁indoor	-6441
▁insist	-6442
▁intend	-6443
▁intens	-6444
▁interf	-6445
▁lesson	-6446
▁lowest	-6447
▁monast	-6448
▁nobody	-6449
▁notion	-6450
▁obstac	-6451
▁partly	-6452
▁picard	-6453
▁poster	-6454
▁preser	-6455
▁pretty	-6456
▁produc	-6457
▁reader	-6458
▁relies	-6459
▁reward	-6460
▁serbia	-6461
▁serves	-6462
▁starts	-6463
▁stayed	-6464
▁stones	-6465
▁strike	-6466
▁stroll	-6467
▁strugg	-6468
▁survey	-6469
▁theore	-6470
▁thomas	-6471
▁unfair	-6472
▁unlike	-6473
▁utmost	-6474
▁viable	-6475
▁volume	-6476
friendly	-6477
ordinary	-6478
▁accompl	-6479
▁amazing	-6480
▁amended	-6481
▁austral	-6482
▁balkans	-6483
▁banking	-6484
▁cameras	-6485
▁careful	-6486
▁cereals	-6487
▁choices	-6488
▁compact	-6489
▁convert	-6490
▁courage	-6491
▁customs	-6492
▁declare	-6493
▁desktop	-6494
▁destroy	-6495
▁disappe	-6496
▁diverse	-6497
▁driving	-6498
▁enforce	-6499
▁factors	-6500
▁falling	-6501
▁finding	-6502
▁graphic	-6503
▁harbour	-6504
▁heating	-6505
▁hosting	-6506
▁ignored	-6507
▁intense	-6508
▁islamic	-6509
▁jeopard	-6510
▁laundry	-6511
▁missing	-6512
▁mistake	-6513
▁newslet	-6514
▁obliged	-6515
▁passage	-6516
▁plenary	-6517
▁premium	-6518
▁profile	-6519
▁purchas	-6520
▁relates	-6521
▁revised	-6522
▁rightly	-6523
▁staying	-6524
▁thereby	-6525
▁unusual	-6526
▁vessels	-6527
condition	-6528
▁acquired	-6529
▁amending	-6530
▁announce	-6531
▁anywhere	-6532
▁artistic	-6533
▁atlantic	-6534
▁attached	-6535
▁believes	-6536
▁catholic	-6537
▁chairman	-6538
▁chapters	-6539
▁complain	-6540
▁deserves	-6541
▁deutsche	-6542
▁duration	-6543
▁emission	-6544
▁enabling	-6545
▁energies	-6546
▁enhanced	-6547
▁enjoying	-6548
▁explains	-6549
▁finished	-6550
▁governor	-6551
▁informal	-6552
▁judgment	-6553
▁launched	-6554
▁millions	-6555
▁ministry	-6556
▁obtained	-6557
▁officers	-6558
▁painting	-6559
▁paradise	-6560
▁patients	-6561
▁possibly	-6562
▁pressing	-6563
▁rational	-6564
▁realised	-6565
▁relaxing	-6566
▁seminars	-6567
▁taxation	-6568
▁teachers	-6569
▁thorough	-6570
▁tourists	-6571
▁tracking	-6572
▁ultimate	-6573
▁unnecess	-6574
▁urgently	-6575
▁valencia	-6576
▁welcomes	-6577
ologically	-6578
▁americans	-6579
▁arguments	-6580
▁celebrate	-6581
▁colleague	-6582
▁combining	-6583
▁confident	-6584
▁considers	-6585
▁contained	-6586
▁creatures	-6587
▁dedicated	-6588
▁describes	-6589
▁designers	-6590
▁downloads	-6591
▁engineers	-6592
▁europeans	-6593
▁forgotten	-6594
▁governing	-6595
▁inclusive	-6596
▁involving	-6597
▁justified	-6598
▁mandatory	-6599
▁providers	-6600
▁qualified	-6601
▁regularly	-6602
▁respected	-6603
▁responses	-6604
▁socialist	-6605
▁technique	-6606
▁violation	-6607
▁autonomous	-6608
▁candidates	-6609
▁collective	-6610
▁copenhagen	-6611
▁decoration	-6612
▁disappoint	-6613
▁everywhere	-6614
▁excellence	-6615
▁healthcare	-6616
▁impression	-6617
▁incentives	-6618
▁literature	-6619
▁minorities	-6620
▁passengers	-6621
▁preventing	-6622
▁privileged	-6623
▁proportion	-6624
▁protecting	-6625
▁repeatedly	-6626
▁subsequent	-6627
▁surrounded	-6628
▁traditions	-6629
▁transplant	-6630
▁understood	-6631
▁vegetables	-6632
▁accompanied	-6633
▁advertising	-6634
▁anticipated	-6635
▁contractual	-6636
▁conventions	-6637
▁convergence	-6638
▁credibility	-6639
▁declaration	-6640
▁downloading	-6641
▁essentially	-6642
▁functioning	-6643
▁importantly	-6644
▁inspiration	-6645
▁introducing	-6646
▁magnificent	-6647
▁picturesque	-6648
▁publication	-6649
▁resolutions	-6650
▁spectacular	-6651
▁statistical	-6652
▁supervisory	-6653
▁trafficking	-6654
▁unanimously	-6655
▁accompanying	-6656
▁arrangements	-6657
▁concentrated	-6658
▁continuously	-6659
▁dramatically	-6660
▁guaranteeing	-6661
▁incorporated	-6662
▁infringement	-6663
▁shortcomings	-6664
▁strengthened	-6665
▁documentation	-6666
▁extraordinary	-6667
▁functionality	-6668
▁globalisation	-6669
▁installations	-6670
▁protectionism	-6671
▁technological	-6672
▁communications	-6673
▁considerations	-6674
-2	-6675
.-	-6676
14	-6677
25	-6678
29	-6679
74	-6680
95	-6681
bl	-6682
fl	-6683
ji	-6684
ni	-6685
pm	-6686
sl	-6687
tp	-6688
tz	-6689
ui	-6690
va	-6691
yc	-6692
zz	-6693
ál	-6694
ée	-6695
ат	-6696
но	-6697
ри	-6698
то	-6699
▁é	-6700
▁ü	-6701
adv	-6702
afe	-6703
ago	-6704
amp	-6705
arp	-6706
atz	-6707
bed	-6708
bur	-6709
dem	-6710
eff	-6711
emb	-6712
erb	-6713
esy	-6714
eva	-6715
fal	-6716
far	-6717
hal	-6718
har	-6719
ida	-6720
ido	-6721
jac	-6722
laf	-6723
las	-6724
len	-6725
log	-6726
los	-6727
ola	-6728
oli	-6729
rea	-6730
rew	-6731
ski	-6732
uel	-6733
upt	-6734
ura	-6735
vas	-6736
ées	-6737
▁1,	-6738
▁48	-6739
▁52	-6740
▁55	-6741
▁75	-6742
▁ci	-6743
▁gh	-6744
▁gt	-6745
▁kg	-6746
▁ms	-6747
▁ot	-6748
▁pm	-6749
5-00	-6750
abwe	-6751
aked	-6752
aken	-6753
aker	-6754
anda	-6755
angs	-6756
anka	-6757
apse	-6758
arat	-6759
arer	-6760
athy	-6761
augh	-6762
azzo	-6763
code	-6764
days	-6765
ders	-6766
dial	-6767
disc	-6768
east	-6769
erto	-6770
erts	-6771
ette	-6772
geon	-6773
hand	-6774
hard	-6775
hour	-6776
iasm	-6777
iced	-6778
idel	-6779
ikon	-6780
iled	-6781
ileo	-6782
illa	-6783
iors	-6784
itra	-6785
iwan	-6786
lick	-6787
life	-6788
lymp	-6789
ogle	-6790
oles	-6791
ooms	-6792
oted	-6793
pret	-6794
quin	-6795
tein	-6796
text	-6797
ulin	-6798
uous	-6799
uten	-6800
utor	-6801
wall	-6802
wind	-6803
▁2.0	-6804
▁2.5	-6805
▁arc	-6806
▁aus	-6807
▁bos	-6808
▁bse	-6809
▁bug	-6810
▁cav	-6811
▁cds	-6812
▁cub	-6813
▁esc	-6814
▁faq	-6815
▁fat	-6816
▁gay	-6817
▁geb	-6818
▁gig	-6819
▁gul	-6820
▁hip	-6821
▁jos	-6822
▁joy	-6823
▁kan	-6824
▁kön	-6825
▁liv	-6826
▁mes	-6827
▁nap	-6828
▁nut	-6829
▁pad	-6830
▁pas	-6831
▁pel	-6832
▁phu	-6833
▁pin	-6834
▁reb	-6835
▁riv	-6836
▁rul	-6837
▁sap	-6838
▁som	-6839
▁tea	-6840
▁tus	-6841
▁wer	-6842
▁wir	-6843
▁zug	-6844
adays	-6845
addam	-6846
adequ	-6847
asion	-6848
cedes	-6849
chron	-6850
domin	-6851
field	-6852
iably	-6853
inder	-6854
iones	-6855
liers	-6856
mping	-6857
obile	-6858
optic	-6859
ouses	-6860
owned	-6861
payne	-6862
platz	-6863
proof	-6864
rison	-6865
ronic	-6866
rooms	-6867
▁....	-6868
▁1930	-6869
▁1989	-6870
▁1991	-6871
▁1993	-6872
▁2020	-6873
▁abol	-6874
▁abst	-6875
▁alex	-6876
▁alqu	-6877
▁army	-6878
▁azer	-6879
▁beam	-6880
▁beef	-6881
▁beer	-6882
▁belt	-6883
▁boat	-6884
▁café	-6885
▁casa	-6886
▁chal	-6887
▁chat	-6888
▁cogn	-6889
▁cope	-6890
▁crop	-6891
▁dall	-6892
▁demo	-6893
▁diet	-6894
▁doub	-6895
▁drop	-6896
▁edit	-6897
▁emot	-6898
▁fare	-6899
▁fasc	-6900
▁fell	-6901
▁foss	-6902
▁fost	-6903
▁gast	-6904
▁gear	-6905
▁gest	-6906
▁glad	-6907
▁hond	-6908
▁kept	-6909
▁kids	-6910
▁male	-6911
▁milk	-6912
▁none	-6913
▁oral	-6914
▁pian	-6915
▁plot	-6916
▁pour	-6917
▁rain	-6918
▁ross	-6919
▁salz	-6920
▁saud	-6921
▁soph	-6922
▁spot	-6923
▁tanz	-6924
▁tens	-6925
▁thro	-6926
▁ties	-6927
▁tips	-6928
▁tues	-6929
▁wait	-6930
▁wave	-6931
▁wick	-6932
▁wolf	-6933
▁zimb	-6934
cision	-6935
effect	-6936
ername	-6937
instit	-6938
isdict	-6939
market	-6940
minute	-6941
system	-6942
▁accus	-6943
▁agent	-6944
▁alike	-6945
▁armen	-6946
▁batch	-6947
▁blame	-6948
▁bless	-6949
▁boats	-6950
▁buses	-6951
▁canon	-6952
▁carte	-6953
▁clock	-6954
▁conve	-6955
▁cream	-6956
▁crops	-6957
▁david	-6958
▁dimin	-6959
▁envis	-6960
▁excav	-6961
▁falls	-6962
▁fault	-6963
▁favor	-6964
▁holes	-6965
▁inequ	-6966
▁inner	-6967
▁iraqi	-6968
▁irreg	-6969
▁judge	-6970
▁liked	-6971
▁lived	-6972
▁lunch	-6973
▁maced	-6974
▁maria	-6975
▁mayor	-6976
▁meals	-6977
▁meant	-6978
▁mixed	-6979
▁moder	-6980
▁nicht	-6981
▁olymp	-6982
▁playa	-6983
▁prest	-6984
▁putin	-6985
▁reloc	-6986
▁roots	-6987
▁sauna	-6988
▁sharp	-6989
▁skype	-6990
▁spike	-6991
▁stick	-6992
▁sugar	-6993
▁talks	-6994
▁tight	-6995
▁timet	-6996
▁tough	-6997
▁tower	-6998
▁venue	-6999
▁virus	-7000
▁walks	-7001
▁wines	-7002
▁yield	-7003
general	-7004
holders	-7005
htaking	-7006
irement	-7007
itravel	-7008
ography	-7009
reshing	-7010
▁adults	-7011
▁advise	-7012
▁artist	-7013
▁assign	-7014
▁balkan	-7015
▁banned	-7016
▁basket	-7017
▁bigger	-7018
▁branch	-7019
▁breach	-7020
▁breaks	-7021
▁broken	-7022
▁caught	-7023
▁chairs	-7024
▁colour	-7025
▁confid	-7026
▁cotton	-7027
▁dinner	-7028
▁drinks	-7029
▁dublin	-7030
▁embarg	-7031
▁errors	-7032
▁ethnic	-7033
▁female	-7034
▁floren	-7035
▁folder	-7036
▁formed	-7037
▁google	-7038
▁guided	-7039
▁guitar	-7040
▁hazard	-7041
▁hiking	-7042
▁hosted	-7043
▁illust	-7044
▁indian	-7045
▁inject	-7046
▁inland	-7047
▁invent	-7048
▁jewish	-7049
▁laptop	-7050
▁latvia	-7051
▁marble	-7052
▁marine	-7053
▁mutual	-7054
▁observ	-7055
▁oldest	-7056
▁papers	-7057
▁pieces	-7058
▁postal	-7059
▁prague	-7060
▁prejud	-7061
▁priest	-7062
▁promin	-7063
▁prompt	-7064
▁proxim	-7065
▁refuse	-7066
▁repeat	-7067
▁robert	-7068
▁saddam	-7069
▁sloven	-7070
▁sought	-7071
▁stocks	-7072
▁stored	-7073
▁sunday	-7074
▁taiwan	-7075
▁temple	-7076
▁tested	-7077
▁tourna	-7078
▁trains	-7079
▁transc	-7080
▁transf	-7081
▁yellow	-7082
▁zurich	-7083
adequate	-7084
aneously	-7085
employed	-7086
izations	-7087
oriented	-7088
▁amounts	-7089
▁arrived	-7090
▁awarded	-7091
▁belongs	-7092
▁broader	-7093
▁bureauc	-7094
▁camping	-7095
▁centers	-7096
▁charges	-7097
▁citizen	-7098
▁complic	-7099
▁consens	-7100
▁contest	-7101
▁crystal	-7102
▁debates	-7103
▁decades	-7104
▁designs	-7105
▁dismiss	-7106
▁dispute	-7107
▁distort	-7108
▁drawing	-7109
▁enabled	-7110
▁engines	-7111
▁england	-7112
▁ensures	-7113
▁europol	-7114
▁examine	-7115
▁expense	-7116
▁factory	-7117
▁focuses	-7118
▁formula	-7119
▁freight	-7120
▁galileo	-7121
▁heading	-7122
▁invited	-7123
▁knowing	-7124
▁largely	-7125
▁lecture	-7126
▁lifesty	-7127
▁plastic	-7128
▁pockets	-7129
▁premier	-7130
▁queries	-7131
▁raising	-7132
▁reaches	-7133
▁refusal	-7134
▁removed	-7135
▁resumed	-7136
▁savings	-7137
▁scandal	-7138
▁seminar	-7139
▁servers	-7140
▁sharing	-7141
▁signing	-7142
▁surplus	-7143
▁symptom	-7144
▁textile	-7145
▁turning	-7146
▁uniform	-7147
▁varying	-7148
▁visible	-7149
▁weekend	-7150
▁worried	-7151
▁writers	-7152
fficiency	-7153
▁advocate	-7154
▁airports	-7155
▁alliance	-7156
▁attempts	-7157
▁attended	-7158
▁aviation	-7159
▁behavior	-7160
▁bureaucr	-7161
▁clicking	-7162
▁convince	-7163
▁deciding	-7164
▁decrease	-7165
▁disabled	-7166
▁distinct	-7167
▁elegance	-7168
▁emerging	-7169
▁employed	-7170
▁enlarged	-7171
▁enthusia	-7172
▁failures	-7173
▁familiar	-7174
▁founding	-7175
▁generate	-7176
▁johannes	-7177
▁judicial	-7178
▁lighting	-7179
▁magazine	-7180
▁marbella	-7181
▁mercedes	-7182
▁normally	-7183
▁nowadays	-7184
▁occurred	-7185
▁operates	-7186
▁operator	-7187
▁ordinary	-7188
▁organise	-7189
▁petition	-7190
▁premises	-7191
▁producer	-7192
▁profound	-7193
▁pursuing	-7194
▁reflects	-7195
▁replaced	-7196
▁respects	-7197
▁sequence	-7198
▁sleeping	-7199
▁strictly	-7200
▁stunning	-7201
▁subjects	-7202
▁superior	-7203
▁supplied	-7204
▁symbolic	-7205
▁symphony	-7206
▁synchron	-7207
▁terraces	-7208
▁treaties	-7209
▁username	-7210
▁vacation	-7211
▁vertical	-7212
▁websites	-7213
▁zimbabwe	-7214
▁accepting	-7215
▁adventure	-7216
▁australia	-7217
▁basically	-7218
▁belonging	-7219
▁chemicals	-7220
▁communist	-7221
▁conscious	-7222
▁convinced	-7223
▁decentral	-7224
▁democrats	-7225
▁depending	-7226
▁described	-7227
▁destroyed	-7228
▁discovery	-7229
▁economies	-7230
▁eliminate	-7231
▁expensive	-7232
▁formation	-7233
▁generated	-7234
▁gradually	-7235
▁inflation	-7236
▁interpret	-7237
▁irregular	-7238
▁jurisdict	-7239
▁laterooms	-7240
▁listening	-7241
▁macedonia	-7242
▁monastery	-7243
▁monuments	-7244
▁movements	-7245
▁obstacles	-7246
▁occasions	-7247
▁permitted	-7248
▁precision	-7249
▁preferred	-7250
▁prerequis	-7251
▁producers	-7252
▁projector	-7253
▁recession	-7254
▁reinforce	-7255
▁replacing	-7256
▁secondary	-7257
▁similarly	-7258
▁suffering	-7259
▁suggested	-7260
▁undermine	-7261
▁workshops	-7262
▁afterwards	-7263
▁approaches	-7264
▁authorised	-7265
▁automation	-7266
▁beneficial	-7267
▁completion	-7268
▁complexity	-7269
▁constitute	-7270
▁conviction	-7271
▁department	-7272
▁dependence	-7273
▁economical	-7274
▁eliminated	-7275
▁enthusiasm	-7276
▁guarantees	-7277
▁inadequate	-7278
▁interviews	-7279
▁legitimate	-7280
▁luxembourg	-7281
▁navigation	-7282
▁newsletter	-7283
▁occupation	-7284
▁parameters	-7285
▁permission	-7286
▁refreshing	-7287
▁reputation	-7288
▁travellers	-7289
▁unilateral	-7290
▁visibility	-7291
▁wikitravel	-7292
▁yugoslavia	-7293
▁certificate	-7294
▁connections	-7295
▁constitutes	-7296
▁consumption	-7297
▁coordinated	-7298
▁destination	-7299
▁differently	-7300
▁expenditure	-7301
▁investments	-7302
▁justifiable	-7303
▁measurement	-7304
▁necessarily	-7305
▁orientation	-7306
▁photographs	-7307
▁programming	-7308
▁represented	-7309
▁requirement	-7310
▁restriction	-7311
▁substantial	-7312
▁supervision	-7313
▁temperature	-7314
▁unnecessary	-7315
institutional	-7316
▁acknowledged	-7317
▁breathtaking	-7318
▁conditioning	-7319
▁confidential	-7320
▁consequently	-7321
▁dictatorship	-7322
▁economically	-7323
▁exploitation	-7324
▁multilateral	-7325
▁satisfaction	-7326
▁temperatures	-7327
▁architectural	-7328
▁fundamentally	-7329
▁harmonisation	-7330
▁recommendation	-7331
▁sustainability	-7332
▁environmentally	-7333
/0	-7334
/2	-7335
13	-7336
35	-7337
39	-7338
69	-7339
72	-7340
75	-7341
86	-7342
bi	-7343
db	-7344
ez	-7345
gi	-7346
hm	-7347
hn	-7348
oy	-7349
vy	-7350
ás	-7351
ра	-7352
ст	-7353
▁е	-7354
-20	-7355
adt	-7356
ael	-7357
aff	-7358
ags	-7359
ahn	-7360
amm	-7361
amo	-7362
arr	-7363
atr	-7364
bas	-7365
chr	-7366
cht	-7367
cop	-7368
cue	-7369
cul	-7370
def	-7371
dep	-7372
des	-7373
don	-7374
exp	-7375
fil	-7376
fle	-7377
flu	-7378
gow	-7379
gri	-7380
hor	-7381
ici	-7382
ila	-7383
ipt	-7384
irk	-7385
iro	-7386
ivo	-7387
jan	-7388
lor	-7389
lys	-7390
mic	-7391
mod	-7392
oda	-7393
oke	-7394
olt	-7395
omi	-7396
opt	-7397
oul	-7398
pap	-7399
peg	-7400
pes	-7401
ppe	-7402
rog	-7403
she	-7404
son	-7405
sts	-7406
tes	-7407
tex	-7408
thr	-7409
ups	-7410
var	-7411
vic	-7412
éri	-7413
ите	-7414
▁//	-7415
▁08	-7416
▁38	-7417
▁44	-7418
▁54	-7419
▁58	-7420
▁59	-7421
▁64	-7422
▁bm	-7423
▁bz	-7424
▁cn	-7425
▁dv	-7426
▁fo	-7427
▁ga	-7428
▁ik	-7429
▁iz	-7430
▁kr	-7431
▁ku	-7432
▁ly	-7433
▁na	-7434
▁nl	-7435
▁sz	-7436
-500	-7437
.000	-7438
.200	-7439
adic	-7440
ague	-7441
ales	-7442
arsh	-7443
arth	-7444
aten	-7445
avia	-7446
bean	-7447
bing	-7448
case	-7449
cest	-7450
cipl	-7451
cult	-7452
dorf	-7453
down	-7454
eing	-7455
endo	-7456
ente	-7457
erly	-7458
eror	-7459
esco	-7460
etor	-7461
gabe	-7462
germ	-7463
hara	-7464
harm	-7465
haus	-7466
heim	-7467
holm	-7468
iday	-7469
iere	-7470
inki	-7471
inte	-7472
ione	-7473
itte	-7474
kind	-7475
kish	-7476
lean	-7477
lies	-7478
mast	-7479
neys	-7480
ogen	-7481
olas	-7482
omic	-7483
opol	-7484
otyp	-7485
ovis	-7486
pace	-7487
pass	-7488
reds	-7489
rees	-7490
rell	-7491
rill	-7492
rmax	-7493
rypt	-7494
size	-7495
step	-7496
stra	-7497
take	-7498
tons	-7499
uese	-7500
umer	-7501
umin	-7502
vens	-7503
with	-7504
xvid	-7505
zipp	-7506
zone	-7507
▁1.2	-7508
▁140	-7509
▁149	-7510
▁180	-7511
▁900	-7512
▁abu	-7513
▁akt	-7514
▁asc	-7515
▁ash	-7516
▁bot	-7517
▁bou	-7518
▁bub	-7519
▁ceo	-7520
▁dia	-7521
▁eld	-7522
▁fal	-7523
▁fib	-7524
▁fly	-7525
▁fon	-7526
▁ges	-7527
▁gir	-7528
▁gym	-7529
▁hem	-7530
▁hyd	-7531
▁iii	-7532
▁jet	-7533
▁kal	-7534
▁kas	-7535
▁kon	-7536
▁les	-7537
▁lod	-7538
▁lou	-7539
▁lov	-7540
▁luc	-7541
▁nan	-7542
▁nov	-7543
▁pdf	-7544
▁php	-7545
▁pir	-7546
▁pod	-7547
▁ppe	-7548
▁pse	-7549
▁ram	-7550
▁sin	-7551
▁ske	-7552
▁sus	-7553
▁tac	-7554
▁tox	-7555
▁usd	-7556
▁vin	-7557
▁vor	-7558
▁wed	-7559
▁wet	-7560
▁wit	-7561
/2001	-7562
/2008	-7563
aling	-7564
aming	-7565
andem	-7566
apest	-7567
apsed	-7568
apter	-7569
arest	-7570
astro	-7571
attle	-7572
being	-7573
chaft	-7574
count	-7575
ellig	-7576
endar	-7577
endid	-7578
enger	-7579
erson	-7580
gency	-7581
gonet	-7582
haust	-7583
heres	-7584
ieder	-7585
ijing	-7586
iller	-7587
inger	-7588
ioned	-7589
iring	-7590
itute	-7591
licit	-7592
nings	-7593
oding	-7594
ogene	-7595
ourse	-7596
party	-7597
plete	-7598
reens	-7599
ricts	-7600
sinki	-7601
state	-7602
suite	-7603
unity	-7604
uttle	-7605
yssen	-7606
▁1980	-7607
▁1994	-7608
▁acid	-7609
▁adri	-7610
▁ages	-7611
▁albe	-7612
▁alph	-7613
▁amen	-7614
▁anth	-7615
▁auch	-7616
▁ball	-7617
▁bird	-7618
▁burn	-7619
▁coal	-7620
▁crew	-7621
▁crus	-7622
▁dear	-7623
▁deem	-7624
▁defe	-7625
▁deny	-7626
▁dign	-7627
▁dirt	-7628
▁diss	-7629
▁dome	-7630
▁eads	-7631
▁ears	-7632
▁ebit	-7633
▁ends	-7634
▁fade	-7635
▁folk	-7636
▁fons	-7637
▁font	-7638
▁frag	-7639
▁fred	-7640
▁fron	-7641
▁gift	-7642
▁grat	-7643
▁grid	-7644
▁hann	-7645
▁hier	-7646
▁inse	-7647
▁insu	-7648
▁isol	-7649
▁jazz	-7650
▁jean	-7651
▁jord	-7652
▁jose	-7653
▁karl	-7654
▁knew	-7655
▁legs	-7656
▁lens	-7657
▁mant	-7658
▁maps	-7659
▁maur	-7660
▁meal	-7661
▁nach	-7662
▁nero	-7663
▁nord	-7664
▁oder	-7665
▁olaf	-7666
▁peak	-7667
▁phon	-7668
▁pick	-7669
▁poet	-7670
▁pors	-7671
▁pref	-7672
▁pron	-7673
▁ramb	-7674
▁reck	-7675
▁seat	-7676
▁slim	-7677
▁spam	-7678
▁tall	-7679
▁thir	-7680
▁till	-7681
▁toll	-7682
▁tons	-7683
▁unst	-7684
▁vacc	-7685
▁vous	-7686
▁wage	-7687
▁wake	-7688
aching	-7689
acters	-7690
advant	-7691
applic	-7692
arents	-7693
arians	-7694
asting	-7695
ateful	-7696
athers	-7697
etooth	-7698
ferent	-7699
forced	-7700
forget	-7701
herent	-7702
holder	-7703
idents	-7704
irable	-7705
ivated	-7706
jacent	-7707
legisl	-7708
makers	-7709
opolit	-7710
papers	-7711
ricter	-7712
seeing	-7713
▁accum	-7714
▁admit	-7715
▁alert	-7716
▁alive	-7717
▁alter	-7718
▁altog	-7719
▁angle	-7720
▁arbit	-7721
▁aside	-7722
▁barbe	-7723
▁bases	-7724
▁bench	-7725
▁breed	-7726
▁brush	-7727
▁cable	-7728
▁cache	-7729
▁camps	-7730
▁cells	-7731
▁chess	-7732
▁chief	-7733
▁climb	-7734
▁compe	-7735
▁conqu	-7736
▁dance	-7737
▁della	-7738
▁depth	-7739
▁derog	-7740
▁eight	-7741
▁emble	-7742
▁fails	-7743
▁fauna	-7744
▁fewer	-7745
▁finds	-7746
▁flora	-7747
▁foods	-7748
▁gains	-7749
▁genoc	-7750
▁genus	-7751
▁grace	-7752
▁hards	-7753
▁harsh	-7754
▁hatch	-7755
▁hopes	-7756
▁horse	-7757
▁hrmax	-7758
▁insol	-7759
▁lacks	-7760
▁lanka	-7761
▁likes	-7762
▁loans	-7763
▁logic	-7764
▁magic	-7765
▁masks	-7766
▁meets	-7767
▁merch	-7768
▁minds	-7769
▁moist	-7770
▁motto	-7771
▁mould	-7772
▁nikon	-7773
▁noble	-7774
▁norms	-7775
▁novel	-7776
▁obama	-7777
▁olive	-7778
▁penet	-7779
▁polls	-7780
▁pools	-7781
▁preca	-7782
▁prima	-7783
▁quota	-7784
▁rival	-7785
▁score	-7786
▁stere	-7787
▁storm	-7788
▁stutt	-7789
▁towns	-7790
▁trees	-7791
▁twice	-7792
▁ultra	-7793
▁unity	-7794
▁unlim	-7795
▁upgra	-7796
▁usage	-7797
▁verhe	-7798
▁vigor	-7799
▁wheel	-7800
▁wider	-7801
▁yacht	-7802
aughter	-7803
certain	-7804
conomic	-7805
country	-7806
ematics	-7807
ensible	-7808
igenous	-7809
illance	-7810
ocolate	-7811
ovisual	-7812
rations	-7813
through	-7814
tically	-7815
unction	-7816
▁abuses	-7817
▁academ	-7818
▁ancest	-7819
▁apolog	-7820
▁approx	-7821
▁arises	-7822
▁assets	-7823
▁basics	-7824
▁beings	-7825
▁belief	-7826
▁bitter	-7827
▁boasts	-7828
▁burden	-7829
▁buyers	-7830
▁cancer	-7831
▁casual	-7832
▁cheese	-7833
▁clause	-7834
▁colleg	-7835
▁colomb	-7836
▁concil	-7837
▁contam	-7838
▁danger	-7839
▁danish	-7840
▁deeply	-7841
▁delete	-7842
▁denied	-7843
▁devast	-7844
▁driven	-7845
▁edward	-7846
▁entity	-7847
▁faster	-7848
▁fertil	-7849
▁fetish	-7850
▁floors	-7851
▁formal	-7852
▁fossil	-7853
▁freely	-7854
▁fusion	-7855
▁gaming	-7856
▁geneva	-7857
▁gentoo	-7858
▁grants	-7859
▁handed	-7860
▁handle	-7861
▁headqu	-7862
▁insert	-7863
▁layout	-7864
▁leaves	-7865
▁letter	-7866
▁looked	-7867
▁losing	-7868
▁losses	-7869
▁marked	-7870
▁mental	-7871
▁michel	-7872
▁modify	-7873
▁narrow	-7874
▁neglig	-7875
▁norway	-7876
▁orange	-7877
▁patent	-7878
▁pedest	-7879
▁phones	-7880
▁pillar	-7881
▁plugin	-7882
▁poison	-7883
▁preced	-7884
▁prelim	-7885
▁prince	-7886
▁privat	-7887
▁proven	-7888
▁puerto	-7889
▁punish	-7890
▁quotas	-7891
▁ranges	-7892
▁rhetor	-7893
▁saving	-7894
▁seemed	-7895
▁shadow	-7896
▁solved	-7897
▁sounds	-7898
▁static	-7899
▁styles	-7900
▁testim	-7901
▁thrown	-7902
▁timber	-7903
▁toward	-7904
▁towels	-7905
▁towers	-7906
▁turned	-7907
▁unions	-7908
▁valued	-7909
▁venice	-7910
▁venues	-7911
▁victim	-7912
▁videos	-7913
▁viewed	-7914
▁weapon	-7915
▁weekly	-7916
▁winner	-7917
▁wooden	-7918
atlantic	-7919
ountered	-7920
▁affects	-7921
▁albania	-7922
▁artific	-7923
▁backing	-7924
▁bearing	-7925
▁beijing	-7926
▁belgium	-7927
▁betting	-7928
▁britain	-7929
▁broadly	-7930
▁charles	-7931
▁chronic	-7932
▁circuit	-7933
▁clarify	-7934
▁closure	-7935
▁clothes	-7936
▁coastal	-7937
▁combine	-7938
▁condens	-7939
▁console	-7940
▁couples	-7941
▁creator	-7942
▁deficit	-7943
▁degrees	-7944
▁dollars	-7945
▁dungeon	-7946
▁durable	-7947
▁electro	-7948
▁embargo	-7949
▁emerged	-7950
▁enjoyed	-7951
▁exhaust	-7952
▁farming	-7953
▁filling	-7954
▁founder	-7955
▁gaining	-7956
▁greatly	-7957
▁handled	-7958
▁harmony	-7959
▁hundred	-7960
▁hungary	-7961
▁ideally	-7962
▁immense	-7963
▁impover	-7964
▁inquiry	-7965
▁instant	-7966
▁intends	-7967
▁logical	-7968
▁officer	-7969
▁packing	-7970
▁palazzo	-7971
▁passing	-7972
▁pattern	-7973
▁pointer	-7974
▁poorest	-7975
▁possess	-7976
▁radical	-7977
▁recital	-7978
▁remarks	-7979
▁removal	-7980
▁resorts	-7981
▁revenue	-7982
▁riviera	-7983
▁samples	-7984
▁satisfy	-7985
▁schemes	-7986
▁screens	-7987
▁selling	-7988
▁sending	-7989
▁shortly	-7990
▁shuttle	-7991
▁sliding	-7992
▁somalia	-7993
▁specify	-7994
▁stories	-7995
▁stylish	-7996
▁tariffs	-7997
▁teacher	-7998
▁theater	-7999
▁therapy	-8000
▁thunder	-8001
▁thyssen	-8002
▁tribute	-8003
▁tuesday	-8004
▁twitter	-8005
▁venture	-8006
▁vibrant	-8007
▁visited	-8008
▁visitor	-8009
▁warning	-8010
▁whereas	-8011
▁winning	-8012
▁wishing	-8013
▁witness	-8014
ationally	-8015
discrimin	-8016
mentioned	-8017
▁accident	-8018
▁adjacent	-8019
▁autonomy	-8020
▁bankrupt	-8021
▁barriers	-8022
▁bedrooms	-8023
▁believed	-8024
▁budapest	-8025
▁calendar	-8026
▁catastro	-8027
▁checking	-8028
▁circular	-8029
▁clothing	-8030
▁collapse	-8031
▁comforts	-8032
▁contempt	-8033
▁contrast	-8034
▁counters	-8035
▁counting	-8036
▁coverage	-8037
▁creature	-8038
▁cultures	-8039
▁deadline	-8040
▁debating	-8041
▁declines	-8042
▁defining	-8043
▁describe	-8044
▁diminish	-8045
▁disposal	-8046
▁educated	-8047
▁embedded	-8048
▁examined	-8049
▁fairness	-8050
▁featured	-8051
▁foremost	-8052
▁fortress	-8053
▁furgonet	-8054
▁generous	-8055
▁granting	-8056
▁grateful	-8057
▁helsinki	-8058
▁hesitate	-8059
▁hundreds	-8060
▁ideology	-8061
▁imported	-8062
▁imposing	-8063
▁incident	-8064
▁indicate	-8065
▁indirect	-8066
▁initiate	-8067
▁intellig	-8068
▁invested	-8069
▁investor	-8070
▁landmark	-8071
▁likewise	-8072
▁managing	-8073
▁midnight	-8074
▁minority	-8075
▁neighbor	-8076
▁notified	-8077
▁operated	-8078
▁opinions	-8079
▁predomin	-8080
▁produces	-8081
▁promises	-8082
▁receiver	-8083
▁relative	-8084
▁remained	-8085
▁resident	-8086
▁restored	-8087
▁sessions	-8088
▁shooting	-8089
▁slightly	-8090
▁slovenia	-8091
▁soldiers	-8092
▁speeches	-8093
▁splendid	-8094
▁stimulus	-8095
▁stressed	-8096
▁stresses	-8097
▁stricter	-8098
▁supplies	-8099
▁surprise	-8100
▁survival	-8101
▁template	-8102
▁terminal	-8103
▁transpos	-8104
▁underest	-8105
▁unforget	-8106
▁uploaded	-8107
▁validity	-8108
▁variable	-8109
▁visiting	-8110
▁wellness	-8111
productive	-8112
▁admission	-8113
▁affecting	-8114
▁alongside	-8115
▁amenities	-8116
▁arbitrary	-8117
▁attending	-8118
▁batteries	-8119
▁bilateral	-8120
▁bluetooth	-8121
▁caribbean	-8122
▁chocolate	-8123
▁collected	-8124
▁communism	-8125
▁conducted	-8126
▁consensus	-8127
▁converter	-8128
▁criminals	-8129
▁defending	-8130
▁delicious	-8131
▁dependent	-8132
▁detention	-8133
▁diplomacy	-8134
▁directors	-8135
▁disadvant	-8136
▁disasters	-8137
▁displayed	-8138
▁districts	-8139
▁dominated	-8140
▁emergency	-8141
▁estimates	-8142
▁execution	-8143
▁expertise	-8144
▁farmhouse	-8145
▁featuring	-8146
▁genuinely	-8147
▁hazardous	-8148
▁hospitals	-8149
▁impressed	-8150
▁incorrect	-8151
▁indicates	-8152
▁legendary	-8153
▁medicines	-8154
▁newspaper	-8155
▁packaging	-8156
▁perceived	-8157
▁perfectly	-8158
▁performed	-8159
▁placement	-8160
▁processed	-8161
▁prominent	-8162
▁promising	-8163
▁qualities	-8164
▁redundant	-8165
▁remaining	-8166
▁reporting	-8167
▁somewhere	-8168
▁stockholm	-8169
▁stuttgart	-8170
▁suppliers	-8171
▁suspended	-8172
▁taxpayers	-8173
▁tolerance	-8174
▁unlimited	-8175
▁welcoming	-8176
▁accounting	-8177
▁altogether	-8178
▁automobile	-8179
▁categories	-8180
▁characters	-8181
▁codecision	-8182
▁compatible	-8183
▁completing	-8184
▁contradict	-8185
▁conversion	-8186
▁coordinate	-8187
▁designated	-8188
▁difficulty	-8189
▁directives	-8190
▁downloaded	-8191
▁electorate	-8192
▁encourages	-8193
▁evaluating	-8194
▁greenhouse	-8195
▁imperative	-8196
▁incomplete	-8197
▁incredibly	-8198
▁indigenous	-8199
▁installing	-8200
▁insulation	-8201
▁jeopardise	-8202
▁laboratory	-8203
▁meaningful	-8204
▁performing	-8205
▁philosophy	-8206
▁portuguese	-8207
▁preventive	-8208
▁procedural	-8209
▁restricted	-8210
▁retirement	-8211
▁settlement	-8212
▁simplified	-8213
▁socialists	-8214
▁specialist	-8215
▁suggestion	-8216
▁threatened	-8217
▁tournament	-8218
▁translated	-8219
▁violations	-8220
▁withdrawal	-8221
▁appointment	-8222
▁arrangement	-8223
▁aspirations	-8224
▁audiovisual	-8225
▁beautifully	-8226
▁bureaucracy	-8227
▁compromises	-8228
▁conferences	-8229
▁consolidate	-8230
▁continental	-8231
▁corporation	-8232
▁democracies	-8233
▁departments	-8234
▁distinction	-8235
▁distinguish	-8236
▁educational	-8237
▁encountered	-8238
▁exceedingly	-8239
▁experiments	-8240
▁expressions	-8241
▁forthcoming	-8242
▁interaction	-8243
▁interpreted	-8244
▁limitations	-8245
▁mathematics	-8246
▁playstation	-8247
▁preliminary	-8248
▁preparation	-8249
▁rapporteurs	-8250
▁specialists	-8251
▁territorial	-8252
▁theoretical	-8253
▁transferred	-8254
▁willingness	-8255
▁broadcasting	-8256
▁compensation	-8257
▁consistently	-8258
▁experiencing	-8259
▁experimental	-8260
▁insufficient	-8261
▁intermediate	-8262
▁johannesburg	-8263
▁municipality	-8264
▁palestinians	-8265
▁partnerships	-8266
▁prerequisite	-8267
▁presidencies	-8268
▁respectively	-8269
▁subscription	-8270
▁surveillance	-8271
▁undertakings	-8272
▁certification	-8273
▁compatibility	-8274
▁neighbourhood	-8275
▁relationships	-8276
▁strengthening	-8277
▁traditionally	-8278
▁unforgettable	-8279
▁congratulating	-8280
▁interpretation	-8281
▁simplification	-8282
▁congratulations	-8283
,3	-8284
.8	-8285
4/	-8286
47	-8287
49	-8288
79	-8289
89	-8290
:4	-8291
aj	-8292
cp	-8293
cs	-8294
dh	-8295
dr	-8296
dy	-8297
gl	-8298
hu	-8299
iy	-8300
lv	-8301
mf	-8302
mö	-8303
pg	-8304
ua	-8305
zt	-8306
ät	-8307
ía	-8308
ав	-8309
ве	-8310
ме	-8311
та	-8312
▁á	-8313
-18	-8314
.06	-8315
.10	-8316
100	-8317
600	-8318
:08	-8319
abl	-8320
aco	-8321
agg	-8322
aka	-8323
anf	-8324
aux	-8325
ava	-8326
aya	-8327
bai	-8328
bek	-8329
bsp	-8330
cap	-8331
car	-8332
chi	-8333
cio	-8334
cki	-8335
die	-8336
dum	-8337
dvd	-8338
ems	-8339
esk	-8340
ete	-8341
eto	-8342
fen	-8343
gir	-8344
hop	-8345
hre	-8346
ifi	-8347
iot	-8348
iox	-8349
isa	-8350
isi	-8351
isp	-8352
jak	-8353
kas	-8354
kru	-8355
mad	-8356
mag	-8357
mel	-8358
mus	-8359
nik	-8360
nut	-8361
obe	-8362
oic	-8363
oll	-8364
omy	-8365
oon	-8366
opo	-8367
oto	-8368
ova	-8369
pas	-8370
pie	-8371
pin	-8372
ppy	-8373
rem	-8374
rey	-8375
rij	-8376
rip	-8377
ror	-8378
rut	-8379
sem	-8380
sta	-8381
sty	-8382
tec	-8383
top	-8384
ttp	-8385
uls	-8386
ums	-8387
uno	-8388
urf	-8389
uxe	-8390
vez	-8391
wer	-8392
wid	-8393
zed	-8394
zet	-8395
▁01	-8396
▁06	-8397
▁07	-8398
▁1.	-8399
▁45	-8400
▁51	-8401
▁53	-8402
▁79	-8403
▁88	-8404
▁96	-8405
▁gb	-8406
▁ht	-8407
▁ig	-8408
▁ja	-8409
▁ka	-8410
▁kö	-8411
▁lu	-8412
▁mc	-8413
▁ox	-8414
▁ps	-8415
▁rs	-8416
▁ru	-8417
▁ry	-8418
▁ré	-8419
▁sv	-8420
▁ti	-8421
▁ts	-8422
,500	-8423
adan	-8424
agna	-8425
agne	-8426
aled	-8427
amin	-8428
anas	-8429
anes	-8430
anqu	-8431
ardo	-8432
arie	-8433
ario	-8434
atar	-8435
bach	-8436
bben	-8437
bble	-8438
bere	-8439
bone	-8440
cell	-8441
ctic	-8442
ects	-8443
elli	-8444
elve	-8445
emen	-8446
empl	-8447
enom	-8448
enth	-8449
enza	-8450
eper	-8451
erry	-8452
erta	-8453
flow	-8454
food	-8455
gate	-8456
good	-8457
hein	-8458
held	-8459
hole	-8460
iang	-8461
ibar	-8462
ibes	-8463
ican	-8464
inal	-8465
iner	-8466
inos	-8467
inth	-8468
ique	-8469
isco	-8470
isen	-8471
isia	-8472
itas	-8473
iten	-8474
ivoc	-8475
keli	-8476
kers	-8477
llor	-8478
made	-8479
meas	-8480
mend	-8481
mont	-8482
obil	-8483
oded	-8484
oked	-8485
oker	-8486
peut	-8487
phic	-8488
pool	-8489
race	-8490
rait	-8491
rent	-8492
rine	-8493
rote	-8494
rust	-8495
sere	-8496
sier	-8497
sten	-8498
tail	-8499
type	-8500
uffs	-8501
ugen	-8502
uing	-8503
umph	-8504
uter	-8505
ycle	-8506
örse	-8507
▁110	-8508
▁189	-8509
▁192	-8510
▁3.0	-8511
▁350	-8512
▁700	-8513
▁anx	-8514
▁bav	-8515
▁bei	-8516
▁ble	-8517
▁bmw	-8518
▁boh	-8519
▁bru	-8520
▁bzw	-8521
▁ced	-8522
▁cet	-8523
▁chf	-8524
▁chi	-8525
▁cnc	-8526
▁dan	-8527
▁dei	-8528
▁duo	-8529
▁dup	-8530
▁eag	-8531
▁egg	-8532
▁ell	-8533
▁fuj	-8534
▁gaz	-8535
▁ger	-8536
▁gmp	-8537
▁gnu	-8538
▁gru	-8539
▁gui	-8540
▁hen	-8541
▁hiv	-8542
▁hud	-8543
▁hyp	-8544
▁ibm	-8545
▁inj	-8546
▁jed	-8547
▁jes	-8548
▁ken	-8549
▁kor	-8550
▁len	-8551
▁lex	-8552
▁luz	-8553
▁mün	-8554
▁nig	-8555
▁nim	-8556
▁nok	-8557
▁nür	-8558
▁pak	-8559
▁pam	-8560
▁rou	-8561
▁sak	-8562
▁sed	-8563
▁tat	-8564
▁tee	-8565
▁tel	-8566
▁toy	-8567
▁tub	-8568
▁twe	-8569
▁une	-8570
▁vel	-8571
▁vic	-8572
▁wat	-8573
▁wax	-8574
▁wis	-8575
▁wiz	-8576
▁при	-8577
/2002	-8578
accur	-8579
added	-8580
aland	-8581
allel	-8582
anged	-8583
archy	-8584
arked	-8585
arthy	-8586
atile	-8587
avian	-8588
banon	-8589
berry	-8590
chant	-8591
chner	-8592
depth	-8593
edged	-8594
enade	-8595
enced	-8596
exist	-8597
fleet	-8598
front	-8599
gging	-8600
group	-8601
holds	-8602
ichen	-8603
ician	-8604
iforn	-8605
ilung	-8606
inite	-8607
inson	-8608
ively	-8609
ixels	-8610
izers	-8611
ketch	-8612
krupp	-8613
ktron	-8614
liche	-8615
lined	-8616
naiss	-8617
olved	-8618
onies	-8619
opper	-8620
organ	-8621
orian	-8622
osion	-8623
oured	-8624
ourge	-8625
pered	-8626
ports	-8627
pread	-8628
quake	-8629
rance	-8630
rated	-8631
rible	-8632
stadt	-8633
storm	-8634
tress	-8635
ulary	-8636
ungen	-8637
uster	-8638
utors	-8639
ystem	-8640
zippy	-8641
▁1920	-8642
▁1940	-8643
▁1950	-8644
▁1960	-8645
▁1987	-8646
▁1988	-8647
▁acou	-8648
▁adds	-8649
▁anna	-8650
▁arom	-8651
▁auto	-8652
▁bags	-8653
▁boom	-8654
▁bore	-8655
▁boss	-8656
▁bren	-8657
▁brid	-8658
▁bull	-8659
▁cant	-8660
▁cass	-8661
▁cens	-8662
▁cock	-8663
▁coin	-8664
▁cort	-8665
▁coup	-8666
▁crow	-8667
▁dass	-8668
▁deck	-8669
▁diam	-8670
▁diox	-8671
▁dorm	-8672
▁drag	-8673
▁earm	-8674
▁echo	-8675
▁eman	-8676
▁epis	-8677
▁fate	-8678
▁finn	-8679
▁fits	-8680
▁flaw	-8681
▁forb	-8682
▁gaza	-8683
▁glas	-8684
▁glue	-8685
▁gmos	-8686
▁goth	-8687
▁gour	-8688
▁grew	-8689
▁grey	-8690
▁gulf	-8691
▁hamp	-8692
▁hire	-8693
▁hoch	-8694
▁hole	-8695
▁hong	-8696
▁horm	-8697
▁http	-8698
▁icon	-8699
▁irre	-8700
▁kall	-8701
▁keen	-8702
▁keys	-8703
▁kick	-8704
▁kits	-8705
▁koch	-8706
▁kong	-8707
▁ling	-8708
▁loan	-8709
▁lock	-8710
▁mann	-8711
▁marc	-8712
▁mens	-8713
▁mile	-8714
▁mine	-8715
▁mira	-8716
▁mold	-8717
▁myth	-8718
▁nbsp	-8719
▁nest	-8720
▁nike	-8721
▁noon	-8722
▁obsc	-8723
▁oste	-8724
▁owns	-8725
▁pair	-8726
▁pigs	-8727
▁pose	-8728
▁pred	-8729
▁prox	-8730
▁prud	-8731
▁pubs	-8732
▁pula	-8733
▁puts	-8734
▁rays	-8735
▁reop	-8736
▁rico	-8737
▁root	-8738
▁sake	-8739
▁seas	-8740
▁sees	-8741
▁sein	-8742
▁serb	-8743
▁shel	-8744
▁soap	-8745
▁soil	-8746
▁soul	-8747
▁spat	-8748
▁tang	-8749
▁tear	-8750
▁tech	-8751
▁tiny	-8752
▁trop	-8753
▁tuna	-8754
▁twin	-8755
▁unde	-8756
▁unex	-8757
▁unic	-8758
▁unsp	-8759
▁verg	-8760
▁vivo	-8761
▁ward	-8762
▁wash	-8763
▁wifi	-8764
▁wise	-8765
▁zeer	-8766
alling	-8767
andise	-8768
anical	-8769
arters	-8770
berian	-8771
bridge	-8772
copter	-8773
demand	-8774
dering	-8775
ennium	-8776
entium	-8777
estock	-8778
hesive	-8779
hotels	-8780
iaries	-8781
icular	-8782
ignant	-8783
inator	-8784
incide	-8785
ington	-8786
integr	-8787
ischer	-8788
itudes	-8789
licity	-8790
lining	-8791
master	-8792
others	-8793
ouched	-8794
peutic	-8795
public	-8796
racted	-8797
rating	-8798
rolean	-8799
rupted	-8800
screen	-8801
stream	-8802
ulsory	-8803
urning	-8804
ycling	-8805
▁10:00	-8806
▁adobe	-8807
▁alleg	-8808
▁aller	-8809
▁andre	-8810
▁argue	-8811
▁arist	-8812
▁aston	-8813
▁birds	-8814
▁blind	-8815
▁blogs	-8816
▁brain	-8817
▁brown	-8818
▁buyer	-8819
▁börse	-8820
▁cafes	-8821
▁chips	-8822
▁chlor	-8823
▁choos	-8824
▁chris	-8825
▁codes	-8826
▁comit	-8827
▁corre	-8828
▁crash	-8829
▁crypt	-8830
▁datas	-8831
▁debts	-8832
▁delhi	-8833
▁diagn	-8834
▁displ	-8835
▁disqu	-8836
▁dryer	-8837
▁edges	-8838
▁farms	-8839
▁fires	-8840
▁float	-8841
▁fluid	-8842
▁fonts	-8843
▁forty	-8844
▁frict	-8845
▁fuels	-8846
▁gangs	-8847
▁giant	-8848
▁glaci	-8849
▁gloss	-8850
▁grass	-8851
▁grown	-8852
▁inaug	-8853
▁indif	-8854
▁inser	-8855
▁kyoto	-8856
▁layer	-8857
▁leone	-8858
▁lingu	-8859
▁loads	-8860
▁lodge	-8861
▁login	-8862
▁loses	-8863
▁maker	-8864
▁markt	-8865
▁maxdb	-8866
▁menus	-8867
▁naval	-8868
▁newer	-8869
▁noted	-8870
▁oppon	-8871
▁owned	-8872
▁parks	-8873
▁paths	-8874
▁patri	-8875
▁payne	-8876
▁peter	-8877
▁piano	-8878
▁plain	-8879
▁plung	-8880
▁pregn	-8881
▁puede	-8882
▁quint	-8883
▁ratio	-8884
▁reass	-8885
▁recru	-8886
▁rhein	-8887
▁royal	-8888
▁sacri	-8889
▁sandy	-8890
▁saves	-8891
▁schol	-8892
▁secur	-8893
▁shame	-8894
▁shell	-8895
▁shots	-8896
▁simul	-8897
▁sixth	-8898
▁skept	-8899
▁smell	-8900
▁smile	-8901
▁songs	-8902
▁spare	-8903
▁spell	-8904
▁split	-8905
▁spoke	-8906
▁steep	-8907
▁suits	-8908
▁sweet	-8909
▁swift	-8910
▁syner	-8911
▁synth	-8912
▁teams	-8913
▁tells	-8914
▁thera	-8915
▁thick	-8916
▁tiles	-8917
▁titan	-8918
▁token	-8919
▁unbal	-8920
▁waves	-8921
▁wides	-8922
▁worse	-8923
▁wrote	-8924
chester	-8925
emplary	-8926
ifornia	-8927
itative	-8928
itories	-8929
justice	-8930
leading	-8931
loyment	-8932
ourcing	-8933
ressing	-8934
unately	-8935
version	-8936
winning	-8937
▁adding	-8938
▁adhere	-8939
▁affair	-8940
▁albeit	-8941
▁albums	-8942
▁allies	-8943
▁anyway	-8944
▁apache	-8945
▁assert	-8946
▁behave	-8947
▁booked	-8948
▁bought	-8949
▁broker	-8950
▁browse	-8951
▁builds	-8952
▁bullet	-8953
▁cables	-8954
▁cannes	-8955
▁canvas	-8956
▁carbon	-8957
▁cement	-8958
▁cinema	-8959
▁cleans	-8960
▁clever	-8961
▁colors	-8962
▁column	-8963
▁county	-8964
▁crimes	-8965
▁decade	-8966
▁deemed	-8967
▁defend	-8968
▁define	-8969
▁desire	-8970
▁dollar	-8971
▁dragon	-8972
▁earned	-8973
▁ecofin	-8974
▁eradic	-8975
▁exempt	-8976
▁exotic	-8977
▁facult	-8978
▁fading	-8979
▁finest	-8980
▁flower	-8981
▁flying	-8982
▁freeze	-8983
▁friday	-8984
▁garage	-8985
▁glance	-8986
▁grande	-8987
▁handic	-8988
▁hardly	-8989
▁headed	-8990
▁hebben	-8991
▁height	-8992
▁honest	-8993
▁hunger	-8994
▁imagin	-8995
▁immers	-8996
▁impair	-8997
▁impede	-8998
▁ingred	-8999
▁intent	-9000
▁jacket	-9001
▁jordan	-9002
▁kindly	-9003
▁korean	-9004
▁legacy	-9005
▁lights	-9006
▁likeli	-9007
▁loaded	-9008
▁locate	-9009
▁maison	-9010
▁marvel	-9011
▁minden	-9012
▁miscon	-9013
▁modest	-9014
▁monaco	-9015
▁monnet	-9016
▁motors	-9017
▁multin	-9018
▁muslim	-9019
▁nights	-9020
▁noneth	-9021
▁occurs	-9022
▁pebble	-9023
▁phenom	-9024
▁phuket	-9025
▁plural	-9026
▁poorer	-9027
▁prayer	-9028
▁provin	-9029
▁purely	-9030
▁refurb	-9031
▁resemb	-9032
▁resign	-9033
▁riding	-9034
▁robots	-9035
▁robust	-9036
▁rubber	-9037
▁safely	-9038
▁sahara	-9039
▁senior	-9040
▁senses	-9041
▁sensit	-9042
▁sensor	-9043
▁singer	-9044
▁sketch	-9045
▁slowly	-9046
▁socket	-9047
▁speaks	-9048
▁stairs	-9049
▁strait	-9050
▁strand	-9051
▁sudden	-9052
▁summar	-9053
▁syrian	-9054
▁tables	-9055
▁tandem	-9056
▁taught	-9057
▁thresh	-9058
▁thrust	-9059
▁timing	-9060
▁topics	-9061
▁tranqu	-9062
▁trials	-9063
▁triang	-9064
▁tuscan	-9065
▁ukrain	-9066
▁unesco	-9067
▁varied	-9068
▁varies	-9069
▁verify	-9070
▁villas	-9071
▁voters	-9072
▁walter	-9073
▁warsaw	-9074
▁wisdom	-9075
economic	-9076
etically	-9077
ilingual	-9078
learning	-9079
security	-9080
▁absence	-9081
▁accomod	-9082
▁advised	-9083
▁airline	-9084
▁airways	-9085
▁analyse	-9086
▁anymore	-9087
▁archive	-9088
▁bedding	-9089
▁busquin	-9090
▁buttons	-9091
▁capture	-9092
▁carries	-9093
▁caution	-9094
▁checked	-9095
▁clearer	-9096
▁cloning	-9097
▁closing	-9098
▁congreg	-9099
▁conserv	-9100
▁consign	-9101
▁crosses	-9102
▁curious	-9103
▁decline	-9104
▁deserve	-9105
▁deutsch	-9106
▁devoted	-9107
▁dignity	-9108
▁discipl	-9109
▁elderly	-9110
▁emperor	-9111
▁encrypt	-9112
▁enemies	-9113
▁essence	-9114
▁exceeds	-9115
▁execute	-9116
▁exports	-9117
▁exposed	-9118
▁extends	-9119
▁flowing	-9120
▁forming	-9121
▁gastron	-9122
▁gateway	-9123
▁gourmet	-9124
▁granada	-9125
▁gravity	-9126
▁halfway	-9127
▁hamadan	-9128
▁harmful	-9129
▁heavily	-9130
▁highway	-9131
▁husband	-9132
▁iceland	-9133
▁illiter	-9134
▁illness	-9135
▁imagine	-9136
▁imposed	-9137
▁inaccur	-9138
▁inspect	-9139
▁interim	-9140
▁iranian	-9141
▁joining	-9142
▁lambert	-9143
▁learned	-9144
▁lending	-9145
▁letters	-9146
▁linking	-9147
▁marking	-9148
▁massage	-9149
▁matched	-9150
▁michael	-9151
▁minibar	-9152
▁motorcy	-9153
▁mounted	-9154
▁musical	-9155
▁notably	-9156
▁observe	-9157
▁optical	-9158
▁optimal	-9159
▁painted	-9160
▁parents	-9161
▁passion	-9162
▁patents	-9163
▁patient	-9164
▁physics	-9165
▁placing	-9166
▁plateau	-9167
▁pretext	-9168
▁preview	-9169
▁pricing	-9170
▁printed	-9171
▁printer	-9172
▁promise	-9173
▁protein	-9174
▁pursued	-9175
▁qualify	-9176
▁ranging	-9177
▁realise	-9178
▁rebuilt	-9179
▁recipro	-9180
▁refined	-9181
▁regimes	-9182
▁relaxed	-9183
▁renaiss	-9184
▁restore	-9185
▁retreat	-9186
▁reveals	-9187
▁richard	-9188
▁roughly	-9189
▁routine	-9190
▁sailing	-9191
▁segment	-9192
▁sensors	-9193
▁shaping	-9194
▁skilled	-9195
▁spheres	-9196
▁springs	-9197
▁stating	-9198
▁stephen	-9199
▁strange	-9200
▁streams	-9201
▁student	-9202
▁subsidy	-9203
▁symbols	-9204
▁tabling	-9205
▁terrain	-9206
▁tonight	-9207
▁trained	-9208
▁trigger	-9209
▁triumph	-9210
▁tunisia	-9211
▁turkish	-9212
▁unclear	-9213
▁utility	-9214
▁victory	-9215
▁warming	-9216
▁winding	-9217
alisation	-9218
intensive	-9219
lications	-9220
producing	-9221
regulated	-9222
risonment	-9223
▁accessed	-9224
▁adriatic	-9225
▁advisory	-9226
▁agreeing	-9227
▁alquiler	-9228
▁ambition	-9229
▁analyses	-9230
▁annually	-9231
▁appeared	-9232
▁applying	-9233
▁assigned	-9234
▁audience	-9235
▁billions	-9236
▁bookings	-9237
▁champion	-9238
▁civilian	-9239
▁claiming	-9240
▁coherent	-9241
▁coincide	-9242
▁commerce	-9243
▁compiled	-9244
▁composed	-9245
▁constitu	-9246
▁courtesy	-9247
▁credible	-9248
▁croatian	-9249
▁culinary	-9250
▁damaging	-9251
▁dealings	-9252
▁deposits	-9253
▁designer	-9254
▁drafting	-9255
▁dynamics	-9256
▁egyptian	-9257
▁elektron	-9258
▁elevator	-9259
▁engaging	-9260
▁entrance	-9261
▁excluded	-9262
▁executed	-9263
▁expanded	-9264
▁explicit	-9265
▁facebook	-9266
▁feedback	-9267
▁findings	-9268
▁firewall	-9269
▁florence	-9270
▁forecast	-9271
▁friction	-9272
▁frontier	-9273
▁geopolit	-9274
▁gigantic	-9275
▁hearings	-9276
▁homepage	-9277
▁illusion	-9278
▁intimate	-9279
▁isolated	-9280
▁journeys	-9281
▁keyboard	-9282
▁kitchens	-9283
▁liberals	-9284
▁licensed	-9285
▁managers	-9286
▁mattress	-9287
▁mccarthy	-9288
▁migrants	-9289
▁missions	-9290
▁mutually	-9291
▁optional	-9292
▁organize	-9293
▁parallel	-9294
▁patience	-9295
▁pensions	-9296
▁pipeline	-9297
▁practise	-9298
▁premiere	-9299
▁prevents	-9300
▁promoted	-9301
▁realized	-9302
▁receives	-9303
▁remedies	-9304
▁reviewed	-9305
▁rhetoric	-9306
▁sanction	-9307
▁sanitary	-9308
▁sensible	-9309
▁sentence	-9310
▁shortcut	-9311
▁shoulder	-9312
▁standing	-9313
▁struggle	-9314
▁suffered	-9315
▁suggests	-9316
▁surfaces	-9317
▁timeless	-9318
▁trekking	-9319
▁tropical	-9320
▁universe	-9321
▁unstable	-9322
▁weakness	-9323
▁workable	-9324
▁abilities	-9325
▁activated	-9326
▁activists	-9327
▁advertise	-9328
▁alexander	-9329
▁ancestors	-9330
▁argentina	-9331
▁assembled	-9332
▁assistant	-9333
▁balancing	-9334
▁bathrooms	-9335
▁benefited	-9336
▁broadband	-9337
▁campaigns	-9338
▁cancelled	-9339
▁catalogue	-9340
▁certainty	-9341
▁classical	-9342
▁cognitive	-9343
▁composite	-9344
▁concludes	-9345
▁cooperate	-9346
▁crossroad	-9347
▁developer	-9348
▁discounts	-9349
▁divisions	-9350
▁electoral	-9351
▁elsewhere	-9352
▁emergence	-9353
▁employers	-9354
▁endeavour	-9355
▁estimated	-9356
▁evolution	-9357
▁exemplary	-9358
▁extending	-9359
▁extremist	-9360
▁finishing	-9361
▁forbidden	-9362
▁generator	-9363
▁graphical	-9364
▁identical	-9365
▁illnesses	-9366
▁infection	-9367
▁injustice	-9368
▁interiors	-9369
▁intervals	-9370
▁investing	-9371
▁judiciary	-9372
▁libraries	-9373
▁lifestyle	-9374
▁liquidity	-9375
▁livestock	-9376
▁maintains	-9377
▁messenger	-9378
▁motivated	-9379
▁nationals	-9380
▁necessity	-9381
▁nightlife	-9382
▁objection	-9383
▁observers	-9384
▁occurring	-9385
▁offensive	-9386
▁ownership	-9387
▁palestine	-9388
▁particles	-9389
▁partition	-9390
▁penalties	-9391
▁principal	-9392
▁promenade	-9393
▁proposing	-9394
▁proximity	-9395
▁purchased	-9396
▁purchaser	-9397
▁ratifying	-9398
▁realistic	-9399
▁recognize	-9400
▁recycling	-9401
▁requiring	-9402
▁retailers	-9403
▁returning	-9404
▁selecting	-9405
▁separated	-9406
▁sophistic	-9407
▁specially	-9408
▁specialty	-9409
▁stereotyp	-9410
▁substance	-9411
▁templates	-9412
▁trademark	-9413
▁unanimity	-9414
▁uncertain	-9415
▁undertake	-9416
▁unequivoc	-9417
▁vegetable	-9418
▁verheugen	-9419
▁adjustment	-9420
▁allocation	-9421
▁assistants	-9422
▁california	-9423
▁celebrated	-9424
▁chancellor	-9425
▁collecting	-9426
▁comitology	-9427
▁committees	-9428
▁comparison	-9429
▁compelling	-9430
▁complaints	-9431
▁compliment	-9432
▁compulsory	-9433
▁concluding	-9434
▁connecting	-9435
▁consequent	-9436
▁contractor	-9437
▁correction	-9438
▁customized	-9439
▁delivering	-9440
▁departures	-9441
▁depression	-9442
▁documented	-9443
▁earthquake	-9444
▁emphasised	-9445
▁eurocopter	-9446
▁exceptions	-9447
▁extraction	-9448
▁favourable	-9449
▁fertiliser	-9450
▁formations	-9451
▁forwarding	-9452
▁friendship	-9453
▁households	-9454
▁incredible	-9455
▁indicating	-9456
▁indication	-9457
▁inequality	-9458
▁interfaces	-9459
▁journalist	-9460
▁likelihood	-9461
▁mechanical	-9462
▁millennium	-9463
▁negotiated	-9464
▁newspapers	-9465
▁oppression	-9466
▁perception	-9467
▁physically	-9468
▁positioned	-9469
▁prevailing	-9470
▁quantities	-9471
▁rebuilding	-9472
▁recipients	-9473
▁referendum	-9474
▁reflecting	-9475
▁simulation	-9476
▁stipulated	-9477
▁structured	-9478
▁substitute	-9479
▁tastefully	-9480
▁terrorists	-9481
▁trademarks	-9482
▁transports	-9483
▁unbalanced	-9484
▁underestim	-9485
▁undergoing	-9486
▁underlying	-9487
▁unexpected	-9488
▁weaknesses	-9489
▁widespread	-9490
▁accusations	-9491
▁achievement	-9492
▁adaptations	-9493
▁alterations	-9494
▁appreciated	-9495
▁calculation	-9496
▁challenging	-9497
▁circulation	-9498
▁citizenship	-9499
▁collections	-9500
▁competences	-9501
▁complicated	-9502
▁conflicting	-9503
▁consultants	-9504
▁continually	-9505
▁convenience	-9506
▁disappeared	-9507
▁disparities	-9508
▁electronics	-9509
▁eliminating	-9510
▁encompasses	-9511
▁enforcement	-9512
▁fashionable	-9513
▁formulation	-9514
▁fortunately	-9515
▁hostelsclub	-9516
▁imagination	-9517
▁indifferent	-9518
▁ingredients	-9519
▁innovations	-9520
▁intensively	-9521
▁journalists	-9522
▁merchandise	-9523
▁negotiation	-9524
▁nonetheless	-9525
▁overlooking	-9526
▁personality	-9527
▁populations	-9528
▁proportions	-9529
▁radioactive	-9530
▁refurbished	-9531
▁regrettable	-9532
▁renaissance	-9533
▁replacement	-9534
▁restoration	-9535
▁settlements	-9536
▁specialized	-9537
▁substantive	-9538
▁synchronize	-9539
▁terminology	-9540
▁therapeutic	-9541
▁translation	-9542
mediterranean	-9543
▁accumulation	-9544
▁administered	-9545
▁breakthrough	-9546
▁bureaucratic	-9547
▁certificates	-9548
▁conservation	-9549
▁contributing	-9550
▁deliberately	-9551
▁disabilities	-9552
▁disadvantage	-9553
▁ecologically	-9554
▁explanations	-9555
▁facilitating	-9556
▁friendliness	-9557
▁headquarters	-9558
▁imprisonment	-9559
▁intelligence	-9560
▁manufactured	-9561
▁neighbouring	-9562
▁occasionally	-9563
▁preservation	-9564
▁productivity	-9565
▁publications	-9566
▁representing	-9567
▁reproduction	-9568
▁satisfactory	-9569
▁shareholders	-9570
▁significance	-9571
▁subsequently	-9572
▁supplemented	-9573
▁surprisingly	-9574
▁thyssenkrupp	-9575
▁transforming	-9576
▁transitional	-9577
▁transmission	-9578
▁universities	-9579
▁appropriately	-9580
▁beneficiaries	-9581
▁concentration	-9582
▁consolidating	-9583
▁consultations	-9584
▁determination	-9585
▁modifications	-9586
▁multinational	-9587
▁organizations	-9588
▁stabilisation	-9589
▁transatlantic	-9590
▁classification	-9591
▁identification	-9592
▁intermediaries	-9593
▁liberalization	-9594
▁qualifications	-9595
▁representation	-9596
▁systematically	-9597
▁internationally	-9598
▁transplantation	-9599
++	-9600
-8	-9601
/9	-9602
18	-9603
19	-9604
3/	-9605
37	-9606
38	-9607
46	-9608
56	-9609
58	-9610
59	-9611
76	-9612
77	-9613
8.	-9614
ao	-9615
fj	-9616
hs	-9617
ih	-9618
ju	-9619
kk	-9620
kn	-9621
ku	-9622
lt	-9623
mn	-9624
ní	-9625
oi	-9626
pf	-9627
pu	-9628
qa	-9629
ql	-9630
tu	-9631
uv	-9632
vs	-9633
xx	-9634
zd	-9635
át	-9636
än	-9637
én	-9638
ét	-9639
ós	-9640
üs	-9641
не	-9642
ни	-9643
рс	-9644
▁ö	-9645
▁о	-9646
,00	-9647
.30	-9648
.50	-9649
/98	-9650
1/+	-9651
320	-9652
4-0	-9653
700	-9654
:11	-9655
acu	-9656
afi	-9657
agn	-9658
aki	-9659
akt	-9660
ali	-9661
ami	-9662
anb	-9663
aro	-9664
asy	-9665
ato	-9666
aus	-9667
awi	-9668
axy	-9669
bin	-9670
blo	-9671
cas	-9672
dek	-9673
del	-9674
dri	-9675
dul	-9676
edt	-9677
eek	-9678
elm	-9679
euv	-9680
fia	-9681
fir	-9682
fon	-9683
fra	-9684
gae	-9685
gly	-9686
gos	-9687
gun	-9688
hat	-9689
haz	-9690
hoe	-9691
ieb	-9692
ikh	-9693
ilk	-9694
ima	-9695
inn	-9696
ipe	-9697
ipz	-9698
iri	-9699
bsd	-9700
irs	-9701
iso	-9702
izz	-9703
jes	-9704
kiy	-9705
kok	-9706
lab	-9707
lad	-9708
lag	-9709
lah	-9710
lie	-9711
lij	-9712
lio	-9713
lle	-9714
loc	-9715
luc	-9716
mac	-9717
mts	-9718
nam	-9719
nar	-9720
nek	-9721
nex	-9722
not	-9723
oba	-9724
obl	-9725
ocr	-9726
oga	-9727
ois	-9728
ols	-9729
oma	-9730
oni	-9731
opl	-9732
ori	-9733
osh	-9734
pak	-9735
pan	-9736
pat	-9737
pex	-9738
ras	-9739
rei	-9740
rik	-9741
riv	-9742
rix	-9743
rot	-9744
rug	-9745
sav	-9746
shi	-9747
sim	-9748
tin	-9749
tle	-9750
ubs	-9751
upp	-9752
urd	-9753
uty	-9754
vec	-9755
vio	-9756
vit	-9757
wed	-9758
weg	-9759
wes	-9760
yer	-9761
yes	-9762
ync	-9763
zza	-9764
íne	-9765
енн	-9766
сти	-9767
▁09	-9768
▁1/	-9769
▁34	-9770
▁37	-9771
▁42	-9772
▁56	-9773
▁61	-9774
▁67	-9775
▁71	-9776
▁73	-9777
▁98	-9778
▁99	-9779
▁aa	-9780
▁bn	-9781
▁bv	-9782
▁cf	-9783
▁ct	-9784
▁cv	-9785
▁db	-9786
▁dj	-9787
▁ds	-9788
▁dy	-9789
▁dé	-9790
▁ea	-9791
▁eb	-9792
▁fm	-9793
▁gö	-9794
▁hp	-9795
▁ko	-9796
▁kw	-9797
▁ld	-9798
▁lp	-9799
-28	-9800
:16	-9801
ärt	-9802
▁lv	-9803
▁mt	-9804
▁mö	-9805
▁nd	-9806
▁nh	-9807
▁ni	-9808
▁ny	-9809
▁nä	-9810
▁oe	-9811
▁ou	-9812
▁ov	-9813
▁pf	-9814
▁pv	-9815
▁pü	-9816
▁ss	-9817
▁vé	-9818
▁wc	-9819
▁wx	-9820
▁ya	-9821
▁és	-9822
▁ме	-9823
▁на	-9824
▁см	-9825
abot	-9826
addy	-9827
ader	-9828
allo	-9829
alom	-9830
alto	-9831
andb	-9832
ande	-9833
ando	-9834
ante	-9835
anyo	-9836
aped	-9837
aper	-9838
asil	-9839
atem	-9840
aths	-9841
atly	-9842
away	-9843
ayam	-9844
azur	-9845
bett	-9846
bird	-9847
bish	-9848
bles	-9849
borg	-9850
burn	-9851
bury	-9852
ches	-9853
chet	-9854
cked	-9855
conn	-9856
eded	-9857
eken	-9858
elij	-9859
eman	-9860
enet	-9861
eous	-9862
erer	-9863
ergy	-9864
erne	-9865
esis	-9866
este	-9867
etes	-9868
etti	-9869
fies	-9870
file	-9871
foot	-9872
gans	-9873
gnos	-9874
grim	-9875
grow	-9876
habi	-9877
high	-9878
hill	-9879
hire	-9880
home	-9881
horn	-9882
hton	-9883
ials	-9884
iana	-9885
iane	-9886
iche	-9887
icon	-9888
icts	-9889
idad	-9890
iert	-9891
illy	-9892
imet	-9893
inet	-9894
ioni	-9895
irac	-9896
irin	-9897
irms	-9898
irth	-9899
mög	-9900
bags	-9901
isto	-9902
ithu	-9903
iums	-9904
kech	-9905
kova	-9906
ledo	-9907
lipp	-9908
lore	-9909
lous	-9910
lude	-9911
mach	-9912
main	-9913
mmet	-9914
mony	-9915
name	-9916
ngel	-9917
nier	-9918
oilt	-9919
oler	-9920
oluc	-9921
onda	-9922
oner	-9923
oper	-9924
orca	-9925
orde	-9926
osse	-9927
otal	-9928
otel	-9929
owed	-9930
paso	-9931
phal	-9932
prof	-9933
quen	-9934
rade	-9935
raid	-9936
real	-9937
rels	-9938
resc	-9939
rier	-9940
rint	-9941
robe	-9942
roll	-9943
rome	-9944
ront	-9945
sein	-9946
seld	-9947
selt	-9948
ship	-9949
sile	-9950
stay	-9951
stit	-9952
teen	-9953
town	-9954
udio	-9955
uken	-9956
ulia	-9957
ulle	-9958
unci	-9959
uner	-9960
unte	-9961
uras	-9962
uset	-9963
ussy	-9964
uzzi	-9965
vals	-9966
vene	-9967
verb	-9968
wald	-9969
weis	-9970
whel	-9971
ynch	-9972
zano	-9973
zart	-9974
ávez	-9975
▁1.6	-9976
▁130	-9977
▁160	-9978
▁175	-9979
▁188	-9980
▁190	-9981
▁2-3	-9982
▁3.2	-9983
▁320	-9984
▁aan	-9985
▁alc	-9986
▁ali	-9987
▁alm	-9988
▁amm	-9989
▁amn	-9990
▁api	-9991
▁auf	-9992
▁bee	-9993
▁bib	-9994
▁bin	-9995
▁bog	-9996
▁cid	-9997
▁cmc	-9998
▁cmm	-9999
oeuv	-10000
▁cms	-10001
▁cod	-10002
▁coe	-10003
▁cot	-10004
▁cyc	-10005
▁dog	-10006
▁dop	-10007
▁dot	-10008
▁eib	-10009
▁eps	-10010
▁erg	-10011
▁exr	-10012
▁fri	-10013
▁fro	-10014
▁fuc	-10015
▁gap	-10016
▁gel	-10017
▁gem	-10018
▁gep	-10019
▁gim	-10020
▁gis	-10021
▁gps	-10022
▁hin	-10023
▁hop	-10024
▁hug	-10025
▁hur	-10026
▁imb	-10027
▁ine	-10028
▁ion	-10029
▁ish	-10030
▁jer	-10031
▁jub	-10032
▁kaz	-10033
▁kde	-10034
▁kit	-10035
▁lac	-10036
▁lap	-10037
▁lav	-10038
▁lax	-10039
▁leu	-10040
▁lev	-10041
▁liu	-10042
▁lob	-10043
▁ltd	-10044
▁lud	-10045
▁lum	-10046
▁lut	-10047
▁mai	-10048
▁mel	-10049
▁mep	-10050
▁mir	-10051
▁mul	-10052
▁mys	-10053
▁nak	-10054
▁nam	-10055
▁neo	-10056
▁nun	-10057
▁och	-10058
▁pag	-10059
▁peg	-10060
▁pit	-10061
▁pom	-10062
▁pus	-10063
▁rab	-10064
▁rac	-10065
▁rav	-10066
▁ray	-10067
▁rib	-10068
▁rid	-10069
▁roc	-10070
▁ros	-10071
▁row	-10072
▁rud	-10073
▁rue	-10074
▁rum	-10075
▁sar	-10076
▁sax	-10077
▁sdl	-10078
▁seb	-10079
▁sic	-10080
▁sid	-10081
▁sis	-10082
▁tam	-10083
▁tap	-10084
▁ted	-10085
▁tet	-10086
▁unm	-10087
▁unn	-10088
▁vip	-10089
▁voy	-10090
▁vue	-10091
▁wav	-10092
▁wie	-10093
▁xen	-10094
▁xia	-10095
▁yea	-10096
▁yit	-10097
▁пре	-10098
about	-10099
acerb	-10100
aceut	-10101
aches	-10102
acies	-10103
ademi	-10104
ained	-10105
aline	-10106
allic	-10107
andom	-10108
andum	-10109
angel	-10110
appro	-10111
arial	-10112
arium	-10113
ascal	-10114
aysia	-10115
backs	-10116
break	-10117
canic	-10118
catch	-10119
chair	-10120
charg	-10121
check	-10122
cific	-10123
cisco	-10124
click	-10125
comes	-10126
drawn	-10127
eezed	-10128
elong	-10129
erion	-10130
eterm	-10131
eting	-10132
ffiti	-10133
first	-10134
forge	-10135
garve	-10136
harov	-10137
hring	-10138
icent	-10139
icial	-10140
icing	-10141
idade	-10142
ieren	-10143
ierre	-10144
ighth	-10145
ignia	-10146
illes	-10147
inees	-10148
inist	-10149
inity	-10150
ipzig	-10151
iries	-10152
ische	-10153
isers	-10154
isler	-10155
isons	-10156
istro	-10157
jamin	-10158
leich	-10159
lickr	-10160
liest	-10161
lists	-10162
luded	-10163
mouth	-10164
netic	-10165
oboda	-10166
ograp	-10167
oints	-10168
olves	-10169
ongol	-10170
ongue	-10171
ophob	-10172
opold	-10173
opped	-10174
order	-10175
osity	-10176
ostic	-10177
otted	-10178
oware	-10179
pages	-10180
phecy	-10181
plore	-10182
power	-10183
preme	-10184
print	-10185
priot	-10186
ranet	-10187
rayed	-10188
rence	-10189
retty	-10190
robes	-10191
rutin	-10192
sofar	-10193
speci	-10194
speed	-10195
stone	-10196
store	-10197
style	-10198
ulian	-10199
ulous	-10200
umbia	-10201
uming	-10202
urers	-10203
using	-10204
ustle	-10205
venth	-10206
ville	-10207
worth	-10208
änder	-10209
▁+1/+	-10210
▁10.0	-10211
▁1080	-10212
▁1600	-10213
▁1963	-10214
▁1972	-10215
▁1974	-10216
▁1975	-10217
▁1985	-10218
▁1992	-10219
▁2012	-10220
▁agri	-10221
▁alan	-10222
▁alle	-10223
▁alto	-10224
▁anch	-10225
▁aren	-10226
▁atop	-10227
▁axis	-10228
▁bail	-10229
▁barb	-10230
▁bart	-10231
▁beac	-10232
▁bell	-10233
▁bere	-10234
▁berg	-10235
▁bert	-10236
▁bien	-10237
▁bild	-10238
▁bind	-10239
▁blan	-10240
▁boil	-10241
▁bond	-10242
▁boot	-10243
▁bout	-10244
▁brut	-10245
▁bugs	-10246
▁bund	-10247
▁burg	-10248
▁cake	-10249
▁carm	-10250
▁chen	-10251
▁conj	-10252
▁cork	-10253
▁cozy	-10254
▁cure	-10255
▁dann	-10256
▁dens	-10257
▁dick	-10258
▁dogs	-10259
▁dose	-10260
▁duis	-10261
▁echt	-10262
▁ecos	-10263
▁elys	-10264
▁emas	-10265
▁este	-10266
▁evil	-10267
▁evol	-10268
▁fame	-10269
▁feas	-10270
▁flav	-10271
▁foam	-10272
▁fool	-10273
▁gatt	-10274
▁geno	-10275
▁gerv	-10276
▁glob	-10277
▁glow	-10278
▁graz	-10279
▁gren	-10280
▁grim	-10281
▁hakk	-10282
▁hans	-10283
▁hass	-10284
▁haug	-10285
▁hein	-10286
▁html	-10287
▁hyde	-10288
▁ihre	-10289
▁inev	-10290
▁jail	-10291
▁jews	-10292
▁josé	-10293
▁jump	-10294
▁karm	-10295
▁kilo	-10296
▁kirk	-10297
▁kite	-10298
▁kont	-10299
▁kult	-10300
▁leds	-10301
▁leid	-10302
▁lomb	-10303
▁medi	-10304
▁mins	-10305
▁mixt	-10306
▁mood	-10307
▁mpeg	-10308
▁nail	-10309
▁ngos	-10310
▁node	-10311
▁nose	-10312
▁nour	-10313
▁ober	-10314
▁odds	-10315
▁ours	-10316
▁palm	-10317
▁pave	-10318
▁pays	-10319
▁pear	-10320
▁penn	-10321
▁pets	-10322
▁pine	-10323
▁pity	-10324
▁plag	-10325
▁porn	-10326
▁prix	-10327
▁pull	-10328
▁pump	-10329
▁puzz	-10330
▁radi	-10331
▁ramp	-10332
▁rank	-10333
▁rehn	-10334
▁resc	-10335
▁ride	-10336
▁riou	-10337
▁rope	-10338
▁rush	-10339
▁saga	-10340
▁scar	-10341
▁scot	-10342
▁seam	-10343
▁semi	-10344
▁shin	-10345
▁shoe	-10346
▁shut	-10347
▁siem	-10348
▁sits	-10349
▁sofa	-10350
▁span	-10351
▁spec	-10352
▁sper	-10353
▁spin	-10354
▁stad	-10355
▁stal	-10356
▁suit	-10357
▁surg	-10358
▁synd	-10359
▁tact	-10360
▁tale	-10361
▁tent	-10362
▁tier	-10363
▁tram	-10364
▁trap	-10365
▁ugly	-10366
▁unch	-10367
▁urea	-10368
▁veto	-10369
▁vint	-10370
▁void	-10371
▁voor	-10372
▁ware	-10373
▁wasn	-10374
▁wird	-10375
▁zell	-10376
ackson	-10377
ailand	-10378
ainted	-10379
amount	-10380
atical	-10381
atings	-10382
baijan	-10383
carbon	-10384
center	-10385
cessor	-10386
cially	-10387
cience	-10388
config	-10389
course	-10390
cribed	-10391
culiar	-10392
eadily	-10393
elijke	-10394
enberg	-10395
engine	-10396
entive	-10397
enzano	-10398
ercial	-10399
estone	-10400
ethics	-10401
gences	-10402
hammad	-10403
houses	-10404
iables	-10405
iances	-10406
iating	-10407
icious	-10408
ignano	-10409
ionary	-10410
irchen	-10411
ischen	-10412
ispens	-10413
itique	-10414
itives	-10415
laimed	-10416
lounge	-10417
lywood	-10418
metics	-10419
modern	-10420
mology	-10421
ologna	-10422
omites	-10423
onesia	-10424
online	-10425
orship	-10426
osevic	-10427
otechn	-10428
quarie	-10429
raints	-10430
rakech	-10431
rators	-10432
rellas	-10433
retion	-10434
rillic	-10435
rition	-10436
riving	-10437
rolled	-10438
ropole	-10439
saving	-10440
schule	-10441
script	-10442
second	-10443
sector	-10444
server	-10445
shadow	-10446
skirts	-10447
solete	-10448
stuffs	-10449
terior	-10450
ulates	-10451
ulinha	-10452
umably	-10453
unting	-10454
urfing	-10455
useppe	-10456
verted	-10457
wicker	-10458
ziness	-10459
ärtner	-10460
▁.....	-10461
▁07:00	-10462
▁aband	-10463
▁abbas	-10464
▁abdul	-10465
▁accur	-10466
▁acrob	-10467
▁actor	-10468
▁affil	-10469
▁afore	-10470
▁alcoy	-10471
▁alias	-10472
▁alien	-10473
▁align	-10474
▁alpha	-10475
▁andes	-10476
▁angel	-10477
▁antif	-10478
▁arena	-10479
▁armed	-10480
▁artis	-10481
▁assur	-10482
▁audit	-10483
▁azure	-10484
▁backs	-10485
▁badly	-10486
▁bands	-10487
▁baths	-10488
▁bitte	-10489
▁blade	-10490
▁blair	-10491
▁boots	-10492
▁bossa	-10493
▁brave	-10494
▁bread	-10495
▁broke	-10496
▁brows	-10497
▁capit	-10498
▁carav	-10499
▁cater	-10500
▁chest	-10501
▁chose	-10502
▁citad	-10503
▁clone	-10504
▁crack	-10505
▁crush	-10506
▁cuban	-10507
▁dated	-10508
▁debut	-10509
▁denom	-10510
▁dense	-10511
▁deriv	-10512
▁deter	-10513
▁dhabi	-10514
▁digit	-10515
▁donor	-10516
▁dozen	-10517
▁drake	-10518
▁drops	-10519
▁durch	-10520
▁egnos	-10521
▁embry	-10522
▁empty	-10523
▁ended	-10524
▁enemy	-10525
▁erect	-10526
▁essen	-10527
▁evacu	-10528
▁excel	-10529
▁excur	-10530
▁faces	-10531
▁fears	-10532
▁fiber	-10533
▁fidel	-10534
▁fiest	-10535
▁fleet	-10536
▁foret	-10537
▁fosse	-10538
▁franz	-10539
▁fried	-10540
▁garda	-10541
▁gesch	-10542
▁girls	-10543
▁globe	-10544
▁grave	-10545
▁guess	-10546
▁haben	-10547
▁hague	-10548
▁haiti	-10549
▁hamas	-10550
▁haven	-10551
▁heter	-10552
▁holds	-10553
▁hyper	-10554
▁ignor	-10555
▁illum	-10556
▁incon	-10557
▁indef	-10558
▁inher	-10559
▁intra	-10560
▁irres	-10561
▁irrit	-10562
▁james	-10563
▁joyce	-10564
▁juice	-10565
▁junta	-10566
▁larch	-10567
▁linen	-10568
▁lithu	-10569
▁liver	-10570
▁loose	-10571
▁louis	-10572
▁loves	-10573
▁loyal	-10574
▁manor	-10575
▁meter	-10576
▁metro	-10577
▁midst	-10578
▁milan	-10579
▁mines	-10580
▁mitig	-10581
▁moral	-10582
▁mouth	-10583
▁moves	-10584
▁negri	-10585
▁nicer	-10586
▁ninth	-10587
▁notre	-10588
▁opens	-10589
▁orang	-10590
▁outer	-10591
▁overs	-10592
▁palma	-10593
▁panic	-10594
▁parte	-10595
▁pasta	-10596
▁patio	-10597
▁perce	-10598
▁persu	-10599
▁petri	-10600
▁pione	-10601
▁pitch	-10602
▁plast	-10603
▁plate	-10604
▁plaza	-10605
▁polio	-10606
▁popup	-10607
▁porto	-10608
▁proph	-10609
▁readm	-10610
▁rebel	-10611
▁recre	-10612
▁refra	-10613
▁relay	-10614
▁relie	-10615
▁remit	-10616
▁repud	-10617
▁rigor	-10618
▁roles	-10619
▁rosen	-10620
▁ruins	-10621
▁sadly	-10622
▁sanyo	-10623
▁sarge	-10624
▁saudi	-10625
▁schum	-10626
▁seize	-10627
▁seren	-10628
▁sexes	-10629
▁shoes	-10630
▁skill	-10631
▁slipp	-10632
▁snuff	-10633
▁socio	-10634
▁sorts	-10635
▁spiel	-10636
▁spoil	-10637
▁stamp	-10638
▁stein	-10639
▁stell	-10640
▁stove	-10641
▁stumb	-10642
▁subal	-10643
▁sudan	-10644
▁sulph	-10645
▁sunsh	-10646
▁swing	-10647
▁sword	-10648
▁tacis	-10649
▁tasty	-10650
▁tempt	-10651
▁theft	-10652
▁tiger	-10653
▁torre	-10654
▁toxic	-10655
▁tramp	-10656
▁trout	-10657
▁turns	-10658
▁tutor	-10659
▁tyres	-10660
▁tyrol	-10661
▁unaut	-10662
▁uncon	-10663
▁undes	-10664
▁unres	-10665
▁untap	-10666
▁vendo	-10667
▁vente	-10668
▁versa	-10669
▁ville	-10670
▁vocab	-10671
▁vocal	-10672
▁vouch	-10673
▁wages	-10674
▁wales	-10675
▁wavel	-10676
▁weigh	-10677
▁witch	-10678
▁woods	-10679
▁yemen	-10680
▁zones	-10681
athered	-10682
atories	-10683
century	-10684
confirm	-10685
defined	-10686
develop	-10687
ections	-10688
embered	-10689
growing	-10690
herence	-10691
idation	-10692
install	-10693
ittlere	-10694
marking	-10695
marquis	-10696
mendous	-10697
ocratic	-10698
olitano	-10699
ouraged	-10700
package	-10701
phalian	-10702
running	-10703
secuted	-10704
stalker	-10705
support	-10706
teilung	-10707
ustomed	-10708
utenant	-10709
western	-10710
▁absurd	-10711
▁acoust	-10712
▁afraid	-10713
▁aggreg	-10714
▁albach	-10715
▁allied	-10716
▁analog	-10717
▁anonym	-10718
▁appeal	-10719
▁arabia	-10720
▁archae	-10721
▁argued	-10722
▁athens	-10723
▁backed	-10724
▁backup	-10725
▁banana	-10726
▁banked	-10727
▁beaten	-10728
▁beside	-10729
▁bistro	-10730
▁boards	-10731
▁bottle	-10732
▁boulev	-10733
▁breast	-10734
▁castro	-10735
▁charts	-10736
▁cherry	-10737
▁chirac	-10738
▁chávez	-10739
▁circle	-10740
▁circus	-10741
▁clicks	-10742
▁comics	-10743
▁commod	-10744
▁conced	-10745
▁concur	-10746
▁convey	-10747
▁copies	-10748
▁courty	-10749
▁crowns	-10750
▁cycles	-10751
▁danube	-10752
▁darfur	-10753
▁davies	-10754
▁deeper	-10755
▁delays	-10756
▁denial	-10757
▁denies	-10758
▁devote	-10759
▁diamet	-10760
▁disney	-10761
▁divine	-10762
▁donors	-10763
▁duplic	-10764
▁eating	-10765
▁editor	-10766
▁enders	-10767
▁engage	-10768
▁enrich	-10769
▁enters	-10770
▁escape	-10771
▁ethics	-10772
▁exudes	-10773
▁fairly	-10774
▁festiv	-10775
▁filled	-10776
▁firing	-10777
▁fitted	-10778
▁flickr	-10779
▁floral	-10780
▁fluids	-10781
▁forums	-10782
▁foster	-10783
▁framed	-10784
▁fridge	-10785
▁galaxy	-10786
▁gamers	-10787
▁gaulle	-10788
▁geomet	-10789
▁gibert	-10790
▁harbor	-10791
▁hatred	-10792
▁header	-10793
▁housed	-10794
▁humane	-10795
▁humans	-10796
▁hunted	-10797
▁hypoth	-10798
▁können	-10799
▁laying	-10800
▁league	-10801
▁learnt	-10802
▁lining	-10803
▁lively	-10804
▁loader	-10805
▁makers	-10806
▁malaga	-10807
▁marché	-10808
▁marina	-10809
▁martin	-10810
▁mature	-10811
▁meadow	-10812
▁minors	-10813
▁missed	-10814
▁mongol	-10815
▁mortal	-10816
▁moulds	-10817
▁mozart	-10818
▁mugabe	-10819
▁multif	-10820
▁multim	-10821
▁murder	-10822
▁muscle	-10823
▁native	-10824
▁organs	-10825
▁outset	-10826
▁oxford	-10827
▁packed	-10828
▁padded	-10829
▁panels	-10830
▁pascal	-10831
▁paypal	-10832
▁permit	-10833
▁perpet	-10834
▁pierre	-10835
▁pixels	-10836
▁plains	-10837
▁planes	-10838
▁plates	-10839
▁poetry	-10840
▁posted	-10841
▁potter	-10842
▁prater	-10843
▁qualit	-10844
▁racing	-10845
▁random	-10846
▁rarely	-10847
▁ratify	-10848
▁rating	-10849
▁realiz	-10850
▁recept	-10851
▁refund	-10852
▁reggae	-10853
▁reiter	-10854
▁relief	-10855
▁remedy	-10856
▁rivers	-10857
▁ruling	-10858
▁safari	-10859
▁scored	-10860
▁senate	-10861
▁sheets	-10862
▁shocks	-10863
▁simult	-10864
▁slalom	-10865
▁snacks	-10866
▁solana	-10867
▁solemn	-10868
▁strain	-10869
▁strive	-10870
▁stroke	-10871
▁struck	-10872
▁subtle	-10873
▁suisse	-10874
▁suited	-10875
▁tailor	-10876
▁talked	-10877
▁tarifa	-10878
▁tavern	-10879
▁teleph	-10880
▁thinks	-10881
▁thread	-10882
▁ticket	-10883
▁toledo	-10884
▁tongue	-10885
▁traces	-10886
▁trados	-10887
▁traged	-10888
▁uncont	-10889
▁unsafe	-10890
▁unwind	-10891
▁upheld	-10892
▁weaken	-10893
▁weiter	-10894
▁wheels	-10895
▁wicked	-10896
▁widget	-10897
▁wieder	-10898
▁wilder	-10899
▁wizard	-10900
▁worker	-10901
▁worthy	-10902
▁writer	-10903
armstadt	-10904
chanting	-10905
cultural	-10906
eousness	-10907
equipped	-10908
inspired	-10909
iversity	-10910
mination	-10911
ogeneity	-10912
ographer	-10913
ologists	-10914
reaching	-10915
specific	-10916
▁abolish	-10917
▁accused	-10918
▁adverse	-10919
▁adviser	-10920
▁alcohol	-10921
▁algarve	-10922
▁algeria	-10923
▁amnesty	-10924
▁andreas	-10925
▁antibes	-10926
▁antique	-10927
▁assists	-10928
▁assumed	-10929
▁auction	-10930
▁avoided	-10931
▁bangkok	-10932
▁barcode	-10933
▁battery	-10934
▁beneath	-10935
▁bernard	-10936
▁billing	-10937
▁bioware	-10938
▁bologna	-10939
▁bombing	-10940
▁bonuses	-10941
▁borough	-10942
▁browser	-10943
▁busiest	-10944
▁careers	-10945
▁carpets	-10946
▁castell	-10947
▁catalog	-10948
▁categor	-10949
▁ceiling	-10950
▁chalets	-10951
▁chances	-10952
▁chaotic	-10953
▁chapter	-10954
▁chateau	-10955
▁cheaper	-10956
▁claimed	-10957
▁cleaner	-10958
▁clinics	-10959
▁coexist	-10960
▁compare	-10961
▁contend	-10962
▁convers	-10963
▁conveys	-10964
▁corbett	-10965
▁cordoba	-10966
▁cottage	-10967
▁counsel	-10968
▁credits	-10969
▁cypriot	-10970
▁daytime	-10971
▁decides	-10972
▁delayed	-10973
▁deleted	-10974
▁density	-10975
▁deplore	-10976
▁depreci	-10977
▁despair	-10978
▁discern	-10979
▁discrep	-10980
▁disrupt	-10981
▁dossier	-10982
▁dressed	-10983
▁dropped	-10984
▁dumping	-10985
▁elapsed	-10986
▁engaged	-10987
▁ensured	-10988
▁entries	-10989
▁entwick	-10990
▁episode	-10991
▁estonia	-10992
▁ethical	-10993
▁exacerb	-10994
▁excited	-10995
▁exclude	-10996
▁expects	-10997
▁exploit	-10998
▁faculty	-10999
▁failing	-11000
▁fastest	-11001
▁fathers	-11002
▁finnish	-11003
▁frontex	-11004
▁fucking	-11005
▁genetic	-11006
▁germans	-11007
▁gervais	-11008
▁glacier	-11009
▁glasgow	-11010
▁grammar	-11011
▁granite	-11012
▁grossly	-11013
▁guitars	-11014
▁handful	-11015
▁handles	-11016
▁hectare	-11017
▁heights	-11018
▁holders	-11019
▁holland	-11020
▁honesty	-11021
▁hormone	-11022
▁hussein	-11023
▁immobil	-11024
▁inaugur	-11025
▁insects	-11026
▁insofar	-11027
▁intoler	-11028
▁jackson	-11029
▁jacques	-11030
▁jacuzzi	-11031
▁kontakt	-11032
▁labeled	-11033
▁lebanon	-11034
▁leipzig	-11035
▁leopold	-11036
▁letting	-11037
▁lifting	-11038
▁lombard	-11039
▁longest	-11040
▁madeira	-11041
▁magical	-11042
▁manoeuv	-11043
▁mexican	-11044
▁midsole	-11045
▁mineral	-11046
▁minimal	-11047
▁modular	-11048
▁moments	-11049
▁mothers	-11050
▁motions	-11051
▁nearest	-11052
▁nicolas	-11053
▁nigeria	-11054
▁nowhere	-11055
▁olympic	-11056
▁origins	-11057
▁outline	-11058
▁outputs	-11059
▁painter	-11060
▁partial	-11061
▁pentium	-11062
▁persian	-11063
▁pillars	-11064
▁pledged	-11065
▁plugins	-11066
▁plunged	-11067
▁porsche	-11068
▁portion	-11069
▁posselt	-11070
▁posting	-11071
▁presupp	-11072
▁prolong	-11073
▁prostit	-11074
▁proving	-11075
▁pulling	-11076
▁putting	-11077
▁quicker	-11078
▁rapidly	-11079
▁ratings	-11080
▁reacted	-11081
▁readers	-11082
▁realize	-11083
▁rebuild	-11084
▁receipt	-11085
▁recruit	-11086
▁redress	-11087
▁reduces	-11088
▁refugee	-11089
▁rejects	-11090
▁relying	-11091
▁renewed	-11092
▁respons	-11093
▁revived	-11094
▁rolling	-11095
▁roofing	-11096
▁rubbish	-11097
▁scanner	-11098
▁scripts	-11099
▁scrutin	-11100
▁seattle	-11101
▁secular	-11102
▁seekers	-11103
▁serbian	-11104
▁simpler	-11105
▁solving	-11106
▁spatial	-11107
▁spirits	-11108
▁strauss	-11109
▁stretch	-11110
▁studios	-11111
▁suffers	-11112
▁supreme	-11113
▁surfing	-11114
▁swoboda	-11115
▁synergy	-11116
▁touched	-11117
▁touches	-11118
▁unicode	-11119
▁unified	-11120
▁valleys	-11121
▁viewing	-11122
▁virtues	-11123
▁visibly	-11124
▁visions	-11125
▁vitally	-11126
▁volumes	-11127
▁volunte	-11128
▁weakest	-11129
▁wealthy	-11130
▁winners	-11131
▁younger	-11132
▁zwicker	-11133
accession	-11134
aceutical	-11135
effective	-11136
expensive	-11137
ferencing	-11138
financing	-11139
mentation	-11140
ommission	-11141
operation	-11142
ructuring	-11143
▁academic	-11144
▁actively	-11145
▁adapting	-11146
▁adjusted	-11147
▁advances	-11148
▁allotted	-11149
▁ambience	-11150
▁answered	-11151
▁archives	-11152
▁armenian	-11153
▁arrested	-11154
▁arriving	-11155
▁assisted	-11156
▁attacked	-11157
▁avoiding	-11158
▁barbecue	-11159
▁belgrade	-11160
▁benjamin	-11161
▁biotechn	-11162
▁boasting	-11163
▁boutique	-11164
▁breaking	-11165
▁broadway	-11166
▁camiones	-11167
▁catching	-11168
▁catering	-11169
▁ceremony	-11170
▁chlorine	-11171
▁choosing	-11172
▁churches	-11173
▁classify	-11174
▁cleaning	-11175
▁climbing	-11176
▁colleges	-11177
▁colonial	-11178
▁columbia	-11179
▁combated	-11180
▁complied	-11181
▁compound	-11182
▁comprise	-11183
▁concerts	-11184
▁confirms	-11185
▁connects	-11186
▁consecut	-11187
▁creditor	-11188
▁critique	-11189
▁cyrillic	-11190
▁deadlock	-11191
▁defeated	-11192
▁defended	-11193
▁delicate	-11194
▁detected	-11195
▁develops	-11196
▁directed	-11197
▁dispatch	-11198
▁displays	-11199
▁dividing	-11200
▁dominion	-11201
▁downhill	-11202
▁dramatic	-11203
▁drawings	-11204
▁drilling	-11205
▁earnings	-11206
▁elevated	-11207
▁employer	-11208
▁emulinha	-11209
▁estimate	-11210
▁evaluate	-11211
▁explorer	-11212
▁exported	-11213
▁exterior	-11214
▁favorite	-11215
▁feasible	-11216
▁fighters	-11217
▁finishes	-11218
▁floating	-11219
▁flourish	-11220
▁focusing	-11221
▁fountain	-11222
▁freezing	-11223
▁genocide	-11224
▁giuseppe	-11225
▁handicap	-11226
▁handling	-11227
▁hannover	-11228
▁hardship	-11229
▁hectares	-11230
▁highland	-11231
▁hipoints	-11232
▁holdings	-11233
▁humanity	-11234
▁hydrogen	-11235
▁immunity	-11236
▁imperial	-11237
▁incoming	-11238
▁insights	-11239
▁insignia	-11240
▁intranet	-11241
▁invasion	-11242
▁invented	-11243
▁islamism	-11244
▁italians	-11245
▁knitting	-11246
▁landscap	-11247
▁licences	-11248
▁lifelong	-11249
▁malaysia	-11250
▁maturity	-11251
▁mentions	-11252
▁minimise	-11253
▁minimize	-11254
▁misunder	-11255
▁mittlere	-11256
▁moderate	-11257
▁moisture	-11258
▁mounting	-11259
▁observed	-11260
▁obsolete	-11261
▁occupied	-11262
▁oriented	-11263
▁outcomes	-11264
▁outdoors	-11265
▁overload	-11266
▁overwhel	-11267
▁panorama	-11268
▁patterns	-11269
▁peculiar	-11270
▁perspect	-11271
▁portable	-11272
▁portrait	-11273
▁preserve	-11274
▁probable	-11275
▁profiles	-11276
▁promised	-11277
▁prophecy	-11278
▁pursuant	-11279
▁quantity	-11280
▁railways	-11281
▁ratified	-11282
▁reckless	-11283
▁reconcil	-11284
▁reformed	-11285
▁releases	-11286
▁reliably	-11287
▁reserved	-11288
▁resigned	-11289
▁retained	-11290
▁romanian	-11291
▁russians	-11292
▁sakharov	-11293
▁salzburg	-11294
▁scanners	-11295
▁scanning	-11296
▁scholars	-11297
▁searches	-11298
▁securing	-11299
▁severity	-11300
▁shocking	-11301
▁simplify	-11302
▁smallest	-11303
▁smoothly	-11304
▁socially	-11305
▁squeezed	-11306
▁starship	-11307
▁steadily	-11308
▁steering	-11309
▁stopping	-11310
▁striving	-11311
▁studying	-11312
▁summoned	-11313
▁switched	-11314
▁switcher	-11315
▁sympathy	-11316
▁tackling	-11317
▁tailored	-11318
▁tanzania	-11319
▁tasteful	-11320
▁taxpayer	-11321
▁teaching	-11322
▁terrible	-11323
▁thailand	-11324
▁thematic	-11325
▁thoughts	-11326
▁threaten	-11327
▁tranquil	-11328
▁triangle	-11329
▁tyrolean	-11330
▁undermin	-11331
▁unspoilt	-11332
▁updating	-11333
▁vineyard	-11334
▁warcraft	-11335
▁warranty	-11336
▁watching	-11337
▁xenophob	-11338
ispensable	-11339
ordination	-11340
▁abandoned	-11341
▁advocates	-11342
▁allocated	-11343
▁alternate	-11344
▁ambitions	-11345
▁analysing	-11346
▁anonymous	-11347
▁answering	-11348
▁apologise	-11349
▁assessing	-11350
▁assisting	-11351
▁associate	-11352
▁attentive	-11353
▁attitudes	-11354
▁bathrobes	-11355
▁beginners	-11356
▁breakdown	-11357
▁calculate	-11358
▁cambridge	-11359
▁champagne	-11360
▁cleansing	-11361
▁coastline	-11362
▁colourful	-11363
▁companion	-11364
▁complaint	-11365
▁confusion	-11366
▁consulted	-11367
▁consuming	-11368
▁contacted	-11369
▁cosmetics	-11370
▁counterfe	-11371
▁countless	-11372
▁creditors	-11373
▁criterion	-11374
▁declining	-11375
▁decreased	-11376
▁deepening	-11377
▁detection	-11378
▁differing	-11379
▁directing	-11380
▁disappear	-11381
▁dolomites	-11382
▁earmarked	-11383
▁ecosystem	-11384
▁editorial	-11385
▁elearning	-11386
▁elevation	-11387
▁emotional	-11388
▁emphasize	-11389
▁encrypted	-11390
▁enjoyable	-11391
▁eradicate	-11392
▁euroscept	-11393
▁evaluated	-11394
▁examining	-11395
▁excavator	-11396
▁expecting	-11397
▁explained	-11398
▁exploring	-11399
▁expressly	-11400
▁factories	-11401
▁favourite	-11402
▁financing	-11403
▁formulate	-11404
▁fragments	-11405
▁francisco	-11406
▁fulfilled	-11407
▁galleries	-11408
▁gathering	-11409
▁harvested	-11410
▁humankind	-11411
▁inability	-11412
▁incentive	-11413
▁incidents	-11414
▁indonesia	-11415
▁initially	-11416
▁initiated	-11417
▁injection	-11418
▁installer	-11419
▁instantly	-11420
▁integrate	-11421
▁intensity	-11422
▁interfere	-11423
▁licensing	-11424
▁lithuania	-11425
▁lobbyists	-11426
▁logistics	-11427
▁macquarie	-11428
▁magazines	-11429
▁marrakech	-11430
▁mastering	-11431
▁matchwork	-11432
▁memorable	-11433
▁milosevic	-11434
▁moderates	-11435
▁narrative	-11436
▁negotiate	-11437
▁northwest	-11438
▁opponents	-11439
▁outskirts	-11440
▁overnight	-11441
▁partially	-11442
▁pipelines	-11443
▁platforms	-11444
▁poisoning	-11445
▁portrayed	-11446
▁pregnancy	-11447
▁prejudice	-11448
▁premature	-11449
▁prevented	-11450
▁privately	-11451
▁processor	-11452
▁readiness	-11453
▁realities	-11454
▁reclaimed	-11455
▁regulated	-11456
▁rejection	-11457
▁rendering	-11458
▁reservoir	-11459
▁resolving	-11460
▁responded	-11461
▁reviewing	-11462
▁rewarding	-11463
▁rheinland	-11464
▁sentences	-11465
▁sequences	-11466
▁simulator	-11467
▁slightest	-11468
▁spectacle	-11469
▁spiritual	-11470
▁starfleet	-11471
▁streaming	-11472
▁strengths	-11473
▁stretched	-11474
▁stringent	-11475
▁strongest	-11476
▁subscribe	-11477
▁successor	-11478
▁supplying	-11479
▁sustained	-11480
▁targeting	-11481
▁threshold	-11482
▁thrilling	-11483
▁transfers	-11484
▁traveller	-11485
▁typically	-11486
▁unanimous	-11487
▁untouched	-11488
▁unusually	-11489
▁utilities	-11490
▁vacancies	-11491
▁versatile	-11492
▁wallpaper	-11493
▁weakening	-11494
▁wordpress	-11495
legislators	-11496
▁accelerate	-11497
▁accomplish	-11498
▁accustomed	-11499
▁adaptation	-11500
▁addressing	-11501
▁aggressive	-11502
▁analytical	-11503
▁artificial	-11504
▁assumption	-11505
▁assurances	-11506
▁attempting	-11507
▁azerbaijan	-11508
▁basketball	-11509
▁biological	-11510
▁calculated	-11511
▁capacities	-11512
▁challenged	-11513
▁collateral	-11514
▁combatting	-11515
▁conception	-11516
▁configured	-11517
▁confirming	-11518
▁conscience	-11519
▁consisting	-11520
▁containers	-11521
▁controller	-11522
▁corrective	-11523
▁correspond	-11524
▁crossroads	-11525
▁currencies	-11526
▁derogation	-11527
▁describing	-11528
▁diagnostic	-11529
▁dictionary	-11530
▁dimensions	-11531
▁diplomatic	-11532
▁disability	-11533
▁distribute	-11534
▁downstream	-11535
▁elementary	-11536
▁enchanting	-11537
▁engagement	-11538
▁expressing	-11539
▁extremists	-11540
▁foreigners	-11541
▁formulated	-11542
▁furgonetas	-11543
▁generosity	-11544
▁harmonious	-11545
▁highlights	-11546
▁illiteracy	-11547
▁implements	-11548
▁inaccurate	-11549
▁indicators	-11550
▁influences	-11551
▁intentions	-11552
▁introduces	-11553
▁kilometers	-11554
▁lieutenant	-11555
▁linguistic	-11556
▁marvellous	-11557
▁memorandum	-11558
▁misleading	-11559
▁modulation	-11560
▁monumental	-11561
▁napolitano	-11562
▁negligence	-11563
▁networking	-11564
▁noticeable	-11565
▁objections	-11566
▁organising	-11567
▁paragraphs	-11568
▁pedestrian	-11569
▁percentage	-11570
▁potentials	-11571
▁powerpoint	-11572
▁presumably	-11573
▁productive	-11574
▁programmer	-11575
▁protective	-11576
▁psychology	-11577
▁purchasers	-11578
▁reciprocal	-11579
▁recommends	-11580
▁recreation	-11581
▁referenced	-11582
▁reflection	-11583
▁reinforced	-11584
▁relocation	-11585
▁remembered	-11586
▁repression	-11587
▁responding	-11588
▁roundabout	-11589
▁sanitation	-11590
▁scandalous	-11591
▁scientists	-11592
▁securities	-11593
▁separately	-11594
▁separation	-11595
▁simplicity	-11596
▁speedlight	-11597
▁submission	-11598
▁submitting	-11599
▁supposedly	-11600
▁suspension	-11601
▁synonymous	-11602
▁thoroughly	-11603
▁tremendous	-11604
▁unresolved	-11605
▁vertically	-11606
▁vigorously	-11607
▁vocabulary	-11608
▁vocational	-11609
▁washington	-11610
▁accelerates	-11611
▁accommodate	-11612
▁acquisition	-11613
▁assessments	-11614
▁battlefield	-11615
▁centralised	-11616
▁comfortably	-11617
▁compromised	-11618
▁conditional	-11619
▁contractors	-11620
▁contributes	-11621
▁controlling	-11622
▁cornerstone	-11623
▁correctness	-11624
▁demographic	-11625
▁devastating	-11626
▁directories	-11627
▁discouraged	-11628
▁discovering	-11629
▁divergences	-11630
▁efficiently	-11631
▁enthusiasts	-11632
▁exhibitions	-11633
▁expectation	-11634
▁explanatory	-11635
▁gastronomic	-11636
▁genetically	-11637
▁instructors	-11638
▁negotiating	-11639
▁permanently	-11640
▁personalize	-11641
▁potentially	-11642
▁precautions	-11643
▁predictable	-11644
▁preferences	-11645
▁preparatory	-11646
▁promotional	-11647
▁provisional	-11648
▁readmission	-11649
▁researchers	-11650
▁residential	-11651
▁sensational	-11652
▁sightseeing	-11653
▁specialised	-11654
▁specialties	-11655
▁supermarket	-11656
▁technically	-11657
▁termination	-11658
▁territories	-11659
▁testimonies	-11660
▁threatening	-11661
▁transformed	-11662
▁transmitted	-11663
▁underground	-11664
▁unfortunate	-11665
▁unregulated	-11666
▁vaccination	-11667
▁voluntarily	-11668
▁westphalian	-11669
▁windsurfing	-11670
▁accomodation	-11671
▁announcement	-11672
▁benchmarking	-11673
▁calculations	-11674
▁catastrophic	-11675
▁championship	-11676
▁civilisation	-11677
▁competitions	-11678
▁conciliation	-11679
▁conferencing	-11680
▁connectivity	-11681
▁considerably	-11682
▁coordinating	-11683
▁demonstrates	-11684
▁depreciation	-11685
▁distributing	-11686
▁entertaining	-11687
▁enthusiastic	-11688
▁geopolitical	-11689
▁illustration	-11690
▁implications	-11691
▁impoverished	-11692
▁informations	-11693
▁interactions	-11694
▁irrespective	-11695
▁jurisdiction	-11696
▁multilingual	-11697
▁neighborhood	-11698
▁notification	-11699
▁occupational	-11700
▁optimization	-11701
▁participates	-11702
▁peacekeeping	-11703
▁personalized	-11704
▁philosophers	-11705
▁photographer	-11706
▁preventative	-11707
▁prostitution	-11708
▁ratification	-11709
▁traceability	-11710
discriminatory	-11711
▁authorisation	-11712
▁authoritarian	-11713
▁authorization	-11714
▁biotechnology	-11715
▁championships	-11716
▁characterised	-11717
▁characterized	-11718
▁congratulated	-11719
▁consciousness	-11720
▁dictatorships	-11721
▁disappointing	-11722
▁distinguished	-11723
▁distributions	-11724
▁exceptionally	-11725
▁harmonization	-11726
▁indispensable	-11727
▁intercultural	-11728
▁modernisation	-11729
▁modernization	-11730
▁notifications	-11731
▁participating	-11732
▁predominantly	-11733
▁psychological	-11734
▁restructuring	-11735
▁righteousness	-11736
▁sophisticated	-11737
▁substantially	-11738
▁unequivocally	-11739
▁accountability	-11740
▁advertisements	-11741
▁aforementioned	-11742
▁comprehensible	-11743
▁industrialized	-11744
▁investigations	-11745
▁irregularities	-11746
▁municipalities	-11747
▁pharmaceutical	-11748
▁simultaneously	-11749
▁transformation	-11750
▁understandable	-11751
▁virtualization	-11752
▁confidentiality	-11753
▁democratisation	-11754
▁diversification	-11755
▁implementations	-11756
▁standardisation	-11757
,4	-11758
-3	-11759
-6	-11760
-7	-11761
/7	-11762
/€	-11763
02	-11764
24	-11765
41	-11766
42	-11767
52	-11768
54	-11769
6/	-11770
62	-11771
64	-11772
66	-11773
73	-11774
78	-11775
cz	-11776
dn	-11777
ei	-11778
ew	-11779
ey	-11780
fu	-11781
fü	-11782
gp	-11783
hl	-11784
ho	-11785
hy	-11786
iu	-11787
kl	-11788
ká	-11789
kö	-11790
lc	-11791
lj	-11792
mt	-11793
my	-11794
nn	-11795
nr	-11796
rc	-11797
rh	-11798
rw	-11799
pn	-11800
sd	-11801
td	-11802
vá	-11803
vé	-11804
wo	-11805
wr	-11806
yt	-11807
zf	-11808
zh	-11809
zo	-11810
zé	-11811
áj	-11812
ém	-11813
ín	-11814
öf	-11815
ün	-11816
ан	-11817
ва	-11818
ем	-11819
ио	-11820
мо	-11821
се	-11822
▁ä	-11823
▁т	-11824
,40	-11825
-19	-11826
-80	-11827
240	-11828
adm	-11829
aes	-11830
aid	-11831
alk	-11832
alo	-11833
ams	-11834
arc	-11835
arz	-11836
ati	-11837
atu	-11838
beh	-11839
bic	-11840
bid	-11841
bly	-11842
bri	-11843
bro	-11844
btv	-11845
cae	-11846
cam	-11847
cca	-11848
cha	-11849
chl	-11850
cie	-11851
cip	-11852
cir	-11853
cky	-11854
cow	-11855
ctu	-11856
cus	-11857
dal	-11858
dec	-11859
dew	-11860
dia	-11861
dis	-11862
doc	-11863
ean	-11864
eda	-11865
een	-11866
elh	-11867
eln	-11868
emy	-11869
esw	-11870
etc	-11871
eus	-11872
fam	-11873
flo	-11874
fts	-11875
gap	-11876
grü	-11877
hon	-11878
hov	-11879
iam	-11880
idu	-11881
iev	-11882
igi	-11883
igu	-11884
ija	-11885
ijn	-11886
ilm	-11887
ils	-11888
inj	-11889
iom	-11890
iza	-11891
jor	-11892
jst	-11893
jub	-11894
kam	-11895
kel	-11896
kez	-11897
kon	-11898
kow	-11899
cco	-11900
dev	-11901
kur	-11902
lar	-11903
lee	-11904
lei	-11905
lif	-11906
lik	-11907
lit	-11908
liz	-11909
lon	-11910
lot	-11911
lés	-11912
mal	-11913
mid	-11914
mma	-11915
mot	-11916
mps	-11917
nia	-11918
oen	-11919
oin	-11920
oks	-11921
olk	-11922
olá	-11923
osa	-11924
osc	-11925
ota	-11926
oty	-11927
ová	-11928
owo	-11929
pag	-11930
ped	-11931
pic	-11932
pop	-11933
rag	-11934
rar	-11935
rat	-11936
rav	-11937
rou	-11938
rud	-11939
rus	-11940
sam	-11941
sha	-11942
sol	-11943
sor	-11944
sso	-11945
stü	-11946
tab	-11947
tam	-11948
tek	-11949
tel	-11950
tou	-11951
try	-11952
tsc	-11953
tze	-11954
uan	-11955
udo	-11956
uds	-11957
ueg	-11958
ull	-11959
unk	-11960
uro	-11961
urt	-11962
uru	-11963
usr	-11964
uto	-11965
utz	-11966
van	-11967
vin	-11968
vol	-11969
wal	-11970
wel	-11971
www	-11972
yen	-11973
yll	-11974
yth	-11975
zes	-11976
zia	-11977
zin	-11978
zow	-11979
zwe	-11980
óre	-11981
öst	-11982
ате	-11983
мер	-11984
ове	-11985
▁.-	-11986
▁47	-11987
▁5,	-11988
▁ae	-11989
▁cz	-11990
▁dc	-11991
▁dg	-11992
▁fj	-11993
▁gd	-11994
▁gx	-11995
▁hm	-11996
▁ia	-11997
▁ix	-11998
▁jd	-11999
auf	-12000
▁39	-12001
▁já	-12002
▁kh	-12003
▁lü	-12004
▁mq	-12005
▁né	-12006
▁oh	-12007
▁pp	-12008
▁sb	-12009
▁sd	-12010
▁sq	-12011
▁tu	-12012
▁uz	-12013
▁vs	-12014
▁ww	-12015
▁xp	-12016
▁zw	-12017
▁не	-12018
-757	-12019
.06.	-12020
/199	-12021
aare	-12022
abas	-12023
acts	-12024
adol	-12025
ador	-12026
agau	-12027
agel	-12028
agon	-12029
alak	-12030
alry	-12031
aman	-12032
anac	-12033
anie	-12034
anol	-12035
anta	-12036
antm	-12037
apat	-12038
aray	-12039
area	-12040
arel	-12041
aret	-12042
aris	-12043
arkx	-12044
aros	-12045
arse	-12046
asan	-12047
asis	-12048
asti	-12049
astr	-12050
atis	-12051
aton	-12052
auer	-12053
auge	-12054
aupt	-12055
aved	-12056
awak	-12057
ayer	-12058
badi	-12059
bass	-12060
bber	-12061
bill	-12062
blow	-12063
cany	-12064
cert	-12065
ched	-12066
cher	-12067
cier	-12068
cile	-12069
cine	-12070
city	-12071
cive	-12072
cken	-12073
clos	-12074
coni	-12075
cost	-12076
cues	-12077
deal	-12078
dish	-12079
eart	-12080
edge	-12081
elan	-12082
elen	-12083
ello	-12084
ellt	-12085
emic	-12086
enas	-12087
enon	-12088
enos	-12089
enro	-12090
enst	-12091
eppe	-12092
erey	-12093
ermo	-12094
erna	-12095
esso	-12096
esto	-12097
eted	-12098
etto	-12099
-90	-12100
95.	-12101
cov	-12102
dez	-12103
iki	-12104
ovi	-12105
пот	-12106
,700	-12107
arov	-12108
boot	-12109
chte	-12110
chts	-12111
eval	-12112
fice	-12113
fire	-12114
furn	-12115
gage	-12116
gang	-12117
geld	-12118
geme	-12119
gets	-12120
gien	-12121
gone	-12122
grad	-12123
hall	-12124
halt	-12125
holz	-12126
hors	-12127
host	-12128
iale	-12129
icef	-12130
icks	-12131
idal	-12132
idoo	-12133
idos	-12134
iebr	-12135
iety	-12136
ieza	-12137
ilee	-12138
inar	-12139
inis	-12140
init	-12141
inke	-12142
inna	-12143
ipse	-12144
irus	-12145
ismo	-12146
item	-12147
itis	-12148
ität	-12149
izia	-12150
jour	-12151
kaja	-12152
kars	-12153
keit	-12154
kesp	-12155
kies	-12156
laus	-12157
ldom	-12158
lica	-12159
litz	-12160
loch	-12161
lope	-12162
loqu	-12163
lord	-12164
loss	-12165
lush	-12166
mare	-12167
mate	-12168
menu	-12169
mers	-12170
mmer	-12171
mund	-12172
nate	-12173
neum	-12174
odal	-12175
odor	-12176
olar	-12177
olly	-12178
omag	-12179
oman	-12180
ondo	-12181
onie	-12182
onik	-12183
only	-12184
ormu	-12185
orph	-12186
orto	-12187
osat	-12188
oses	-12189
oslo	-12190
ottn	-12191
ourg	-12192
ouri	-12193
ouve	-12194
ovan	-12195
pere	-12196
pers	-12197
pire	-12198
pone	-12199
bib	-12200
ijs	-12201
lts	-12202
obo	-12203
ynn	-12204
▁41	-12205
▁43	-12206
▁49	-12207
▁xv	-12208
airy	-12209
html	-12210
ibas	-12211
ibus	-12212
komm	-12213
link	-12214
ltsp	-12215
obot	-12216
phil	-12217
pons	-12218
quer	-12219
rach	-12220
rale	-12221
rams	-12222
rass	-12223
reet	-12224
rend	-12225
reou	-12226
rera	-12227
rets	-12228
riad	-12229
rick	-12230
rium	-12231
rive	-12232
root	-12233
rous	-12234
scan	-12235
seas	-12236
seat	-12237
sell	-12238
sial	-12239
sson	-12240
stat	-12241
stre	-12242
stro	-12243
stru	-12244
teau	-12245
that	-12246
thon	-12247
tics	-12248
tour	-12249
turn	-12250
uber	-12251
ubsc	-12252
udia	-12253
ulpt	-12254
ulse	-12255
umbo	-12256
umpe	-12257
umpt	-12258
unas	-12259
uned	-12260
unge	-12261
unit	-12262
urai	-12263
uria	-12264
urop	-12265
utat	-12266
wage	-12267
wert	-12268
xual	-12269
yard	-12270
ynth	-12271
ysis	-12272
éric	-12273
ínez	-12274
авто	-12275
меро	-12276
ненн	-12277
▁0.0	-12278
▁1.0	-12279
▁108	-12280
▁118	-12281
▁128	-12282
▁135	-12283
▁14-	-12284
▁147	-12285
▁15-	-12286
▁167	-12287
▁2.1	-12288
▁230	-12289
▁240	-12290
▁3.9	-12291
▁360	-12292
▁4.2	-12293
▁4.5	-12294
▁474	-12295
▁60-	-12296
▁abc	-12297
▁ado	-12298
▁amd	-12299
-10	-12300
.11	-12301
cía	-12302
dsm	-12303
kyo	-12304
▁zo	-12305
anne	-12306
kara	-12307
lese	-12308
offs	-12309
onds	-12310
▁112	-12311
▁213	-12312
▁224	-12313
▁ard	-12314
▁ari	-12315
▁ark	-12316
▁arl	-12317
▁arn	-12318
▁asy	-12319
▁atl	-12320
▁atr	-12321
▁avi	-12322
▁bak	-12323
▁bam	-12324
▁bez	-12325
▁bic	-12326
▁bis	-12327
▁biz	-12328
▁bov	-12329
▁bow	-12330
▁boy	-12331
▁cad	-12332
▁cau	-12333
▁cel	-12334
▁cem	-12335
▁cen	-12336
▁cia	-12337
▁cig	-12338
▁cns	-12339
▁coc	-12340
▁cow	-12341
▁crb	-12342
▁crm	-12343
▁cyn	-12344
▁dab	-12345
▁dit	-12346
▁dns	-12347
▁dre	-12348
▁dsm	-12349
▁dus	-12350
▁eds	-12351
▁eos	-12352
▁eul	-12353
▁eve	-12354
▁faz	-12355
▁fic	-12356
▁fis	-12357
▁flv	-12358
▁fus	-12359
▁gab	-12360
▁gfe	-12361
▁guj	-12362
▁haw	-12363
▁hob	-12364
▁hoc	-12365
▁hut	-12366
▁ifs	-12367
▁iis	-12368
▁ile	-12369
▁irr	-12370
▁jon	-12371
▁jup	-12372
▁kad	-12373
▁kay	-12374
▁kid	-12375
▁kom	-12376
▁kra	-12377
▁kre	-12378
▁kum	-12379
▁kyi	-12380
▁lan	-12381
▁lee	-12382
▁lfa	-12383
▁lip	-12384
▁lor	-12385
▁lts	-12386
▁lub	-12387
▁lul	-12388
▁lun	-12389
▁lup	-12390
▁mck	-12391
▁mgb	-12392
▁mie	-12393
▁mik	-12394
▁mim	-12395
▁mmv	-12396
▁mog	-12397
▁moo	-12398
▁mop	-12399
351	-12400
▁83	-12401
fits	-12402
nero	-12403
ucks	-12404
▁ety	-12405
▁lhe	-12406
▁mou	-12407
▁mud	-12408
▁nec	-12409
▁ner	-12410
▁nev	-12411
▁nit	-12412
▁ntp	-12413
▁nud	-12414
▁nue	-12415
▁oet	-12416
▁ole	-12417
▁omb	-12418
▁opa	-12419
▁ost	-12420
▁pcs	-12421
▁pes	-12422
▁phr	-12423
▁pia	-12424
▁piv	-12425
▁pla	-12426
▁plv	-12427
▁pnr	-12428
▁prg	-12429
▁quo	-12430
▁rak	-12431
▁rgb	-12432
▁ric	-12433
▁rin	-12434
▁rio	-12435
▁rit	-12436
▁ron	-12437
▁roo	-12438
▁rug	-12439
▁sag	-12440
▁sas	-12441
▁seg	-12442
▁sei	-12443
▁ses	-12444
▁sig	-12445
▁sir	-12446
▁sms	-12447
▁sna	-12448
▁sne	-12449
▁spy	-12450
▁suu	-12451
▁suz	-12452
▁tah	-12453
▁tav	-12454
▁tcp	-12455
▁tex	-12456
▁til	-12457
▁tom	-12458
▁tui	-12459
▁uli	-12460
▁umb	-12461
▁ung	-12462
▁upp	-12463
▁ups	-12464
▁upt	-12465
▁uss	-12466
▁utc	-12467
▁wad	-12468
▁wil	-12469
▁wra	-12470
▁wur	-12471
▁yen	-12472
▁zak	-12473
▁zim	-12474
▁zip	-12475
-2008	-12476
.2009	-12477
/2000	-12478
/2004	-12479
achau	-12480
acity	-12481
acted	-12482
activ	-12483
adata	-12484
afric	-12485
agent	-12486
agger	-12487
alore	-12488
alpes	-12489
ament	-12490
anden	-12491
andra	-12492
anile	-12493
antes	-12494
antle	-12495
arely	-12496
arist	-12497
arius	-12498
asher	-12499
hai	-12500
joh	-12501
yss	-12502
-100	-12503
axos	-12504
loyd	-12505
marg	-12506
naut	-12507
pran	-12508
rays	-12509
▁els	-12510
▁esa	-12511
▁oss	-12512
▁rss	-12513
arett	-12514
assed	-12515
asted	-12516
asure	-12517
atant	-12518
atico	-12519
atori	-12520
atous	-12521
atter	-12522
attol	-12523
audio	-12524
ayuno	-12525
beral	-12526
beria	-12527
books	-12528
boxes	-12529
burgr	-12530
cache	-12531
child	-12532
chnik	-12533
chten	-12534
ciano	-12535
compl	-12536
denne	-12537
dered	-12538
emian	-12539
endum	-12540
enses	-12541
entes	-12542
entor	-12543
erman	-12544
ernal	-12545
erner	-12546
erral	-12547
erred	-12548
esity	-12549
essen	-12550
ested	-12551
estro	-12552
eswax	-12553
etian	-12554
etics	-12555
every	-12556
fices	-12557
forms	-12558
fting	-12559
garet	-12560
gesch	-12561
green	-12562
heral	-12563
hered	-12564
huela	-12565
ibles	-12566
icate	-12567
icism	-12568
iders	-12569
iente	-12570
ierte	-12571
igans	-12572
igung	-12573
ilant	-12574
ildon	-12575
ilian	-12576
illon	-12577
inded	-12578
inent	-12579
influ	-12580
ingee	-12581
intel	-12582
iptic	-12583
irate	-12584
irona	-12585
isman	-12586
isted	-12587
istor	-12588
itate	-12589
itech	-12590
itian	-12591
itism	-12592
jakob	-12593
jublj	-12594
leans	-12595
legen	-12596
lical	-12597
llers	-12598
menta	-12599
ggi	-12600
psy	-12601
▁81	-12602
▁93	-12603
▁95	-12604
5.00	-12605
asco	-12606
ccer	-12607
coal	-12608
heit	-12609
mbps	-12610
oque	-12611
rett	-12612
rops	-12613
zung	-12614
▁365	-12615
▁bnp	-12616
▁url	-12617
▁vec	-12618
▁про	-12619
bling	-12620
close	-12621
ctify	-12622
elson	-12623
geons	-12624
ginia	-12625
ianco	-12626
ieged	-12627
initi	-12628
lique	-12629
mming	-12630
nberg	-12631
nival	-12632
ntine	-12633
ocent	-12634
odied	-12635
oggan	-12636
okina	-12637
oland	-12638
olese	-12639
oleum	-12640
omach	-12641
omass	-12642
omphe	-12643
onate	-12644
onaut	-12645
opart	-12646
ophys	-12647
opoly	-12648
orfer	-12649
orith	-12650
orman	-12651
orsed	-12652
osive	-12653
othar	-12654
ounce	-12655
ousin	-12656
overs	-12657
ponib	-12658
porto	-12659
pract	-12660
ption	-12661
retto	-12662
rians	-12663
ricot	-12664
ridge	-12665
ridor	-12666
ritur	-12667
romed	-12668
roots	-12669
sarge	-12670
scanf	-12671
shirt	-12672
sider	-12673
sound	-12674
speak	-12675
start	-12676
steps	-12677
sters	-12678
story	-12679
tains	-12680
tenna	-12681
there	-12682
think	-12683
toine	-12684
ubert	-12685
ueber	-12686
ungal	-12687
uning	-12688
uries	-12689
urnau	-12690
urred	-12691
usive	-12692
utaci	-12693
utive	-12694
vency	-12695
venna	-12696
works	-12697
zilla	-12698
▁10.2	-12699
awa	-12700
bye	-12701
iko	-12702
prk	-12703
▁xx	-12704
▁ра	-12705
acio	-12706
beck	-12707
falz	-12708
folk	-12709
gowo	-12710
prit	-12711
reux	-12712
▁122	-12713
▁12:	-12714
▁186	-12715
▁187	-12716
▁420	-12717
▁aux	-12718
▁baf	-12719
▁tux	-12720
anmar	-12721
anned	-12722
annie	-12723
chnya	-12724
emsee	-12725
issue	-12726
otype	-12727
pfalz	-12728
▁1200	-12729
▁1500	-12730
▁1929	-12731
▁1936	-12732
▁1939	-12733
▁1945	-12734
▁1957	-12735
▁1958	-12736
▁1965	-12737
▁1968	-12738
▁1971	-12739
▁2013	-12740
▁2050	-12741
▁2375	-12742
▁9.00	-12743
▁abas	-12744
▁alde	-12745
▁alge	-12746
▁alla	-12747
▁asks	-12748
▁assc	-12749
▁atal	-12750
▁atom	-12751
▁bald	-12752
▁bays	-12753
▁beau	-12754
▁bege	-12755
▁beim	-12756
▁beit	-12757
▁benz	-12758
▁bett	-12759
▁bgin	-12760
▁bits	-12761
▁blah	-12762
▁blak	-12763
▁bona	-12764
▁bone	-12765
▁bour	-12766
▁boys	-12767
▁bres	-12768
▁brig	-12769
▁bulk	-12770
▁bury	-12771
▁bust	-12772
▁cabs	-12773
▁cany	-12774
▁cape	-12775
▁carl	-12776
▁caro	-12777
▁casc	-12778
▁cate	-12779
▁caut	-12780
▁cess	-12781
▁chad	-12782
▁chef	-12783
▁chic	-12784
▁chim	-12785
▁chlo	-12786
▁cite	-12787
▁clas	-12788
▁clay	-12789
▁clim	-12790
▁como	-12791
▁corn	-12792
▁cors	-12793
▁cots	-12794
▁cout	-12795
▁crib	-12796
▁cube	-12797
▁cuen	-12798
▁curt	-12799
efe	-12800
.1.1	-12801
fund	-12802
lims	-12803
look	-12804
maps	-12805
otti	-12806
paid	-12807
rhof	-12808
▁2.9	-12809
▁epa	-12810
▁uma	-12811
apses	-12812
black	-12813
emade	-12814
etime	-12815
gnome	-12816
pello	-12817
stery	-12818
▁1400	-12819
▁audy	-12820
▁biod	-12821
▁birm	-12822
▁cdis	-12823
▁cute	-12824
▁damp	-12825
▁dane	-12826
▁dart	-12827
▁deaf	-12828
▁deed	-12829
▁deer	-12830
▁dish	-12831
▁doha	-12832
▁dort	-12833
▁doss	-12834
▁drac	-12835
▁dres	-12836
▁dual	-12837
▁ecot	-12838
▁emig	-12839
▁emil	-12840
▁emph	-12841
▁enve	-12842
▁epid	-12843
▁erre	-12844
▁espa	-12845
▁está	-12846
▁etna	-12847
▁euph	-12848
▁ewes	-12849
▁expe	-12850
▁expo	-12851
▁fait	-12852
▁fava	-12853
▁fern	-12854
▁fert	-12855
▁fins	-12856
▁flag	-12857
▁flor	-12858
▁fork	-12859
▁frib	-12860
▁fric	-12861
▁fuck	-12862
▁geen	-12863
▁geme	-12864
▁gend	-12865
▁gene	-12866
▁geor	-12867
▁gill	-12868
▁gior	-12869
▁girl	-12870
▁gond	-12871
▁gore	-12872
▁grab	-12873
▁grad	-12874
▁göte	-12875
▁hail	-12876
▁hang	-12877
▁hate	-12878
▁hats	-12879
▁haus	-12880
▁haut	-12881
▁heed	-12882
▁hell	-12883
▁herm	-12884
▁hero	-12885
▁hide	-12886
▁hind	-12887
▁hint	-12888
▁hits	-12889
▁hive	-12890
▁holt	-12891
▁holz	-12892
▁hood	-12893
▁hool	-12894
▁hose	-12895
▁hype	-12896
▁immo	-12897
▁impe	-12898
▁impl	-12899
.35	-12900
efs	-12901
2/98	-12902
hots	-12903
laim	-12904
ndre	-12905
omla	-12906
orno	-12907
▁255	-12908
▁256	-12909
▁bij	-12910
▁odd	-12911
▁tvs	-12912
ammar	-12913
ramid	-12914
▁11.0	-12915
▁diab	-12916
▁inca	-12917
▁indu	-12918
▁intu	-12919
▁invo	-12920
▁ipod	-12921
▁jpeg	-12922
▁jung	-12923
▁kauf	-12924
▁keil	-12925
▁kerr	-12926
▁kill	-12927
▁kinn	-12928
▁komi	-12929
▁kost	-12930
▁krem	-12931
▁lact	-12932
▁lago	-12933
▁lean	-12934
▁lend	-12935
▁lent	-12936
▁levy	-12937
▁lind	-12938
▁lite	-12939
▁loft	-12940
▁logs	-12941
▁lors	-12942
▁lueg	-12943
▁lune	-12944
▁maar	-12945
▁malf	-12946
▁mall	-12947
▁mars	-12948
▁marx	-12949
▁mask	-12950
▁maso	-12951
▁mice	-12952
▁milo	-12953
▁mitt	-12954
▁morg	-12955
▁moug	-12956
▁mund	-12957
▁naut	-12958
▁navy	-12959
▁neck	-12960
▁nego	-12961
▁nerv	-12962
▁nets	-12963
▁neue	-12964
▁niet	-12965
▁nigh	-12966
▁noch	-12967
▁norr	-12968
▁nost	-12969
▁oecd	-12970
▁olig	-12971
▁oman	-12972
▁outd	-12973
▁outs	-12974
▁pago	-12975
▁pand	-12976
▁pane	-12977
▁pard	-12978
▁peer	-12979
▁pend	-12980
▁pero	-12981
▁pfer	-12982
▁pied	-12983
▁piet	-12984
▁ping	-12985
▁pino	-12986
▁pisc	-12987
▁poem	-12988
▁pole	-12989
▁pope	-12990
▁prey	-12991
▁raab	-12992
▁rage	-12993
▁raid	-12994
▁rela	-12995
▁rend	-12996
▁resp	-12997
▁reun	-12998
▁riad	-12999
drop	-13000
edta	-13001
gmbh	-13002
pump	-13003
tino	-13004
äser	-13005
▁215	-13006
ckets	-13007
glied	-13008
olino	-13009
rafts	-13010
uxbox	-13011
▁1983	-13012
▁1986	-13013
▁bwin	-13014
▁digi	-13015
▁divx	-13016
▁hike	-13017
▁merc	-13018
▁rica	-13019
▁rice	-13020
▁risi	-13021
▁rist	-13022
▁roth	-13023
▁ruff	-13024
▁rust	-13025
▁ruth	-13026
▁saas	-13027
▁schn	-13028
▁schö	-13029
▁seal	-13030
▁seca	-13031
▁semp	-13032
▁sexy	-13033
▁shed	-13034
▁sien	-13035
▁silk	-13036
▁sind	-13037
▁sink	-13038
▁sire	-13039
▁sixt	-13040
▁skim	-13041
▁skip	-13042
▁slat	-13043
▁slid	-13044
▁slip	-13045
▁slot	-13046
▁smok	-13047
▁smtp	-13048
▁sont	-13049
▁sous	-13050
▁spar	-13051
▁spas	-13052
▁spor	-13053
▁stan	-13054
▁stef	-13055
▁stem	-13056
▁ster	-13057
▁stig	-13058
▁styl	-13059
▁suic	-13060
▁sunb	-13061
▁swan	-13062
▁tank	-13063
▁tape	-13064
▁tehr	-13065
▁teil	-13066
▁tert	-13067
▁tian	-13068
▁tick	-13069
▁tide	-13070
▁tied	-13071
▁tits	-13072
▁tone	-13073
▁tony	-13074
▁tops	-13075
▁tort	-13076
▁toys	-13077
▁tube	-13078
▁turb	-13079
▁ubic	-13080
▁uitz	-13081
▁unco	-13082
▁undo	-13083
▁unha	-13084
▁unhe	-13085
▁unil	-13086
▁unix	-13087
▁urls	-13088
▁uter	-13089
▁veel	-13090
▁verb	-13091
▁vere	-13092
▁viet	-13093
▁vise	-13094
▁voiv	-13095
▁volt	-13096
▁wang	-13097
▁welt	-13098
▁wenn	-13099
-14	-13100
.14	-13101
hola	-13102
tica	-13103
▁icc	-13104
▁icy	-13105
▁mcd	-13106
▁mmt	-13107
▁més	-13108
ariat	-13109
ascar	-13110
burgh	-13111
uchen	-13112
▁14-1	-13113
▁jdbc	-13114
▁lama	-13115
▁lamb	-13116
▁migr	-13117
▁mole	-13118
▁wing	-13119
▁wink	-13120
▁wins	-13121
▁witt	-13122
▁wool	-13123
▁worn	-13124
▁yang	-13125
▁zend	-13126
▁zent	-13127
▁zerm	-13128
▁zijn	-13129
▁мате	-13130
50,000	-13131
aceans	-13132
adores	-13133
ambios	-13134
aneous	-13135
angers	-13136
anians	-13137
apable	-13138
aratus	-13139
arious	-13140
arking	-13141
attini	-13142
aviest	-13143
ayment	-13144
banken	-13145
berlin	-13146
bitats	-13147
boards	-13148
chairs	-13149
change	-13150
chrane	-13151
christ	-13152
cierge	-13153
cified	-13154
clared	-13155
coneus	-13156
define	-13157
derhaz	-13158
determ	-13159
donald	-13160
earing	-13161
eering	-13162
ements	-13163
enburg	-13164
entura	-13165
epress	-13166
erable	-13167
erated	-13168
erical	-13169
estine	-13170
excess	-13171
factor	-13172
famous	-13173
fering	-13174
forces	-13175
forest	-13176
garten	-13177
gmatic	-13178
halten	-13179
heimer	-13180
holing	-13181
hopper	-13182
ichten	-13183
idable	-13184
ierung	-13185
ieties	-13186
import	-13187
inates	-13188
inavia	-13189
indust	-13190
ingham	-13191
inista	-13192
insula	-13193
irical	-13194
issant	-13195
istrib	-13196
itably	-13197
italia	-13198
itania	-13199
990	-13200
fsg	-13201
uki	-13202
▁по	-13203
brew	-13204
rhus	-13205
rita	-13206
▁ihr	-13207
▁ldp	-13208
▁mál	-13209
▁ott	-13210
abeth	-13211
atoes	-13212
erife	-13213
ethov	-13214
inued	-13215
vakia	-13216
▁2015	-13217
▁amps	-13218
▁dawn	-13219
▁dunn	-13220
▁egal	-13221
▁ibis	-13222
▁ipad	-13223
▁jake	-13224
▁vaci	-13225
anssen	-13226
emiles	-13227
invent	-13228
istani	-13229
iteren	-13230
itical	-13231
itures	-13232
ivable	-13233
kshire	-13234
levant	-13235
lihood	-13236
linear	-13237
liners	-13238
lingon	-13239
loaded	-13240
lushko	-13241
lusive	-13242
mother	-13243
neries	-13244
oblast	-13245
ocracy	-13246
ogenic	-13247
ogical	-13248
olitan	-13249
olving	-13250
oscope	-13251
ouchet	-13252
ousine	-13253
ouveau	-13254
owered	-13255
owners	-13256
oxical	-13257
parent	-13258
perate	-13259
pieces	-13260
pluses	-13261
preced	-13262
profit	-13263
ractic	-13264
regard	-13265
region	-13266
rescos	-13267
riages	-13268
ricane	-13269
rician	-13270
rified	-13271
selenz	-13272
social	-13273
soever	-13274
stated	-13275
storms	-13276
strate	-13277
struct	-13278
udsman	-13279
upying	-13280
usetts	-13281
ustain	-13282
utable	-13283
utació	-13284
utants	-13285
wealth	-13286
weight	-13287
weizer	-13288
üsseld	-13289
▁+1/+1	-13290
▁00:08	-13291
▁06:00	-13292
▁10000	-13293
▁15038	-13294
▁20.00	-13295
▁6,000	-13296
▁abbre	-13297
▁abide	-13298
▁abort	-13299
.98	-13300
▁ми	-13301
▁те	-13302
bajo	-13303
belt	-13304
nson	-13305
örth	-13306
▁1.9	-13307
▁cmo	-13308
grown	-13309
lades	-13310
thaus	-13311
▁12.9	-13312
▁baja	-13313
▁einz	-13314
▁sado	-13315
▁sulo	-13316
iosity	-13317
licher	-13318
▁accue	-13319
▁acorn	-13320
▁acres	-13321
▁acute	-13322
▁admis	-13323
▁adren	-13324
▁ahern	-13325
▁aired	-13326
▁aktau	-13327
▁alice	-13328
▁allah	-13329
▁anche	-13330
▁anger	-13331
▁annex	-13332
▁antiv	-13333
▁arche	-13334
▁artic	-13335
▁ashes	-13336
▁asian	-13337
▁aspar	-13338
▁atlas	-13339
▁attra	-13340
▁ausge	-13341
▁avert	-13342
▁baden	-13343
▁badia	-13344
▁baked	-13345
▁baron	-13346
▁basin	-13347
▁beams	-13348
▁bears	-13349
▁belts	-13350
▁bends	-13351
▁berry	-13352
▁berth	-13353
▁bikes	-13354
▁billi	-13355
▁bills	-13356
▁blend	-13357
▁blizz	-13358
▁blunt	-13359
▁boxed	-13360
▁breen	-13361
▁broch	-13362
▁brood	-13363
▁bulbs	-13364
▁bulld	-13365
▁burma	-13366
▁calet	-13367
▁calib	-13368
▁calme	-13369
▁canes	-13370
▁cardi	-13371
▁cared	-13372
▁cargo	-13373
▁carls	-13374
▁catac	-13375
▁cento	-13376
▁chick	-13377
▁chile	-13378
▁chore	-13379
▁cited	-13380
▁cliff	-13381
▁cling	-13382
▁cloud	-13383
▁comfy	-13384
▁commu	-13385
▁conil	-13386
▁conno	-13387
▁corfu	-13388
▁coven	-13389
▁crete	-13390
▁cried	-13391
▁crist	-13392
▁crust	-13393
▁cured	-13394
▁curve	-13395
▁daten	-13396
▁debit	-13397
▁delet	-13398
▁delta	-13399
357	-13400
1/-1	-13401
ambh	-13402
ebay	-13403
ebok	-13404
helm	-13405
▁0.7	-13406
▁1.3	-13407
▁2.7	-13408
baden	-13409
block	-13410
codes	-13411
mesis	-13412
sette	-13413
▁1931	-13414
▁grip	-13415
▁osce	-13416
▁rigo	-13417
isches	-13418
locked	-13419
monies	-13420
monium	-13421
▁-1/-1	-13422
▁algum	-13423
▁babel	-13424
▁chaos	-13425
▁deeds	-13426
▁diary	-13427
▁diese	-13428
▁dolce	-13429
▁dolls	-13430
▁domus	-13431
▁drain	-13432
▁drama	-13433
▁drank	-13434
▁draws	-13435
▁dress	-13436
▁drift	-13437
▁dumps	-13438
▁dwind	-13439
▁eaten	-13440
▁ecard	-13441
▁einem	-13442
▁elves	-13443
▁energ	-13444
▁enshr	-13445
▁entre	-13446
▁ether	-13447
▁evans	-13448
▁evian	-13449
▁exert	-13450
▁exits	-13451
▁exped	-13452
▁expul	-13453
▁extin	-13454
▁faire	-13455
▁feels	-13456
▁fence	-13457
▁ferro	-13458
▁ferry	-13459
▁fibre	-13460
▁fines	-13461
▁fired	-13462
▁fisch	-13463
▁flags	-13464
▁flair	-13465
▁flood	-13466
▁flore	-13467
▁focal	-13468
▁folge	-13469
▁forma	-13470
▁futur	-13471
▁gamer	-13472
▁garni	-13473
▁gases	-13474
▁gates	-13475
▁gauge	-13476
▁genoa	-13477
▁glide	-13478
▁glued	-13479
▁glues	-13480
▁goats	-13481
▁grade	-13482
▁grain	-13483
▁grape	-13484
▁grill	-13485
▁grips	-13486
▁groom	-13487
▁grund	-13488
▁guant	-13489
▁guter	-13490
▁hairs	-13491
▁halls	-13492
▁hamam	-13493
▁handy	-13494
▁hangs	-13495
▁harry	-13496
▁heinz	-13497
▁helic	-13498
▁hench	-13499
21-	-13500
446	-13501
:44	-13502
iii	-13503
ärk	-13504
вро	-13505
▁мо	-13506
felt	-13507
risk	-13508
вроп	-13509
▁egp	-13510
▁lsa	-13511
▁rsa	-13512
▁sán	-13513
/2010	-13514
ación	-13515
falls	-13516
incts	-13517
maker	-13518
merbr	-13519
trade	-13520
uchin	-13521
▁1921	-13522
▁amph	-13523
▁ampl	-13524
▁cmii	-13525
▁holy	-13526
▁jura	-13527
▁märk	-13528
▁vigo	-13529
colour	-13530
nautic	-13531
oustic	-13532
prints	-13533
▁adige	-13534
▁hesse	-13535
▁hired	-13536
▁hobby	-13537
▁hotsp	-13538
▁iliri	-13539
▁imbal	-13540
▁immun	-13541
▁imply	-13542
▁inadm	-13543
▁incur	-13544
▁indig	-13545
▁ingen	-13546
▁inhib	-13547
▁intim	-13548
▁inval	-13549
▁ipool	-13550
▁ipsec	-13551
▁ivory	-13552
▁jared	-13553
▁jeden	-13554
▁jetfl	-13555
▁jewel	-13556
▁karls	-13557
▁keeps	-13558
▁klaus	-13559
▁knuck	-13560
▁kreuz	-13561
▁lager	-13562
▁lance	-13563
▁laser	-13564
▁laura	-13565
▁leist	-13566
▁liken	-13567
▁linea	-13568
▁liner	-13569
▁lisse	-13570
▁locus	-13571
▁loops	-13572
▁lying	-13573
▁madet	-13574
▁malik	-13575
▁malta	-13576
▁manif	-13577
▁manip	-13578
▁marsh	-13579
▁marty	-13580
▁mayer	-13581
▁medal	-13582
▁mercy	-13583
▁metap	-13584
▁metre	-13585
▁milit	-13586
▁miner	-13587
▁mitch	-13588
▁modem	-13589
▁modes	-13590
▁mondo	-13591
▁motif	-13592
▁mucus	-13593
▁muito	-13594
▁mules	-13595
▁musik	-13596
▁niger	-13597
▁nobel	-13598
▁nokia	-13599
:01	-13600
5-02	-13601
▁425	-13602
▁btv	-13603
▁iec	-13604
-2003	-13605
5-015	-13606
basin	-13607
clubs	-13608
ogram	-13609
▁5-10	-13610
▁juan	-13611
▁ribe	-13612
▁xvid	-13613
atford	-13614
lawful	-13615
zdormu	-13616
▁00:01	-13617
▁10:30	-13618
▁ayman	-13619
▁cesen	-13620
▁erika	-13621
▁kurds	-13622
▁nurse	-13623
▁opted	-13624
▁overb	-13625
▁owing	-13626
▁pains	-13627
▁palms	-13628
▁paras	-13629
▁peaks	-13630
▁perip	-13631
▁petit	-13632
▁phare	-13633
▁phoen	-13634
▁pills	-13635
▁poems	-13636
▁poles	-13637
▁popul	-13638
▁poses	-13639
▁praia	-13640
▁pride	-13641
▁prion	-13642
▁prone	-13643
▁prote	-13644
▁punch	-13645
▁punkt	-13646
▁punta	-13647
▁quash	-13648
▁queen	-13649
▁query	-13650
▁races	-13651
▁ranks	-13652
▁realm	-13653
▁recom	-13654
▁redep	-13655
▁redes	-13656
▁reefs	-13657
▁rehab	-13658
▁reich	-13659
▁reimb	-13660
▁reinv	-13661
▁remol	-13662
▁remun	-13663
▁reper	-13664
▁repos	-13665
▁repub	-13666
▁resil	-13667
▁rests	-13668
▁retro	-13669
▁revel	-13670
▁rites	-13671
▁rolls	-13672
▁romul	-13673
▁roses	-13674
▁salon	-13675
▁schon	-13676
▁sells	-13677
▁sends	-13678
▁serbs	-13679
▁serie	-13680
▁sheep	-13681
▁sheet	-13682
▁shire	-13683
▁shirt	-13684
▁simil	-13685
▁sitio	-13686
▁slave	-13687
▁slope	-13688
▁sooth	-13689
▁spine	-13690
▁spont	-13691
▁spool	-13692
▁spots	-13693
▁squad	-13694
▁staat	-13695
▁staes	-13696
▁stays	-13697
▁steam	-13698
▁stems	-13699
ата	-13700
риа	-13701
рно	-13702
▁üb	-13703
milk	-13704
▁1,0	-13705
▁cgi	-13706
▁más	-13707
ahlen	-13708
hardt	-13709
upted	-13710
▁escb	-13711
▁lido	-13712
▁mahm	-13713
▁mesh	-13714
▁suez	-13715
▁vida	-13716
▁über	-13717
ienpak	-13718
iguous	-13719
losing	-13720
▁armée	-13721
▁ciovo	-13722
▁dalla	-13723
▁dalli	-13724
▁fatuz	-13725
▁gastv	-13726
▁hertz	-13727
▁honda	-13728
▁inhal	-13729
▁naked	-13730
▁neoli	-13731
▁strip	-13732
▁strum	-13733
▁subur	-13734
▁tanks	-13735
▁tatat	-13736
▁tense	-13737
▁thome	-13738
▁thorn	-13739
▁threw	-13740
▁tired	-13741
▁toxin	-13742
▁trams	-13743
▁trays	-13744
▁tribo	-13745
▁trich	-13746
▁troub	-13747
▁truck	-13748
▁tunes	-13749
▁turin	-13750
▁ulnar	-13751
▁unamb	-13752
▁unite	-13753
▁untis	-13754
▁uthat	-13755
▁utter	-13756
▁uzbek	-13757
▁veins	-13758
▁vella	-13759
▁venus	-13760
▁verse	-13761
▁verts	-13762
▁veter	-13763
▁vinci	-13764
▁virtu	-13765
▁vista	-13766
▁vivid	-13767
▁waist	-13768
▁wands	-13769
▁wavre	-13770
▁webse	-13771
▁werbe	-13772
▁width	-13773
▁wired	-13774
▁wires	-13775
▁wound	-13776
▁wrath	-13777
▁wörth	-13778
▁yours	-13779
▁ángel	-13780
11/2008	-13781
account	-13782
address	-13783
agaures	-13784
andered	-13785
andreou	-13786
aracter	-13787
armerie	-13788
ascular	-13789
atemala	-13790
atement	-13791
atility	-13792
azional	-13793
banquet	-13794
binding	-13795
burning	-13796
cardini	-13797
committ	-13798
company	-13799
:48	-13800
bahn	-13801
iamo	-13802
lagh	-13803
▁krä	-13804
bbing	-13805
▁9001	-13806
▁dvds	-13807
▁falk	-13808
▁frog	-13809
▁kazn	-13810
▁lomi	-13811
▁luca	-13812
▁mamm	-13813
affirm	-13814
fluous	-13815
▁arrog	-13816
▁cairo	-13817
▁cogen	-13818
▁false	-13819
▁hemis	-13820
▁josef	-13821
▁kaspo	-13822
▁loved	-13823
▁mitte	-13824
▁pronk	-13825
ateness	-13826
connect	-13827
contain	-13828
contres	-13829
cussion	-13830
cutting	-13831
dumping	-13832
eastern	-13833
emorate	-13834
entials	-13835
eppelin	-13836
ethanol	-13837
factory	-13838
forward	-13839
germany	-13840
harvest	-13841
horised	-13842
ictions	-13843
ictment	-13844
iencies	-13845
ilation	-13846
ineland	-13847
ishings	-13848
ismatic	-13849
isports	-13850
isseurs	-13851
itement	-13852
ivation	-13853
llation	-13854
lusconi	-13855
markets	-13856
network	-13857
obacter	-13858
odality	-13859
odeship	-13860
oticons	-13861
ounding	-13862
palomas	-13863
parable	-13864
partite	-13865
payment	-13866
perform	-13867
peslagh	-13868
project	-13869
protein	-13870
racting	-13871
rafting	-13872
ranging	-13873
reading	-13874
respect	-13875
ressors	-13876
ricants	-13877
scanner	-13878
selling	-13879
session	-13880
special	-13881
stained	-13882
strasse	-13883
systems	-13884
ulators	-13885
uminium	-13886
uminous	-13887
unstein	-13888
uttered	-13889
versial	-13890
éricain	-13891
▁15,000	-13892
▁30,000	-13893
▁70,000	-13894
▁abound	-13895
▁absent	-13896
▁accent	-13897
▁admits	-13898
▁adopts	-13899
sylv	-13900
▁gbp	-13901
▁tsr	-13902
mfony	-13903
otomy	-13904
poker	-13905
width	-13906
потре	-13907
▁1926	-13908
▁jabl	-13909
dvdrip	-13910
iotics	-13911
teenth	-13912
▁aroma	-13913
▁buzet	-13914
▁drums	-13915
▁eager	-13916
▁exagg	-13917
▁fujif	-13918
▁jesus	-13919
▁kenya	-13920
▁myths	-13921
▁ricoh	-13922
▁tears	-13923
▁tirol	-13924
▁xiang	-13925
measure	-13926
uterine	-13927
▁adored	-13928
▁adware	-13929
▁aerial	-13930
▁affirm	-13931
▁aiming	-13932
▁albert	-13933
▁amazed	-13934
▁amazon	-13935
▁ambass	-13936
▁andean	-13937
▁anders	-13938
▁andrea	-13939
▁angela	-13940
▁angles	-13941
▁aragon	-13942
▁archer	-13943
▁arctic	-13944
▁arenas	-13945
▁arisen	-13946
▁armies	-13947
▁ascend	-13948
▁ashton	-13949
▁assent	-13950
▁astron	-13951
▁athlon	-13952
▁atomic	-13953
▁attach	-13954
▁autres	-13955
▁avoids	-13956
▁awaits	-13957
▁bacter	-13958
▁barbar	-13959
▁barrio	-13960
▁basing	-13961
▁beacon	-13962
▁becker	-13963
▁beeing	-13964
▁betray	-13965
▁bginfo	-13966
▁biddle	-13967
▁biking	-13968
▁binder	-13969
▁blends	-13970
▁blottn	-13971
▁boiler	-13972
▁booksh	-13973
▁borneo	-13974
▁bosnia	-13975
▁bourge	-13976
▁breath	-13977
▁breeds	-13978
▁brewer	-13979
▁bubble	-13980
▁buffer	-13981
▁buying	-13982
▁cabins	-13983
▁cached	-13984
▁camion	-13985
▁captiv	-13986
▁carers	-13987
▁carlos	-13988
▁cattol	-13989
▁caucas	-13990
▁cedars	-13991
▁chains	-13992
▁chalet	-13993
▁champs	-13994
▁chapel	-13995
▁childb	-13996
▁chirop	-13997
▁clergy	-13998
▁clocks	-13999
▁cpu	-14000
▁vtu	-14001
abrik	-14002
anbul	-14003
fjell	-14004
frame	-14005
notes	-14006
▁avec	-14007
▁hubs	-14008
▁näch	-14009
.2008.	-14010
addafi	-14011
deluxe	-14012
driven	-14013
kiyaki	-14014
maxima	-14015
mögens	-14016
olucci	-14017
oonlij	-14018
rivata	-14019
▁begun	-14020
▁caddy	-14021
▁macao	-14022
▁mafia	-14023
▁naxos	-14024
▁okrug	-14025
▁sushi	-14026
barrels	-14027
mmetric	-14028
ralayam	-14029
▁adesso	-14030
▁caplio	-14031
▁comdek	-14032
▁conten	-14033
▁cooker	-14034
▁cookie	-14035
▁copied	-14036
▁copper	-14037
▁cortes	-14038
▁costly	-14039
▁crater	-14040
▁cubase	-14041
▁cuenca	-14042
▁cursor	-14043
▁curves	-14044
▁cybers	-14045
▁dalmat	-14046
▁daring	-14047
▁dating	-14048
▁decree	-14049
▁deluxe	-14050
▁deport	-14051
▁deputy	-14052
▁desert	-14053
▁destro	-14054
▁detect	-14055
▁dieser	-14056
▁diving	-14057
▁doping	-14058
▁doubts	-14059
▁drivel	-14060
▁drying	-14061
▁easing	-14062
▁easter	-14063
▁eleven	-14064
▁emails	-14065
▁embarr	-14066
▁embass	-14067
▁embryo	-14068
▁ending	-14069
▁endure	-14070
▁ensign	-14071
▁enumer	-14072
▁esprit	-14073
▁essere	-14074
▁estado	-14075
▁eurone	-14076
▁evolve	-14077
▁excise	-14078
▁excuse	-14079
▁facial	-14080
▁feared	-14081
▁ficken	-14082
▁finger	-14083
▁fleets	-14084
▁forged	-14085
▁frames	-14086
▁franch	-14087
▁frauds	-14088
▁freder	-14089
▁freund	-14090
▁frozen	-14091
▁fruits	-14092
▁funded	-14093
▁galact	-14094
▁galiny	-14095
▁garcía	-14096
▁garlic	-14097
▁garner	-14098
▁geared	-14099
brien	-14100
▁gimp	-14101
länder	-14102
▁coton	-14103
▁karma	-14104
▁leuke	-14105
▁lumix	-14106
▁lynch	-14107
▁sperm	-14108
hringer	-14109
icentre	-14110
kirchen	-14111
ukenhof	-14112
▁anchor	-14113
▁brutal	-14114
▁bundes	-14115
▁eisler	-14116
▁fiesta	-14117
▁gesund	-14118
▁girona	-14119
▁glands	-14120
▁glider	-14121
▁gothic	-14122
▁grange	-14123
▁graphs	-14124
▁grazie	-14125
▁groves	-14126
▁hakkar	-14127
▁hamlet	-14128
▁hamper	-14129
▁harder	-14130
▁harris	-14131
▁hasten	-14132
▁havens	-14133
▁hearts	-14134
▁heated	-14135
▁heidel	-14136
▁herald	-14137
▁herbal	-14138
▁heroic	-14139
▁himmel	-14140
▁hitler	-14141
▁hollow	-14142
▁homely	-14143
▁honden	-14144
▁hourly	-14145
▁howard	-14146
▁hughes	-14147
▁hungry	-14148
▁hygien	-14149
▁ibrams	-14150
▁iconic	-14151
▁ignore	-14152
▁imagel	-14153
▁immort	-14154
▁imperf	-14155
▁improv	-14156
▁instal	-14157
▁instig	-14158
▁intact	-14159
▁invade	-14160
▁invoke	-14161
▁ionian	-14162
▁ironic	-14163
▁islets	-14164
▁istria	-14165
▁joseph	-14166
▁justin	-14167
▁kallas	-14168
▁killed	-14169
▁killer	-14170
▁kinder	-14171
▁klagen	-14172
▁kultur	-14173
▁kuress	-14174
▁köbber	-14175
▁labels	-14176
▁lacona	-14177
▁laeken	-14178
▁lagard	-14179
▁laguna	-14180
▁lamarr	-14181
▁lasted	-14182
▁lawful	-14183
▁lawyer	-14184
▁learns	-14185
▁legion	-14186
▁lenses	-14187
▁lighth	-14188
▁linens	-14189
▁litres	-14190
▁ljublj	-14191
▁locals	-14192
▁locked	-14193
▁losers	-14194
▁luzern	-14195
▁maastr	-14196
▁magnet	-14197
▁malawi	-14198
▁mantra	-14199
ион	-14200
▁dtd	-14201
▁vpn	-14202
-7575	-14203
/1999	-14204
yllic	-14205
▁anew	-14206
▁dbtv	-14207
▁góre	-14208
▁ntsc	-14209
▁rewr	-14210
asanjo	-14211
iebrza	-14212
olánek	-14213
ruding	-14214
▁ebadi	-14215
▁karel	-14216
▁marín	-14217
▁oasis	-14218
▁raray	-14219
▁rhyth	-14220
▁zapat	-14221
abascae	-14222
zwecken	-14223
▁coarse	-14224
▁crosso	-14225
▁fluctu	-14226
▁ghetto	-14227
▁inglés	-14228
▁joomla	-14229
▁mapped	-14230
▁marfil	-14231
▁marito	-14232
▁massac	-14233
▁matrix	-14234
▁maxima	-14235
▁mayors	-14236
▁medina	-14237
▁medved	-14238
▁megrim	-14239
▁merged	-14240
▁metals	-14241
▁metrop	-14242
▁miguel	-14243
▁mirror	-14244
▁misery	-14245
▁mitter	-14246
▁monter	-14247
▁mopeds	-14248
▁moraes	-14249
▁moreno	-14250
▁morgan	-14251
▁moscow	-14252
▁mosley	-14253
▁motive	-14254
▁movies	-14255
▁multis	-14256
▁murnau	-14257
▁musica	-14258
▁myster	-14259
▁müller	-14260
▁naples	-14261
▁neatly	-14262
▁nieder	-14263
▁noises	-14264
▁nordic	-14265
▁notify	-14266
▁nuendo	-14267
▁oblige	-14268
▁opaque	-14269
▁oporto	-14270
▁outlet	-14271
▁overly	-14272
▁paasil	-14273
▁paddle	-14274
▁paired	-14275
▁palate	-14276
▁parade	-14277
▁passer	-14278
▁patron	-14279
▁peeing	-14280
▁persec	-14281
▁pfandb	-14282
▁phases	-14283
▁phrase	-14284
▁picked	-14285
▁picnic	-14286
▁picnik	-14287
▁pirker	-14288
▁planks	-14289
▁plight	-14290
▁pocket	-14291
▁powder	-14292
▁preset	-14293
▁primal	-14294
▁prolif	-14295
▁propri	-14296
▁pseudo	-14297
▁puerta	-14298
▁purity	-14299
мером	-14300
▁+351	-14301
▁bdsm	-14302
▁авто	-14303
▁jumbo	-14304
▁lupus	-14305
▁wurtz	-14306
arettes	-14307
strokes	-14308
▁ariane	-14309
▁barely	-14310
▁bianco	-14311
▁bovine	-14312
▁ciutat	-14313
▁cousin	-14314
▁fisker	-14315
▁fuschl	-14316
▁iberia	-14317
▁lothar	-14318
▁misman	-14319
▁nevada	-14320
▁oetker	-14321
▁piazza	-14322
▁pushes	-14323
▁python	-14324
▁quarkx	-14325
▁quoted	-14326
▁racial	-14327
▁radios	-14328
▁raises	-14329
▁ramada	-14330
▁realty	-14331
▁reawak	-14332
▁recipe	-14333
▁redund	-14334
▁renews	-14335
▁rennes	-14336
▁repair	-14337
▁repris	-14338
▁rescue	-14339
▁resent	-14340
▁restra	-14341
▁resume	-14342
▁revive	-14343
▁rialto	-14344
▁rincon	-14345
▁ritual	-14346
▁rolled	-14347
▁rooted	-14348
▁rounds	-14349
▁router	-14350
▁rudolf	-14351
▁rugged	-14352
▁runway	-14353
▁sacred	-14354
▁sample	-14355
▁saudis	-14356
▁savoir	-14357
▁saxony	-14358
▁scaled	-14359
▁scenes	-14360
▁schmid	-14361
▁sculpt	-14362
▁seldom	-14363
▁seller	-14364
▁sender	-14365
▁serial	-14366
▁settle	-14367
▁shaped	-14368
▁shapes	-14369
▁shirin	-14370
▁shores	-14371
▁shrine	-14372
▁sleeps	-14373
▁slower	-14374
▁smiles	-14375
▁soccer	-14376
▁solder	-14377
▁sooner	-14378
▁sophie	-14379
▁specim	-14380
▁speeds	-14381
▁speedy	-14382
▁spells	-14383
▁spiral	-14384
▁sporty	-14385
▁stalin	-14386
▁starch	-14387
▁statue	-14388
▁storey	-14389
▁straps	-14390
▁stunts	-14391
▁subord	-14392
▁subter	-14393
▁suburb	-14394
▁summon	-14395
▁supran	-14396
▁swaths	-14397
▁sympos	-14398
▁tastes	-14399
▁dprk	-14400
▁siena	-14401
derhaze	-14402
▁crafts	-14403
▁fannie	-14404
▁málaga	-14405
▁pardál	-14406
▁techno	-14407
▁tehran	-14408
▁tempor	-14409
▁tender	-14410
▁themes	-14411
▁thirds	-14412
▁thirty	-14413
▁timely	-14414
▁timest	-14415
▁tissue	-14416
▁traced	-14417
▁trails	-14418
▁traits	-14419
▁trogir	-14420
▁trojan	-14421
▁trucks	-14422
▁tunnel	-14423
▁tweets	-14424
▁twelve	-14425
▁unicef	-14426
▁unjust	-14427
▁uphold	-14428
▁upward	-14429
▁usenet	-14430
▁vendor	-14431
▁versus	-14432
▁virtue	-14433
▁visits	-14434
▁vocals	-14435
▁voices	-14436
▁wachau	-14437
▁waived	-14438
▁waiver	-14439
▁wander	-14440
▁warmly	-14441
▁wasser	-14442
▁wasted	-14443
▁weaker	-14444
▁werden	-14445
▁werner	-14446
▁wholes	-14447
▁wholly	-14448
▁wished	-14449
▁worded	-14450
▁workst	-14451
▁worlds	-14452
▁wounds	-14453
▁wretch	-14454
▁writes	-14455
▁xiaobo	-14456
▁yachts	-14457
▁yemeni	-14458
▁авторс	-14459
▁пример	-14460
.06.2010	-14461
ackinger	-14462
activity	-14463
appropri	-14464
aterally	-14465
boarding	-14466
breaking	-14467
burgring	-14468
business	-14469
cessions	-14470
chairman	-14471
children	-14472
critical	-14473
election	-14474
elhueber	-14475
enschaft	-14476
entional	-14477
ersonnel	-14478
function	-14479
genstein	-14480
harmonic	-14481
icularly	-14482
iningrad	-14483
iniscent	-14484
iousness	-14485
itations	-14486
judicial	-14487
margallo	-14488
national	-14489
ogeneous	-14490
olitical	-14491
onautics	-14492
orations	-14493
practice	-14494
products	-14495
ractable	-14496
regional	-14497
riptions	-14498
semitism	-14499
▁европ	-14500
▁reebok	-14501
services	-14502
shadowed	-14503
software	-14504
standard	-14505
stechnik	-14506
stration	-14507
sylvania	-14508
training	-14509
ubscribe	-14510
umptions	-14511
urbating	-14512
utionary	-14513
▁200,000	-14514
▁300,000	-14515
▁abbrevi	-14516
▁abiding	-14517
▁absynth	-14518
▁abusive	-14519
▁acquire	-14520
▁acrobat	-14521
▁adapted	-14522
▁adapter	-14523
▁agritur	-14524
▁aircond	-14525
▁alarmed	-14526
▁alcudia	-14527
▁alerted	-14528
▁alleged	-14529
▁ambient	-14530
▁annunci	-14531
▁antenna	-14532
▁anthrop	-14533
▁antoine	-14534
▁anxiety	-14535
▁anxious	-14536
▁anybody	-14537
▁anytime	-14538
▁appeals	-14539
▁apricot	-14540
▁ardenne	-14541
▁armenia	-14542
▁arrives	-14543
▁artisan	-14544
▁asscunt	-14545
▁asshole	-14546
▁assigns	-14547
▁assumes	-14548
▁auditor	-14549
▁authors	-14550
▁awaited	-14551
▁azeroth	-14552
▁azureus	-14553
▁baggage	-14554
▁ballena	-14555
▁bankers	-14556
▁banquet	-14557
▁barnier	-14558
▁baroque	-14559
▁baskets	-14560
▁bathing	-14561
▁battles	-14562
▁beeswax	-14563
▁beethov	-14564
▁begging	-14565
▁beliefs	-14566
▁bicycle	-14567
▁biebrza	-14568
▁biology	-14569
▁biomass	-14570
▁blatant	-14571
▁blessed	-14572
▁blingee	-14573
▁blocked	-14574
▁bluefin	-14575
▁boilers	-14576
▁bolzano	-14577
▁bombard	-14578
▁bondage	-14579
▁bouchet	-14580
▁bracket	-14581
▁breeder	-14582
▁brewing	-14583
▁briefly	-14584
▁broiler	-14585
▁bubbles	-14586
▁buyback	-14587
▁calming	-14588
▁canaria	-14589
▁carrera	-14590
▁cascade	-14591
▁cashman	-14592
▁cassino	-14593
▁casting	-14594
▁catalan	-14595
▁catches	-14596
▁cavalry	-14597
▁censure	-14598
▁chambre	-14599
▁chechen	-14600
▁circles	-14601
▁clarity	-14602
▁clashes	-14603
▁clauses	-14604
▁cleared	-14605
▁clicked	-14606
▁closest	-14607
▁cluster	-14608
▁commend	-14609
▁compile	-14610
▁confess	-14611
▁confron	-14612
▁conquer	-14613
▁convene	-14614
▁copying	-14615
▁couture	-14616
▁critics	-14617
▁crushed	-14618
▁cryosat	-14619
▁curling	-14620
▁cycling	-14621
▁dancing	-14622
▁dealers	-14623
▁debated	-14624
▁debconf	-14625
▁decency	-14626
▁deepest	-14627
▁defects	-14628
▁derived	-14629
▁desires	-14630
▁detects	-14631
▁deviate	-14632
▁dialect	-14633
▁diamant	-14634
▁diamond	-14635
▁dioxide	-14636
▁directx	-14637
▁discont	-14638
▁disqual	-14639
▁disturb	-14640
▁docbook	-14641
▁donated	-14642
▁doubled	-14643
▁dracula	-14644
▁drafted	-14645
▁draught	-14646
▁dresden	-14647
▁drought	-14648
▁düsseld	-14649
▁easiest	-14650
▁editors	-14651
▁elysées	-14652
▁emailed	-14653
▁embrace	-14654
▁emerges	-14655
▁emirate	-14656
▁enacted	-14657
▁endless	-14658
▁entails	-14659
▁equiped	-14660
▁erected	-14661
▁erosion	-14662
▁estates	-14663
▁evangel	-14664
▁evasion	-14665
▁evident	-14666
▁exagger	-14667
▁exhibit	-14668
▁existed	-14669
▁fabidoo	-14670
▁factual	-14671
▁fantasy	-14672
▁fatuzzo	-14673
▁feeling	-14674
▁festive	-14675
▁fetches	-14676
▁filters	-14677
▁fischer	-14678
▁florenz	-14679
▁flowers	-14680
▁foolish	-14681
▁foresee	-14682
▁fragile	-14683
▁frankly	-14684
▁freddie	-14685
▁frescos	-14686
▁freshly	-14687
▁fuelled	-14688
▁fulfils	-14689
▁fullest	-14690
▁gamelan	-14691
▁gelegen	-14692
▁germain	-14693
▁gesture	-14694
▁giulian	-14695
▁glushko	-14696
▁grilled	-14697
▁guiding	-14698
▁gujarat	-14699
▁gärtner	-14700
▁górecki	-14701
▁handing	-14702
▁hanging	-14703
▁happily	-14704
▁hardest	-14705
▁hautala	-14706
▁headers	-14707
▁heaters	-14708
▁hermann	-14709
▁hilltop	-14710
▁hinweis	-14711
▁hopeful	-14712
▁hostile	-14713
▁hudders	-14714
▁iceberg	-14715
▁idyllic	-14716
▁ilirija	-14717
▁imitate	-14718
▁impasse	-14719
▁imports	-14720
▁imprint	-14721
▁inadmis	-14722
▁incomes	-14723
▁informs	-14724
▁inglese	-14725
▁injured	-14726
▁insight	-14727
▁insists	-14728
▁insured	-14729
▁integer	-14730
▁invites	-14731
▁invoked	-14732
▁israeli	-14733
▁issuing	-14734
▁josiane	-14735
▁jubilee	-14736
▁judging	-14737
▁jupiter	-14738
▁kernels	-14739
▁keyring	-14740
▁kinnock	-14741
▁korhola	-14742
▁kurdish	-14743
▁labview	-14744
▁lacking	-14745
▁laptops	-14746
▁layouts	-14747
▁lechner	-14748
▁legends	-14749
▁lengths	-14750
▁lenient	-14751
▁loading	-14752
▁loyalty	-14753
▁malaria	-14754
▁manages	-14755
▁mankind	-14756
▁margins	-14757
▁married	-14758
▁martens	-14759
▁martial	-14760
▁massach	-14761
▁masters	-14762
▁matches	-14763
▁meadows	-14764
▁menstru	-14765
▁migrant	-14766
▁miracul	-14767
▁miscell	-14768
▁missile	-14769
▁monopol	-14770
▁monster	-14771
▁monthly	-14772
▁mougins	-14773
▁muammar	-14774
▁muscles	-14775
▁muslims	-14776
▁mystery	-14777
▁münchen	-14778
▁natives	-14779
▁nemesis	-14780
▁notable	-14781
▁noticed	-14782
▁notices	-14783
▁notwith	-14784
▁nouveau	-14785
▁numeric	-14786
▁obesity	-14787
▁obscure	-14788
▁olympus	-14789
▁oneself	-14790
▁onesign	-14791
▁optimum	-14792
▁orleans	-14793
▁outland	-14794
▁outlets	-14795
▁pacific	-14796
▁palacio	-14797
▁pandora	-14798
▁paradig	-14799
▁paribas	-14800
▁parquet	-14801
▁passive	-14802
▁patriot	-14803
▁permits	-14804
▁pferdew	-14805
▁pharmac	-14806
▁phoenix	-14807
▁phrases	-14808
▁phuents	-14809
▁planted	-14810
▁plotted	-14811
▁polymer	-14812
▁porsolt	-14813
▁powered	-14814
▁prayers	-14815
▁precond	-14816
[...]
