<pad>	0
<unk>	0
<bos>	0
<eos>	0
en	-0
er	-1
▁d	-2
ch	-3
in	-4
un	-5
ie	-6
▁s	-7
▁a	-8
▁,	-9
▁w	-10
ei	-11
es	-12
▁.	-13
▁die	-14
▁un	-15
▁b	-16
ein	-17
st	-18
ich	-19
on	-20
▁m	-21
▁v	-22
▁g	-23
an	-24
te	-25
ung	-26
▁z	-27
▁der	-28
▁f	-29
ti	-30
sch	-31
▁ein	-32
▁und	-33
▁k	-34
▁i	-35
▁h	-36
or	-37
▁n	-38
▁au	-39
▁da	-40
▁in	-41
ten	-42
ll	-43
it	-44
ur	-45
ar	-46
ss	-47
▁p	-48
em	-49
ra	-50
den	-51
ge	-52
hr	-53
▁zu	-54
gen	-55
al	-56
der	-57
ter	-58
▁l	-59
ir	-60
▁ver	-61
▁an	-62
lich	-63
et	-64
el	-65
▁r	-66
mm	-67
▁er	-68
▁wir	-69
ür	-70
▁t	-71
eit	-72
▁den	-73
ent	-74
at	-75
▁mit	-76
ber	-77
▁auf	-78
icht	-79
ier	-80
▁von	-81
▁das	-82
ro	-83
▁e	-84
um	-85
isch	-86
de	-87
▁ist	-88
au	-89
▁be	-90
▁sie	-91
▁ge	-92
ben	-93
▁dies	-94
tion	-95
ach	-96
▁für	-97
▁o	-98
ck	-99
▁j	-100
ol	-101
▁sch	-102
ig	-103
▁des	-104
is	-105
re	-106
▁st	-107
▁aus	-108
▁eine	-109
▁im	-110
▁so	-111
and	-112
▁wer	-113
ft	-114
nen	-115
am	-116
ungen	-117
▁es	-118
über	-119
ind	-120
▁nicht	-121
▁ko	-122
le	-123
än	-124
eich	-125
▁vor	-126
▁sich	-127
il	-128
▁re	-129
ion	-130
eu	-131
sp	-132
ell	-133
eh	-134
▁werden	-135
▁dem	-136
op	-137
kt	-138
ff	-139
▁um	-140
▁über	-141
ischen	-142
▁ich	-143
as	-144
▁c	-145
▁al	-146
▁dass	-147
▁ent	-148
ssen	-149
▁uns	-150
ann	-151
tz	-152
▁ges	-153
ahr	-154
▁ihr	-155
ri	-156
▁bes	-157
ation	-158
▁eur	-159
▁auch	-160
▁ber	-161
▁bei	-162
▁unter	-163
▁ha	-164
▁pro	-165
▁all	-166
▁1	-167
la	-168
gt	-169
▁sind	-170
ien	-171
ehr	-172
men	-173
etz	-174
ern	-175
us	-176
ges	-177
om	-178
▁europ	-179
▁als	-180
och	-181
ah	-182
rei	-183
▁wie	-184
▁wird	-185
▁ab	-186
end	-187
ungs	-188
ver	-189
be	-190
▁nach	-191
mmen	-192
iss	-193
sten	-194
ön	-195
se	-196
▁(	-197
▁)	-198
wei	-199
▁sp	-200
scha	-201
tel	-202
iel	-203
▁her	-204
rä	-205
hal	-206
00	-207
▁2	-208
uch	-209
ort	-210
lie	-211
zu	-212
▁sein	-213
▁zur	-214
▁oder	-215
▁gr	-216
▁hat	-217
tig	-218
eil	-219
si	-220
sen	-221
▁kön	-222
schaft	-223
▁haben	-224
enn	-225
urch	-226
▁ar	-227
und	-228
ing	-229
he	-230
▁kon	-231
▁komm	-232
▁-	-233
tet	-234
fü	-235
▁europä	-236
▁einer	-237
ische	-238
▁ho	-239
lichen	-240
li	-241
ts	-242
uss	-243
▁unser	-244
for	-245
ang	-246
▁durch	-247
dern	-248
eiten	-249
▁mö	-250
ab	-251
ul	-252
aus	-253
ed	-254
▁diese	-255
ger	-256
oll	-257
schen	-258
hen	-259
▁par	-260
▁einen	-261
heit	-262
itä	-263
▁wei	-264
▁:	-265
tiv	-266
keit	-267
▁ra	-268
▁können	-269
fen	-270
all	-271
hn	-272
▁ma	-273
tern	-274
ot	-275
elt	-276
iti	-277
anz	-278
▁zum	-279
▁ste	-280
ück	-281
ess	-282
▁fra	-283
ut	-284
ün	-285
▁jahr	-286
wer	-287
glich	-288
her	-289
chen	-290
ik	-291
▁kommiss	-292
est	-293
▁wur	-294
▁am	-295
▁war	-296
är	-297
lo	-298
ad	-299
▁wenn	-300
▁'	-301
▁neu	-302
▁kann	-303
mmer	-304
iert	-305
ht	-306
ste	-307
igen	-308
▁einem	-309
ag	-310
ru	-311
ör	-312
aten	-313
hl	-314
mit	-315
ant	-316
stell	-317
utz	-318
eine	-319
liche	-320
du	-321
rie	-322
bar	-323
zi	-324
▁de	-325
▁herr	-326
qu	-327
ieren	-328
▁dieser	-329
▁en	-330
▁ander	-331
wi	-332
ken	-333
▁man	-334
▁nur	-335
▁la	-336
▁aber	-337
▁le	-338
ktion	-339
ehmen	-340
gr	-341
pf	-342
cht	-343
▁mü	-344
▁bet	-345
▁dar	-346
▁hin	-347
ko	-348
ffen	-349
▁zw	-350
▁gen	-351
chte	-352
bt	-353
▁ihre	-354
▁kommission	-355
▁prä	-356
geb	-357
sa	-358
▁gem	-359
oliti	-360
tier	-361
▁`	-362
▁!	-363
▁verb	-364
▁europäischen	-365
rit	-366
▁``	-367
ähr	-368
di	-369
▁soll	-370
ma	-371
ahl	-372
ers	-373
ok	-374
tra	-375
▁gl	-376
ität	-377
▁?	-378
siden	-379
lle	-380
ist	-381
ßen	-382
▁mehr	-383
▁müssen	-384
änder	-385
▁hotel	-386
▁noch	-387
che	-388
gel	-389
▁weiter	-390
▁was	-391
beit	-392
▁gesch	-393
▁gegen	-394
ierung	-395
glie	-396
▁gew	-397
tigen	-398
▁reg	-399
lei	-400
▁ih	-401
▁te	-402
ran	-403
▁sehr	-404
▁''	-405
etzt	-406
▁for	-407
sident	-408
ehen	-409
sta	-410
▁daß	-411
ekt	-412
eigen	-413
▁alle	-414
ner	-415
reich	-416
gra	-417
▁kl	-418
▁ch	-419
form	-420
▁sow	-421
▁bis	-422
▁wi	-423
▁lie	-424
ak	-425
ne	-426
os	-427
▁we	-428
wick	-429
pp	-430
▁gel	-431
bei	-432
enz	-433
ige	-434
führ	-435
▁mitglie	-436
lam	-437
▁men	-438
▁wurde	-439
▁hier	-440
atz	-441
▁200	-442
lä	-443
ass	-444
ord	-445
▁fin	-446
ic	-447
wend	-448
▁wo	-449
bl	-450
▁dieses	-451
▁je	-452
fahr	-453
▁union	-454
fer	-455
me	-456
▁ger	-457
▁gi	-458
▁gro	-459
▁mein	-460
tschaft	-461
▁diesem	-462
lin	-463
rü	-464
iz	-465
unden	-466
▁parlam	-467
äl	-468
▁präsident	-469
▁ihnen	-470
ational	-471
▁sicher	-472
▁zusa	-473
▁zwei	-474
▁son	-475
ütz	-476
▁geb	-477
▁parlament	-478
▁zusammen	-479
mal	-480
sam	-481
ßer	-482
sche	-483
▁the	-484
▁zeit	-485
▁entwick	-486
mp	-487
fol	-488
yst	-489
▁mo	-490
▁gemein	-491
..	-492
▁3	-493
nah	-494
▁eines	-495
lu	-496
iele	-497
▁sta	-498
schie	-499
ek	-500
acht	-501
land	-502
▁intern	-503
▁zwischen	-504
▁viel	-505
▁wich	-506
▁mitglied	-507
lung	-508
tige	-509
▁–	-510
org	-511
▁ins	-512
ystem	-513
llen	-514
timm	-515
ho	-516
chn	-517
änd	-518
▁welt	-519
▁möglich	-520
ga	-521
ationen	-522
teil	-523
ften	-524
▁vom	-525
og	-526
▁jed	-527
nehmen	-528
bst	-529
rin	-530
vor	-531
onder	-532
▁et	-533
ep	-534
▁ex	-535
kommen	-536
▁grund	-537
▁politi	-538
fe	-539
war	-540
halten	-541
zie	-542
▁19	-543
ster	-544
▁sel	-545
▁land	-546
▁vers	-547
▁th	-548
▁mar	-549
▁gibt	-550
igkeit	-551
lan	-552
ap	-553
öff	-554
▁bef	-555
▁ganz	-556
▁pers	-557
▁möchte	-558
▁menschen	-559
ild	-560
llt	-561
ühr	-562
▁eu	-563
▁hand	-564
▁eigen	-565
dem	-566
▁inter	-567
ast	-568
auf	-569
blem	-570
▁...	-571
▁ange	-572
staaten	-573
▁unterst	-574
▁europäische	-575
alt	-576
halb	-577
▁entsch	-578
eut	-579
▁bereit	-580
▁sowie	-581
▁bie	-582
▁unsere	-583
▁5	-584
pro	-585
▁besch	-586
▁vorsch	-587
uf	-588
ellen	-589
▁produ	-590
▁arbeit	-591
▁inform	-592
▁bericht	-593
▁wirtschaft	-594
▁ob	-595
▁to	-596
▁rat	-597
▁po	-598
we	-599
▁4	-600
äch	-601
▁qu	-602
▁sa	-603
▁muss	-604
▁keine	-605
▁unterstütz	-606
itz	-607
lick	-608
▁frau	-609
▁gleich	-610
▁teil	-611
ließ	-612
▁ihrer	-613
▁selbst	-614
ank	-615
▁wieder	-616
ha	-617
▁u	-618
ser	-619
▁dann	-620
▁anderen	-621
kl	-622
gend	-623
▁heu	-624
▁damit	-625
ov	-626
▁em	-627
▁ben	-628
▁immer	-629
nis	-630
▁seine	-631
▁verfü	-632
ill	-633
fach	-634
▁problem	-635
▁leben	-636
▁bed	-637
▁kont	-638
▁lei	-639
rauch	-640
ös	-641
tei	-642
gung	-643
iger	-644
zeu	-645
▁deut	-646
id	-647
wir	-648
▁ak	-649
▁europa	-650
ett	-651
▁mitgliedstaaten	-652
hin	-653
▁tra	-654
sicht	-655
▁bereich	-656
▁führ	-657
geben	-658
bes	-659
hand	-660
▁sol	-661
▁diesen	-662
▁ne	-663
rechen	-664
fra	-665
▁zi	-666
▁wurden	-667
hne	-668
luss	-669
▁nat	-670
▁neue	-671
▁and	-672
weise	-673
keiten	-674
äu	-675
itu	-676
art	-677
ler	-678
unkt	-679
achen	-680
ati	-681
gang	-682
▁“	-683
tive	-684
eln	-685
chts	-686
gesch	-687
ate	-688
fall	-689
nung	-690
chten	-691
enden	-692
▁inst	-693
forder	-694
bs	-695
▁haus	-696
▁ausge	-697
▁viele	-698
erk	-699
lag	-700
▁stra	-701
▁währ	-702
gl	-703
isse	-704
wort	-705
zial	-706
gramm	-707
zeich	-708
satz	-709
ischer	-710
einen	-711
▁beste	-712
spiel	-713
▁eben	-714
▁einz	-715
stellen	-716
zei	-717
▁bede	-718
▁ohne	-719
ändern	-720
mö	-721
ße	-722
▁su	-723
▁aut	-724
fahren	-725
halt	-726
trag	-727
▁ser	-728
att	-729
▁el	-730
▁ta	-731
erung	-732
innen	-733
lagen	-734
richt	-735
ält	-736
▁di	-737
▁fall	-738
▁mon	-739
▁fest	-740
▁komp	-741
▁mittel	-742
ats	-743
ehm	-744
imm	-745
per	-746
ierte	-747
ommen	-748
ob	-749
min	-750
ruck	-751
▁wen	-752
öffent	-753
▁jedoch	-754
▁wichtig	-755
▁international	-756
uß	-757
gie	-758
▁du	-759
zeit	-760
▁etw	-761
▁denn	-762
▁frei	-763
▁voll	-764
▁person	-765
▁gemeinsam	-766
▁unternehmen	-767
hör	-768
tik	-769
elle	-770
ionen	-771
▁ihren	-772
▁änder	-773
schieden	-774
▁„	-775
kon	-776
rum	-777
zen	-778
▁pri	-779
ständ	-780
▁habe	-781
▁bereits	-782
▁fre	-783
▁wür	-784
ke	-785
▁min	-786
▁einfach	-787
ard	-788
eite	-789
▁wel	-790
angen	-791
kte	-792
▁se	-793
▁grö	-794
mittel	-795
tur	-796
▁liegt	-797
ce	-798
ia	-799
adt	-800
▁gu	-801
setz	-802
▁wirk	-803
▁aller	-804
▁bek	-805
▁wor	-806
ichte	-807
ollen	-808
▁bit	-809
▁heute	-810
lau	-811
net	-812
ätz	-813
anis	-814
▁sondern	-815
▁entschei	-816
ven	-817
▁bür	-818
▁sollte	-819
▁system	-820
öl	-821
▁;	-822
ohl	-823
rag	-824
▁wä	-825
essen	-826
▁nutz	-827
licher	-828
▁finden	-829
gem	-830
▁me	-831
▁bel	-832
▁rei	-833
▁besonder	-834
od	-835
▁fr	-836
nahmen	-837
▁verein	-838
▁unserer	-839
wor	-840
▁li	-841
▁us	-842
▁schw	-843
▁jetzt	-844
▁spiel	-845
▁bietet	-846
fä	-847
ow	-848
ert	-849
lage	-850
ritt	-851
legen	-852
▁dara	-853
arbeit	-854
▁frage	-855
fern	-856
sich	-857
tigt	-858
▁kur	-859
▁richt	-860
pt	-861
kehr	-862
▁nun	-863
assen	-864
▁wissen	-865
ale	-866
▁co	-867
okra	-868
▁beg	-869
▁nie	-870
▁not	-871
indet	-872
▁neuen	-873
▁aussch	-874
▁kosten	-875
lü	-876
tre	-877
▁außer	-878
▁sicherheit	-879
▁is	-880
hält	-881
▁dir	-882
▁fol	-883
▁jahren	-884
▁entwicklung	-885
ve	-886
ffe	-887
▁hö	-888
alis	-889
▁gar	-890
stand	-891
tiert	-892
▁seit	-893
▁zahl	-894
tieren	-895
▁denen	-896
▁entsp	-897
▁recht	-898
▁ur	-899
▁%	-900
für	-901
äng	-902
▁on	-903
alen	-904
zahl	-905
▁spe	-906
▁mich	-907
▁daten	-908
▁zurück	-909
vi	-910
lug	-911
▁hau	-912
▁maß	-913
bewer	-914
uchen	-915
▁allen	-916
▁dabei	-917
▁bestimm	-918
pl	-919
ade	-920
mus	-921
sse	-922
ding	-923
oren	-924
▁dazu	-925
▁verw	-926
stellung	-927
▁beispiel	-928
hmen	-929
▁con	-930
▁per	-931
▁umf	-932
alität	-933
▁rechts	-934
▁während	-935
▁res	-936
▁prei	-937
▁them	-938
olitik	-939
▁andere	-940
▁finanz	-941
kun	-942
ris	-943
▁at	-944
▁ro	-945
▁ern	-946
▁gut	-947
▁weil	-948
▁techn	-949
unktion	-950
äm	-951
bau	-952
ktur	-953
▁ziel	-954
ät	-955
▁pl	-956
amen	-957
▁dis	-958
alten	-959
nisse	-960
▁könn	-961
▁waren	-962
els	-963
▁ja	-964
eicht	-965
▁erfol	-966
▁zimmer	-967
▁erreich	-968
▁verschieden	-969
omp	-970
▁20	-971
vers	-972
▁mus	-973
▁schn	-974
▁daher	-975
zent	-976
tellt	-977
beiten	-978
▁regel	-979
▁stand	-980
olog	-981
uten	-982
kunft	-983
▁lage	-984
▁darauf	-985
▁machen	-986
▁sozial	-987
▁national	-988
dr	-989
▁of	-990
esen	-991
ement	-992
▁doch	-993
▁zent	-994
▁bitte	-995
tischen	-996
▁sollten	-997
cken	-998
▁dien	-999
▁hoch	-1000
▁stadt	-1001
▁einige	-1002
ine	-1003
inn	-1004
olle	-1005
igung	-1006
nahme	-1007
dung	-1008
▁sti	-1009
▁tran	-1010
▁dafür	-1011
▁schon	-1012
organis	-1013
▁wollen	-1014
▁informationen	-1015
esse	-1016
licht	-1017
tisch	-1018
▁ener	-1019
▁form	-1020
▁letz	-1021
▁kolle	-1022
glichen	-1023
akt	-1024
von	-1025
▁frü	-1026
esten	-1027
▁rich	-1028
▁scha	-1029
▁sehen	-1030
▁bürger	-1031
▁seiten	-1032
ac	-1033
so	-1034
▁y	-1035
mar	-1036
annt	-1037
klär	-1038
tiven	-1039
▁bild	-1040
▁geht	-1041
ierten	-1042
ringen	-1043
tionen	-1044
▁rahmen	-1045
vic	-1046
spro	-1047
▁bar	-1048
▁hil	-1049
▁kein	-1050
▁region	-1051
▁notwend	-1052
our	-1053
ren	-1054
▁gef	-1055
▁ter	-1056
▁tro	-1057
ultur	-1058
▁jahre	-1059
▁meine	-1060
schaften	-1061
yp	-1062
age	-1063
▁get	-1064
▁gra	-1065
leist	-1066
▁abge	-1067
▁beim	-1068
▁best	-1069
▁rest	-1070
antwort	-1071
▁ersten	-1072
▁darüber	-1073
▁deshalb	-1074
▁vorschlag	-1075
ug	-1076
äß	-1077
aur	-1078
ere	-1079
zep	-1080
▁lu	-1081
▁ph	-1082
anden	-1083
▁gesam	-1084
▁würde	-1085
ungsant	-1086
▁lassen	-1087
▁seiner	-1088
▁kommissar	-1089
gar	-1090
▁bo	-1091
▁bew	-1092
▁stu	-1093
druck	-1094
▁etwas	-1095
▁öffent	-1096
▁demokra	-1097
▁funktion	-1098
zü	-1099
fin	-1100
▁lös	-1101
▁auss	-1102
ations	-1103
▁natür	-1104
lichkeit	-1105
io	-1106
wä	-1107
zug	-1108
▁fort	-1109
▁star	-1110
▁verst	-1111
▁kunden	-1112
mb	-1113
▁or	-1114
stra	-1115
▁pra	-1116
linie	-1117
▁gest	-1118
welt	-1119
▁beit	-1120
▁davon	-1121
▁geschä	-1122
▁6	-1123
rän	-1124
▁10	-1125
gabe	-1126
gehen	-1127
▁verbess	-1128
aut	-1129
ron	-1130
uer	-1131
amil	-1132
▁bin	-1133
▁inv	-1134
▁kin	-1135
isten	-1136
stimm	-1137
under	-1138
▁part	-1139
▁wahr	-1140
achten	-1141
lossen	-1142
ruktur	-1143
ließlich	-1144
ellschaft	-1145
▁7	-1146
▁]	-1147
fft	-1148
fte	-1149
tem	-1150
▁ru	-1151
nehm	-1152
▁tre	-1153
anken	-1154
▁drei	-1155
▁flug	-1156
▁proj	-1157
heiten	-1158
▁allem	-1159
▁einmal	-1160
▁einzel	-1161
▁stehen	-1162
genommen	-1163
ks	-1164
▁lo	-1165
▁op	-1166
ache	-1167
▁bas	-1168
▁erst	-1169
▁fahr	-1170
▁klar	-1171
lungen	-1172
ondere	-1173
▁geben	-1174
▁insbes	-1175
▁programm	-1176
▁verantwort	-1177
▁insbesondere	-1178
co	-1179
gew	-1180
▁it	-1181
eren	-1182
hlen	-1183
▁begr	-1184
▁empf	-1185
▁inner	-1186
möglich	-1187
undheit	-1188
ds	-1189
▁[	-1190
iet	-1191
ite	-1192
lex	-1193
▁ant	-1194
blick	-1195
grund	-1196
punkt	-1197
▁alles	-1198
ordnung	-1199
az	-1200
hö	-1201
000	-1202
ust	-1203
ange	-1204
sätz	-1205
zess	-1206
▁tun	-1207
▁groß	-1208
▁rück	-1209
derung	-1210
▁bezie	-1211
▁steht	-1212
eg	-1213
bil	-1214
hol	-1215
sto	-1216
▁lin	-1217
rache	-1218
▁inte	-1219
▁tats	-1220
▁wett	-1221
▁ergeb	-1222
▁ihrem	-1223
▁ausges	-1224
▁benutz	-1225
▁stellen	-1226
▁unseren	-1227
▁9	-1228
dien	-1229
fort	-1230
häng	-1231
▁hei	-1232
▁med	-1233
▁muß	-1234
▁dank	-1235
▁glau	-1236
▁lang	-1237
lassen	-1238
▁offen	-1239
ahn	-1240
ari	-1241
uen	-1242
▁15	-1243
ucht	-1244
▁mei	-1245
arbei	-1246
etzen	-1247
gaben	-1248
ritte	-1249
▁will	-1250
▁erklär	-1251
▁ländern	-1252
▁maßnahmen	-1253
sk	-1254
ktu	-1255
▁ti	-1256
▁art	-1257
▁deb	-1258
▁disk	-1259
▁priv	-1260
▁prof	-1261
▁jeder	-1262
▁markt	-1263
▁führen	-1264
▁meiner	-1265
▁energie	-1266
▁restaur	-1267
▁weitere	-1268
zw	-1269
len	-1270
ppe	-1271
ölk	-1272
▁br	-1273
ekte	-1274
▁ide	-1275
▁nah	-1276
asser	-1277
falls	-1278
▁posi	-1279
▁famil	-1280
▁kommen	-1281
▁wettbewer	-1282
▁gesundheit	-1283
xt	-1284
eig	-1285
ign	-1286
man	-1287
ware	-1288
▁fragen	-1289
▁verwend	-1290
det	-1291
▁ir	-1292
rise	-1293
▁dort	-1294
▁mill	-1295
gangen	-1296
tigung	-1297
▁absch	-1298
▁weise	-1299
bereich	-1300
▁brauch	-1301
▁kontro	-1302
▁worden	-1303
▁geschäft	-1304
▁natürlich	-1305
▁änderungsant	-1306
to	-1307
ald	-1308
▁sk	-1309
▁kre	-1310
▁wes	-1311
▁blei	-1312
▁verl	-1313
schein	-1314
▁statt	-1315
▁anwend	-1316
▁möchten	-1317
üb	-1318
los	-1319
sst	-1320
erik	-1321
ogen	-1322
oten	-1323
rist	-1324
unde	-1325
zeug	-1326
▁199	-1327
unter	-1328
▁grün	-1329
gestellt	-1330
▁entfern	-1331
▁politik	-1332
▁regierung	-1333
ay	-1334
ph	-1335
fäh	-1336
▁ad	-1337
▁mal	-1338
▁mir	-1339
racht	-1340
▁aktu	-1341
▁wäre	-1342
▁grenz	-1343
▁herrn	-1344
setzung	-1345
▁länder	-1346
▁umwelt	-1347
▁vielen	-1348
▁letzten	-1349
▁schnell	-1350
▁besonders	-1351
▁gemeinschaft	-1352
10	-1353
igt	-1354
atte	-1355
raum	-1356
umen	-1357
▁eff	-1358
▁för	-1359
führt	-1360
▁näch	-1361
assung	-1362
itäten	-1363
▁gehör	-1364
▁sagen	-1365
▁kultur	-1366
▁sowohl	-1367
▁internet	-1368
wirtschaft	-1369
ore	-1370
bild	-1371
ative	-1372
▁also	-1373
▁angeb	-1374
▁berich	-1375
▁schutz	-1376
▁probleme	-1377
mo	-1378
ünf	-1379
hang	-1380
iell	-1381
rich	-1382
▁bem	-1383
tische	-1384
▁erste	-1385
ierungs	-1386
▁direkt	-1387
▁organis	-1388
▁schluss	-1389
▁gä	-1390
▁pf	-1391
ennt	-1392
legt	-1393
▁kar	-1394
▁web	-1395
▁weg	-1396
dings	-1397
▁anzu	-1398
▁kurz	-1399
gleich	-1400
schutz	-1401
▁erwar	-1402
▁thema	-1403
▁zentra	-1404
▁eigenen	-1405
▁allerdings	-1406
ub	-1407
▁8	-1408
ckt	-1409
hil	-1410
hof	-1411
spr	-1412
▁ap	-1413
erne	-1414
▁bil	-1415
▁kam	-1416
▁euro	-1417
▁macht	-1418
▁heraus	-1419
▁lebens	-1420
▁partner	-1421
hä	-1422
bet	-1423
des	-1424
ens	-1425
gri	-1426
ärk	-1427
▁12	-1428
▁sy	-1429
vice	-1430
▁feh	-1431
▁uhr	-1432
ichts	-1433
▁wohl	-1434
▁aufge	-1435
▁dienst	-1436
▁gewähr	-1437
▁versch	-1438
▁unterstützung	-1439
im	-1440
fre	-1441
ide	-1442
▁18	-1443
aler	-1444
line	-1445
spar	-1446
wert	-1447
▁bau	-1448
▁zun	-1449
alien	-1450
stück	-1451
▁gele	-1452
▁situ	-1453
indung	-1454
▁klein	-1455
▁bedeut	-1456
igkeiten	-1457
▁befindet	-1458
▁personen	-1459
▁innerhalb	-1460
▁unterschie	-1461
bo	-1462
▁ö	-1463
▁ju	-1464
▁pa	-1465
▁tä	-1466
ppen	-1467
rank	-1468
▁end	-1469
▁fer	-1470
▁pal	-1471
▁anges	-1472
▁erwei	-1473
▁besser	-1474
▁bieten	-1475
▁kinder	-1476
▁parlaments	-1477
ni	-1478
ta	-1479
beh	-1480
ina	-1481
rom	-1482
▁wa	-1483
onen	-1484
stat	-1485
▁sei	-1486
lungs	-1487
zimmer	-1488
▁einge	-1489
▁hatte	-1490
ktionen	-1491
teilung	-1492
▁hervor	-1493
▁jahres	-1494
▁nutzen	-1495
▁persön	-1496
▁bedeutung	-1497
▁zusammenarbeit	-1498
ase	-1499
urg	-1500
▁üb	-1501
cher	-1502
ents	-1503
▁dür	-1504
inden	-1505
altung	-1506
▁seite	-1507
▁verpf	-1508
▁großen	-1509
▁hinaus	-1510
▁seinen	-1511
▁strate	-1512
▁welche	-1513
stimmung	-1514
▁erforder	-1515
▁&	-1516
ail	-1517
fiz	-1518
ies	-1519
▁fä	-1520
raft	-1521
rift	-1522
▁gru	-1523
markt	-1524
orgen	-1525
▁größ	-1526
zeitig	-1527
▁gener	-1528
▁inves	-1529
▁kommt	-1530
▁leist	-1531
▁trotz	-1532
agement	-1533
führung	-1534
▁folgen	-1535
▁forsch	-1536
▁gesetz	-1537
▁könnte	-1538
▁vertra	-1539
▁entfernt	-1540
▁verfügung	-1541
▁richtlinie	-1542
▁möglichkeit	-1543
ip	-1544
üh	-1545
eld	-1546
leg	-1547
one	-1548
▁nä	-1549
räge	-1550
▁tag	-1551
ander	-1552
ismus	-1553
neten	-1554
tlich	-1555
▁wahl	-1556
▁artik	-1557
▁namen	-1558
▁betrie	-1559
▁einsch	-1560
▁schwier	-1561
▁geschäfts	-1562
prä	-1563
▁inn	-1564
▁kri	-1565
halts	-1566
ister	-1567
änger	-1568
▁gute	-1569
abhäng	-1570
riften	-1571
▁natur	-1572
▁deutsch	-1573
▁institu	-1574
▁projekt	-1575
▁vertrag	-1576
▁erhalten	-1577
▁gegenüber	-1578
▁gesellschaft	-1579
com	-1580
▁kü	-1581
lass	-1582
▁mil	-1583
gegen	-1584
▁comp	-1585
▁ende	-1586
▁indi	-1587
▁verk	-1588
▁vert	-1589
rechte	-1590
treten	-1591
▁deren	-1592
▁große	-1593
▁hilfe	-1594
▁übern	-1595
▁zukunft	-1596
▁verfahren	-1597
▁zusammenhang	-1598
cen	-1599
fon	-1600
▁hä	-1601
▁ka	-1602
ende	-1603
haus	-1604
läss	-1605
wach	-1606
wand	-1607
ieten	-1608
▁fern	-1609
▁wach	-1610
▁zwar	-1611
ritten	-1612
▁staat	-1613
politik	-1614
▁allgem	-1615
▁gelegen	-1616
▁interess	-1617
▁erreichen	-1618
▁wirtschafts	-1619
▁gleichzeitig	-1620
▁x	-1621
kan	-1622
▁as	-1623
▁he	-1624
▁pr	-1625
▁sü	-1626
merk	-1627
▁gil	-1628
▁pol	-1629
▁konn	-1630
▁plan	-1631
▁russ	-1632
▁aktiv	-1633
▁gäste	-1634
▁schul	-1635
raucher	-1636
▁modern	-1637
▁stellt	-1638
▁entsprechen	-1639
▁schließlich	-1640
▁internationalen	-1641
ohn	-1642
abil	-1643
atur	-1644
dust	-1645
hung	-1646
rach	-1647
▁eng	-1648
durch	-1649
rifft	-1650
▁sitz	-1651
ferenz	-1652
▁jeden	-1653
▁beschä	-1654
▁besteht	-1655
▁bringen	-1656
▁meinung	-1657
▁staaten	-1658
▁arbeiten	-1659
▁politischen	-1660
▁unterschied	-1661
▁unterstützen	-1662
ßt	-1663
▁/	-1664
▁|	-1665
asst	-1666
▁nor	-1667
ragen	-1668
staat	-1669
▁benö	-1670
▁erfü	-1671
▁gilt	-1672
▁soft	-1673
▁autom	-1674
▁haupt	-1675
tigkeit	-1676
▁schwer	-1677
▁artikel	-1678
▁weniger	-1679
▁erweiter	-1680
▁wirklich	-1681
▁ausschuss	-1682
▁verschiedenen	-1683
po	-1684
ys	-1685
bel	-1686
ian	-1687
inen	-1688
rech	-1689
stän	-1690
▁gol	-1691
▁kli	-1692
▁vol	-1693
▁woch	-1694
sweise	-1695
▁bezug	-1696
▁genau	-1697
züglich	-1698
▁gerade	-1699
▁indust	-1700
spolitik	-1701
▁unserem	-1702
▁deutlich	-1703
ct	-1704
▁ä	-1705
chs	-1706
gor	-1707
hau	-1708
par	-1709
tag	-1710
anst	-1711
ünst	-1712
▁fir	-1713
▁glo	-1714
▁hel	-1715
▁uni	-1716
timmt	-1717
zeigt	-1718
äußer	-1719
▁anst	-1720
▁erhö	-1721
▁früh	-1722
▁verm	-1723
▁vier	-1724
annten	-1725
fragen	-1726
liegen	-1727
tragen	-1728
▁begrü	-1729
▁punkt	-1730
gesetzt	-1731
▁beiden	-1732
▁dessen	-1733
▁zweiten	-1734
▁außerdem	-1735
▁kollegen	-1736
prü	-1737
bung	-1738
eist	-1739
lüss	-1740
▁ihm	-1741
▁str	-1742
rigen	-1743
▁erwä	-1744
▁gesa	-1745
▁prak	-1746
isches	-1747
ließen	-1748
rieben	-1749
rieden	-1750
▁bedeu	-1751
fassung	-1752
verkehr	-1753
▁beteil	-1754
▁hinter	-1755
▁wasser	-1756
isierung	-1757
▁unabhäng	-1758
▁verbunden	-1759
rat	-1760
wär	-1761
▁fl	-1762
gbar	-1763
kten	-1764
ogra	-1765
stum	-1766
völk	-1767
weis	-1768
▁erk	-1769
▁hal	-1770
▁ihn	-1771
▁kap	-1772
▁zie	-1773
▁weit	-1774
dition	-1775
▁rolle	-1776
▁sogar	-1777
terstat	-1778
▁behand	-1779
▁halten	-1780
▁lösung	-1781
▁nichts	-1782
▁seinem	-1783
▁zugang	-1784
arbeiten	-1785
ierungen	-1786
▁beschäf	-1787
▁europas	-1788
▁meisten	-1789
sichtlich	-1790
▁schlussel	-1791
▁situation	-1792
▁präsidentin	-1793
ze	-1794
ech	-1795
mäß	-1796
▁14	-1797
▁bu	-1798
▁ca	-1799
dert	-1800
site	-1801
voll	-1802
werk	-1803
ziel	-1804
▁kor	-1805
▁rel	-1806
▁san	-1807
drück	-1808
▁char	-1809
▁schi	-1810
führen	-1811
roffen	-1812
▁aussp	-1813
▁außen	-1814
▁innov	-1815
▁klima	-1816
▁unver	-1817
▁viell	-1818
▁kleine	-1819
▁liefer	-1820
▁fortsch	-1821
▁wichtige	-1822
▁vielleicht	-1823
▁entscheiden	-1824
20	-1825
▁0	-1826
ehn	-1827
wür	-1828
zip	-1829
vidu	-1830
▁kom	-1831
▁pla	-1832
ategor	-1833
▁gehen	-1834
▁indem	-1835
▁einger	-1836
▁größer	-1837
▁nehmen	-1838
▁abgeord	-1839
▁ausgest	-1840
▁schrift	-1841
▁individu	-1842
▁geschichte	-1843
▁berichterstat	-1844
▁internationale	-1845
1.	-1846
äd	-1847
zer	-1848
▁30	-1849
▁ba	-1850
▁ei	-1851
iges	-1852
komm	-1853
lätz	-1854
▁bus	-1855
▁met	-1856
▁zer	-1857
recht	-1858
▁etwa	-1859
▁glob	-1860
nehmer	-1861
weisen	-1862
▁daran	-1863
▁jedes	-1864
▁neben	-1865
▁preis	-1866
▁dürfen	-1867
▁zusätz	-1868
▁minuten	-1869
▁nächsten	-1870
alisierung	-1871
▁ebenfalls	-1872
▁zahlreich	-1873
▁unterstützt	-1874
ue	-1875
hei	-1876
hlt	-1877
reg	-1878
tie	-1879
äum	-1880
▁af	-1881
▁fa	-1882
▁fe	-1883
euer	-1884
▁imm	-1885
▁usa	-1886
▁wün	-1887
frage	-1888
igten	-1889
platz	-1890
tiges	-1891
▁port	-1892
atisch	-1893
▁entst	-1894
▁ersch	-1895
▁genie	-1896
▁hinzu	-1897
▁bekannt	-1898
möglichen	-1899
▁brauchen	-1900
▁familien	-1901
▁sprechen	-1902
handlungen	-1903
▁vergangen	-1904
▁weiterhin	-1905
▁verantwortung	-1906
br	-1907
dio	-1908
tim	-1909
▁ac	-1910
▁kn	-1911
ater	-1912
ativ	-1913
burg	-1914
eigt	-1915
ital	-1916
sitz	-1917
▁fot	-1918
▁hät	-1919
▁leg	-1920
▁mul	-1921
▁new	-1922
▁ort	-1923
▁rom	-1924
ember	-1925
iesen	-1926
▁höch	-1927
▁mind	-1928
▁qual	-1929
▁rund	-1930
▁wohn	-1931
▁blick	-1932
▁einzu	-1933
▁wider	-1934
vention	-1935
ücksich	-1936
▁erfahr	-1937
▁glaube	-1938
▁online	-1939
▁partei	-1940
▁arbeits	-1941
▁einigen	-1942
▁kleinen	-1943
▁bestehen	-1944
▁produkte	-1945
▁umfassen	-1946
▁vorschlä	-1947
▁veröffent	-1948
▁berücksich	-1949
▁restaurant	-1950
▁deutschland	-1951
ium	-1952
ont	-1953
zus	-1954
agen	-1955
ante	-1956
ente	-1957
frei	-1958
immt	-1959
nete	-1960
port	-1961
weit	-1962
wirk	-1963
▁100	-1964
▁tür	-1965
teile	-1966
▁2009	-1967
▁darf	-1968
▁fast	-1969
▁wind	-1970
länder	-1971
ologie	-1972
reifen	-1973
vorsch	-1974
▁bleiben	-1975
▁gemacht	-1976
▁service	-1977
▁gemeinsame	-1978
ci	-1979
pr	-1980
▁’	-1981
ame	-1982
ans	-1983
are	-1984
arm	-1985
cke	-1986
itt	-1987
▁do	-1988
▁km	-1989
▁sh	-1990
rieg	-1991
uter	-1992
wohl	-1993
▁bal	-1994
▁blo	-1995
▁din	-1996
arten	-1997
▁konf	-1998
▁konk	-1999
▁park	-2000
▁wert	-2001
aussch	-2002
eichen	-2003
tungen	-2004
▁jewei	-2005
▁stimm	-2006
ächlich	-2007
▁gebiet	-2008
▁gesagt	-2009
▁hotels	-2010
▁install	-2011
▁treffen	-2012
▁univers	-2013
▁struktur	-2014
▁angelegen	-2015
▁industrie	-2016
▁politisch	-2017
▁verfügbar	-2018
▁verwendet	-2019
forderungen	-2020
▁verbraucher	-2021
.0	-2022
ka	-2023
amp	-2024
hnt	-2025
maß	-2026
ors	-2027
▁ev	-2028
▁tr	-2029
verb	-2030
▁bzw	-2031
▁del	-2032
▁hol	-2033
▁ren	-2034
atten	-2035
▁pass	-2036
▁prot	-2037
eitung	-2038
system	-2039
▁bevor	-2040
▁ihres	-2041
▁initi	-2042
▁krise	-2043
▁schön	-2044
▁sicht	-2045
▁vorge	-2046
▁beding	-2047
▁bevölk	-2048
▁spezie	-2049
▁wesent	-2050
▁debatte	-2051
▁investi	-2052
▁verkehr	-2053
▁website	-2054
▁ergebnis	-2055
▁richtung	-2056
▁standard	-2057
▁veränder	-2058
▁ermöglich	-2059
▁millionen	-2060
▁aussprache	-2061
▁produktion	-2062
▁dienstleist	-2063
▁änderungsantrag	-2064
amt	-2065
dit	-2066
ity	-2067
lik	-2068
ote	-2069
▁17	-2070
▁dr	-2071
▁lä	-2072
aket	-2073
ance	-2074
inst	-2075
▁dok	-2076
▁fil	-2077
▁kat	-2078
▁lau	-2079
▁sen	-2080
alter	-2081
attet	-2082
produ	-2083
reise	-2084
▁geld	-2085
▁tour	-2086
▁unbe	-2087
ession	-2088
hungen	-2089
reiben	-2090
▁datei	-2091
▁garan	-2092
▁lange	-2093
▁musik	-2094
▁äußer	-2095
▁amerik	-2096
▁ebenso	-2097
▁nieder	-2098
▁produkt	-2099
▁schritt	-2100
▁verfügt	-2101
▁einricht	-2102
▁software	-2103
geschlagen	-2104
▁notwendig	-2105
▁nationalen	-2106
tr	-2107
yn	-2108
fik	-2109
sol	-2110
▁1.	-2111
▁25	-2112
alog	-2113
bare	-2114
buch	-2115
gien	-2116
mals	-2117
tell	-2118
teri	-2119
urop	-2120
▁asp	-2121
▁bra	-2122
▁det	-2123
▁kun	-2124
▁max	-2125
▁off	-2126
▁oft	-2127
▁vis	-2128
▁zug	-2129
inter	-2130
itäts	-2131
zogen	-2132
▁2008	-2133
▁meer	-2134
denken	-2135
liches	-2136
licken	-2137
▁warum	-2138
▁werde	-2139
▁gehört	-2140
▁steuer	-2141
programm	-2142
▁italien	-2143
▁veranst	-2144
verfahren	-2145
▁bedeutet	-2146
▁gesamten	-2147
▁tatsache	-2148
▁weiteren	-2149
▁grundlage	-2150
▁vereinbar	-2151
▁entschließ	-2152
▁ermöglicht	-2153
▁gemeinsamen	-2154
iv	-2155
jen	-2156
ons	-2157
opp	-2158
ure	-2159
weg	-2160
▁fü	-2161
auss	-2162
bahn	-2163
edig	-2164
eile	-2165
fang	-2166
itär	-2167
▁far	-2168
▁ris	-2169
▁süd	-2170
eiden	-2171
frist	-2172
istor	-2173
▁nahe	-2174
▁prin	-2175
▁vide	-2176
▁wort	-2177
arität	-2178
setzen	-2179
▁franz	-2180
▁führt	-2181
▁kompl	-2182
merksam	-2183
unehmen	-2184
▁besten	-2185
▁frauen	-2186
▁integr	-2187
▁leider	-2188
▁preise	-2189
▁speich	-2190
▁verhin	-2191
▁könnten	-2192
▁version	-2193
▁russland	-2194
▁schaffen	-2195
▁anwendung	-2196
▁kontrolle	-2197
▁umsetzung	-2198
▁abstimmung	-2199
▁wettbewerbs	-2200
▁entscheidung	-2201
ix	-2202
iko	-2203
ond	-2204
tis	-2205
bank	-2206
ches	-2207
ingt	-2208
llig	-2209
sprä	-2210
ären	-2211
▁anw	-2212
▁dan	-2213
▁erg	-2214
▁fes	-2215
▁mär	-2216
llung	-2217
▁netz	-2218
▁span	-2219
gebung	-2220
stellt	-2221
▁anerk	-2222
▁betre	-2223
▁druck	-2224
▁elekt	-2225
▁falls	-2226
▁ganze	-2227
▁stärk	-2228
▁ziele	-2229
▁stabil	-2230
▁wunder	-2231
struktur	-2232
▁gegeben	-2233
▁zentral	-2234
▁haushalts	-2235
▁tradition	-2236
▁aufmerksam	-2237
▁landwirtschaft	-2238
ba	-2239
ca	-2240
fs	-2241
ly	-2242
hem	-2243
ins	-2244
urs	-2245
ute	-2246
▁16	-2247
▁50	-2248
.000	-2249
laub	-2250
obil	-2251
scht	-2252
▁jen	-2253
▁pun	-2254
affen	-2255
ziert	-2256
▁einw	-2257
▁weiß	-2258
▁werk	-2259
etzung	-2260
rechts	-2261
tliche	-2262
▁beein	-2263
▁hoffe	-2264
haltung	-2265
prochen	-2266
schinen	-2267
▁besuch	-2268
▁bisher	-2269
▁erfolg	-2270
▁gruppe	-2271
▁histor	-2272
▁keinen	-2273
▁mensch	-2274
▁obwohl	-2275
▁rechte	-2276
▁dennoch	-2277
▁erfolgr	-2278
▁handelt	-2279
▁prozess	-2280
▁mitarbei	-2281
▁qualität	-2282
▁entscheid	-2283
▁angenommen	-2284
▁politische	-2285
▁wahrschein	-2286
▁ermöglichen	-2287
▁entwicklungs	-2288
▁beispielsweise	-2289
cks	-2290
mbh	-2291
rop	-2292
ürz	-2293
▁24	-2294
▁40	-2295
cker	-2296
eits	-2297
ette	-2298
jahr	-2299
▁can	-2300
▁jan	-2301
▁prü	-2302
▁ruh	-2303
▁sub	-2304
daten	-2305
tifiz	-2306
tions	-2307
ächst	-2308
▁nähe	-2309
ichtet	-2310
nissen	-2311
▁akzep	-2312
▁ansch	-2313
▁darin	-2314
▁gebäu	-2315
▁platz	-2316
▁reihe	-2317
▁wegen	-2318
ssystem	-2319
▁design	-2320
▁findet	-2321
▁freund	-2322
▁kannst	-2323
▁solche	-2324
▁wählen	-2325
▁würden	-2326
zeichnet	-2327
▁komfort	-2328
▁ausdruck	-2329
▁gegenwär	-2330
▁hinblick	-2331
▁lösungen	-2332
▁transpar	-2333
▁bereichen	-2334
▁einzelnen	-2335
▁mitglieder	-2336
▁vorgeschlagen	-2337
va	-2338
200	-2339
als	-2340
ith	-2341
ror	-2342
öst	-2343
auft	-2344
ober	-2345
oper	-2346
ämpf	-2347
▁air	-2348
▁app	-2349
▁bad	-2350
▁ged	-2351
▁hän	-2352
▁sin	-2353
▁typ	-2354
ekten	-2355
ingen	-2356
tiger	-2357
▁anal	-2358
▁buch	-2359
▁fach	-2360
▁luft	-2361
▁nord	-2362
▁team	-2363
▁text	-2364
▁wein	-2365
spruch	-2366
▁entde	-2367
▁reise	-2368
▁jugend	-2369
▁kommun	-2370
▁landes	-2371
▁setzen	-2372
▁staats	-2373
▁vorher	-2374
zunehmen	-2375
▁ansicht	-2376
▁dadurch	-2377
▁einsatz	-2378
▁französ	-2379
▁konzent	-2380
▁übrigen	-2381
▁aufgrund	-2382
▁fraktion	-2383
▁interesse	-2384
▁entwickelt	-2385
▁ergebnisse	-2386
▁bedingungen	-2387
▁verschiedene	-2388
▁möglichkeiten	-2389
ou	-2390
▁*	-2391
ome	-2392
own	-2393
urf	-2394
able	-2395
eten	-2396
ings	-2397
usst	-2398
▁gab	-2399
▁nov	-2400
▁näm	-2401
▁sep	-2402
▁tau	-2403
▁zwe	-2404
akter	-2405
teilt	-2406
▁gmbh	-2407
▁mark	-2408
▁webs	-2409
beding	-2410
hilfen	-2411
lüssel	-2412
▁arbei	-2413
▁china	-2414
▁darum	-2415
▁frank	-2416
▁gerne	-2417
▁hohen	-2418
▁insel	-2419
▁kunst	-2420
▁stark	-2421
▁tages	-2422
▁zeigt	-2423
▁überw	-2424
jenigen	-2425
mitteln	-2426
ständig	-2427
▁besitz	-2428
▁empfeh	-2429
▁herzen	-2430
▁umfang	-2431
verständ	-2432
▁diskuss	-2433
▁fischer	-2434
▁nachhal	-2435
▁nämlich	-2436
▁betrifft	-2437
▁wachstum	-2438
▁enthalten	-2439
▁frühstück	-2440
▁verpflicht	-2441
▁wettbewerb	-2442
▁ausgestattet	-2443
pa	-2444
fäl	-2445
ile	-2446
tum	-2447
zif	-2448
▁up	-2449
gern	-2450
iken	-2451
iten	-2452
ränk	-2453
such	-2454
▁hum	-2455
▁kör	-2456
anten	-2457
baren	-2458
ennen	-2459
laden	-2460
lätze	-2461
ordin	-2462
seite	-2463
▁2010	-2464
▁flex	-2465
▁gere	-2466
▁kern	-2467
▁miss	-2468
▁such	-2469
▁tage	-2470
▁wann	-2471
tember	-2472
worten	-2473
▁beide	-2474
▁defin	-2475
▁ebene	-2476
▁ledig	-2477
▁lässt	-2478
▁super	-2479
▁zweif	-2480
gesehen	-2481
▁formul	-2482
▁gelten	-2483
minister	-2484
sidenten	-2485
▁fördern	-2486
▁klicken	-2487
▁kontakt	-2488
▁nachfol	-2489
▁unseres	-2490
▁wirksam	-2491
▁zentrum	-2492
▁lediglich	-2493
▁änderungen	-2494
▁wichtigsten	-2495
▁verhandlungen	-2496
▁menschenrechte	-2497
nu	-2498
dig	-2499
iew	-2500
ows	-2501
öhn	-2502
▁jo	-2503
dige	-2504
fung	-2505
iere	-2506
stru	-2507
uell	-2508
wahl	-2509
▁ehr	-2510
▁kan	-2511
▁lok	-2512
▁red	-2513
enzen	-2514
ument	-2515
utter	-2516
▁2007	-2517
▁euch	-2518
▁fünf	-2519
▁herz	-2520
▁mitt	-2521
▁türk	-2522
ativen	-2523
eister	-2524
gessen	-2525
ration	-2526
rieren	-2527
wissen	-2528
▁belie	-2529
▁bestä	-2530
▁hätte	-2531
▁rates	-2532
ländern	-2533
▁danken	-2534
▁erhält	-2535
▁erziel	-2536
▁handel	-2537
▁sonder	-2538
▁terror	-2539
▁themen	-2540
▁tragen	-2541
▁ausführ	-2542
▁dritten	-2543
▁instrum	-2544
▁überein	-2545
▁überprü	-2546
ategorien	-2547
▁benutzer	-2548
▁weltweit	-2549
▁deutschen	-2550
▁vertrauen	-2551
▁vorschläge	-2552
▁bevölkerung	-2553
▁tatsächlich	-2554
ib	-2555
ls	-2556
deu	-2557
por	-2558
uni	-2559
▁go	-2560
▁lö	-2561
arte	-2562
ator	-2563
klus	-2564
ment	-2565
sion	-2566
▁arm	-2567
▁log	-2568
▁sto	-2569
besch	-2570
leben	-2571
splan	-2572
sport	-2573
zeuge	-2574
▁abzu	-2575
▁arch	-2576
▁film	-2577
▁gewä	-2578
▁sekt	-2579
▁steu	-2580
essour	-2581
gesamt	-2582
öffnet	-2583
▁auszu	-2584
▁jedem	-2585
▁kraft	-2586
▁nacht	-2587
▁werte	-2588
▁ansatz	-2589
▁genehm	-2590
▁liegen	-2591
▁regeln	-2592
▁schwei	-2593
▁sollen	-2594
▁verfol	-2595
istische	-2596
sprechen	-2597
▁enthält	-2598
▁integra	-2599
▁überzeu	-2600
fähigkeit	-2601
▁genießen	-2602
▁gestellt	-2603
▁gestimmt	-2604
▁betroffen	-2605
▁insgesamt	-2606
bedingungen	-2607
▁demokratie	-2608
▁institution	-2609
▁wissenschaft	-2610
▁wahrscheinlich	-2611
th	-2612
ül	-2613
▁”	-2614
▁€	-2615
fil	-2616
gru	-2617
ive	-2618
rak	-2619
tes	-2620
tro	-2621
ühm	-2622
ants	-2623
auer	-2624
geln	-2625
hnen	-2626
plan	-2627
reis	-2628
zige	-2629
▁198	-2630
▁are	-2631
▁sag	-2632
▁säm	-2633
digen	-2634
griff	-2635
▁bank	-2636
▁eher	-2637
▁engl	-2638
▁höhe	-2639
▁janu	-2640
▁jede	-2641
ennung	-2642
handen	-2643
hunder	-2644
indust	-2645
legung	-2646
untern	-2647
▁angem	-2648
▁denke	-2649
▁ernst	-2650
▁mitte	-2651
▁mobil	-2652
▁solid	-2653
▁wenig	-2654
▁zuver	-2655
richten	-2656
wortern	-2657
▁bezahl	-2658
▁früher	-2659
▁kolleg	-2660
▁privat	-2661
▁präsen	-2662
einander	-2663
▁antwort	-2664
▁militär	-2665
istischen	-2666
▁arbeitsp	-2667
▁regionen	-2668
▁schritte	-2669
▁forschung	-2670
na	-2671
up	-2672
dat	-2673
iar	-2674
pen	-2675
seh	-2676
▁ag	-2677
▁bl	-2678
▁fo	-2679
▁vo	-2680
abon	-2681
eben	-2682
hend	-2683
ines	-2684
stet	-2685
▁bri	-2686
▁dra	-2687
▁mag	-2688
▁män	-2689
▁tat	-2690
▁trä	-2691
auber	-2692
chter	-2693
eitet	-2694
hotel	-2695
mmern	-2696
okoll	-2697
orden	-2698
▁gast	-2699
▁hohe	-2700
▁isra	-2701
▁liss	-2702
▁stil	-2703
▁stre	-2704
entrum	-2705
▁erlau	-2706
▁prior	-2707
▁rechn	-2708
rechend	-2709
▁anfang	-2710
▁bleibt	-2711
▁eindeu	-2712
▁hatten	-2713
▁helfen	-2714
▁körper	-2715
▁reform	-2716
▁suchen	-2717
▁unterk	-2718
▁zeigen	-2719
arbeitet	-2720
▁koordin	-2721
▁spielen	-2722
▁stimmen	-2723
▁versuch	-2724
▁vorauss	-2725
essourcen	-2726
industrie	-2727
▁abkommen	-2728
▁lissabon	-2729
▁verkehrs	-2730
▁vergessen	-2731
▁verstehen	-2732
▁wichtigen	-2733
bewertungen	-2734
▁bestimmten	-2735
▁jahrhunder	-2736
▁profession	-2737
▁zahlreiche	-2738
vorschriften	-2739
▁erweiterung	-2740
▁öffentliche	-2741
▁abgeordneten	-2742
▁erforderlich	-2743
▁hinsichtlich	-2744
sb	-2745
met	-2746
sei	-2747
sti	-2748
ume	-2749
▁na	-2750
▁no	-2751
▁pe	-2752
este	-2753
komp	-2754
stau	-2755
ufig	-2756
unge	-2757
zept	-2758
äter	-2759
▁ans	-2760
▁car	-2761
▁les	-2762
▁lux	-2763
▁mün	-2764
▁opf	-2765
▁tie	-2766
enten	-2767
icher	-2768
izien	-2769
rägen	-2770
stadt	-2771
techn	-2772
undes	-2773
▁aben	-2774
▁dein	-2775
▁down	-2776
▁ober	-2777
▁paar	-2778
▁sorg	-2779
▁tele	-2780
▁with	-2781
amerik	-2782
gesetz	-2783
▁bedür	-2784
▁behör	-2785
▁flexi	-2786
▁human	-2787
▁höher	-2788
▁reser	-2789
▁zudem	-2790
entwick	-2791
▁allein	-2792
▁festge	-2793
▁gewalt	-2794
▁januar	-2795
▁konnte	-2796
▁kredit	-2797
▁leicht	-2798
▁materi	-2799
▁meinen	-2800
▁sommer	-2801
▁strand	-2802
▁türkei	-2803
▁unterb	-2804
▁auftrag	-2805
▁derzeit	-2806
▁einzige	-2807
▁strateg	-2808
▁windows	-2809
sterreich	-2810
zeichnung	-2811
▁amerikan	-2812
▁bedeuten	-2813
▁beginnen	-2814
▁bereiche	-2815
▁computer	-2816
▁erreicht	-2817
▁haushalt	-2818
▁sozialen	-2819
▁untersch	-2820
▁zunächst	-2821
spräsident	-2822
▁charakter	-2823
▁schlüssel	-2824
▁verwenden	-2825
▁vorhanden	-2826
unternehmen	-2827
▁angemessen	-2828
▁diskussion	-2829
▁grundlegen	-2830
▁verbindung	-2831
▁verwendung	-2832
▁beziehungen	-2833
▁erfolgreich	-2834
▁mitarbeiter	-2835
ux	-2836
arf	-2837
int	-2838
orn	-2839
ret	-2840
tin	-2841
use	-2842
▁11	-2843
▁nu	-2844
▁pu	-2845
ande	-2846
gere	-2847
heim	-2848
häre	-2849
ieht	-2850
iens	-2851
kauf	-2852
mail	-2853
ness	-2854
rieb	-2855
text	-2856
tien	-2857
▁anp	-2858
▁ass	-2859
▁com	-2860
▁dig	-2861
▁fuß	-2862
▁gek	-2863
▁leu	-2864
▁tex	-2865
▁ähn	-2866
behör	-2867
ektiv	-2868
ffung	-2869
heben	-2870
▁2003	-2871
▁fehl	-2872
▁ther	-2873
▁tier	-2874
artige	-2875
finden	-2876
gerung	-2877
linien	-2878
reisen	-2879
strate	-2880
▁ereig	-2881
▁heißt	-2882
▁innen	-2883
▁krieg	-2884
▁liber	-2885
▁moder	-2886
▁reich	-2887
▁sieht	-2888
▁sport	-2889
▁wobei	-2890
▁woche	-2891
bildung	-2892
steller	-2893
▁dialog	-2894
▁fehler	-2895
▁ganzen	-2896
▁gefähr	-2897
▁sorgen	-2898
▁stelle	-2899
▁einheit	-2900
▁frieden	-2901
▁gesamte	-2902
▁konnten	-2903
▁mittler	-2904
zustellen	-2905
▁befinden	-2906
▁entgegen	-2907
▁mehrheit	-2908
▁position	-2909
▁verfügen	-2910
▁benötigen	-2911
▁verpflich	-2912
gesellschaft	-2913
▁ausschusses	-2914
▁übernachten	-2915
▁notwendigkeit	-2916
,5	-2917
con	-2918
get	-2919
pub	-2920
urt	-2921
wün	-2922
▁21	-2923
▁sc	-2924
abel	-2925
grün	-2926
lauf	-2927
load	-2928
ring	-2929
user	-2930
▁dom	-2931
▁est	-2932
▁mai	-2933
▁mot	-2934
▁org	-2935
▁rev	-2936
▁sor	-2937
anzen	-2938
haupt	-2939
mäßig	-2940
riter	-2941
stoff	-2942
volle	-2943
▁bade	-2944
▁begl	-2945
▁bein	-2946
▁gesp	-2947
▁lehr	-2948
▁prax	-2949
▁reag	-2950
▁stad	-2951
▁verf	-2952
▁verz	-2953
▁vill	-2954
estens	-2955
reiber	-2956
reiten	-2957
sphäre	-2958
▁geist	-2959
▁glück	-2960
▁licht	-2961
▁sagte	-2962
griffen	-2963
stausch	-2964
▁altern	-2965
▁anders	-2966
▁berühm	-2967
▁ferien	-2968
▁freien	-2969
▁gefahr	-2970
▁herren	-2971
▁später	-2972
▁stimme	-2973
▁vertre	-2974
▁zweite	-2975
abkommen	-2976
sprozess	-2977
▁anderer	-2978
▁angebot	-2979
▁aufgabe	-2980
▁bewusst	-2981
▁grenzen	-2982
▁größten	-2983
▁handels	-2984
▁mehrere	-2985
▁nutzung	-2986
▁sitzung	-2987
ausschuss	-2988
▁anspruch	-2989
▁aufgaben	-2990
▁bekommen	-2991
▁kontroll	-2992
▁richtige	-2993
▁bezüglich	-2994
▁september	-2995
▁versuchen	-2996
frastruktur	-2997
▁angesichts	-2998
▁interessen	-2999
▁sicherlich	-3000
▁verhindern	-3001
▁aufgenommen	-3002
▁gesundheits	-3003
▁integration	-3004
▁schriftlich	-3005
▁sicherheits	-3006
▁vergangenen	-3007
▁öffentlichen	-3008
▁entscheidungen	-3009
▁selbstverständ	-3010
30	-3011
▁à	-3012
ane	-3013
del	-3014
lös	-3015
tic	-3016
ule	-3017
eint	-3018
jähr	-3019
nitt	-3020
rang	-3021
ters	-3022
▁erf	-3023
▁fal	-3024
▁flü	-3025
▁fäh	-3026
▁obj	-3027
▁rot	-3028
▁spa	-3029
▁zuf	-3030
folge	-3031
fonds	-3032
halte	-3033
hilfe	-3034
kraft	-3035
onnen	-3036
wegen	-3037
ängen	-3038
▁agen	-3039
▁golf	-3040
▁iran	-3041
▁mode	-3042
▁muse	-3043
▁oper	-3044
▁post	-3045
▁raum	-3046
▁sinn	-3047
▁test	-3048
▁völk	-3049
▁west	-3050
chanis	-3051
haften	-3052
iarden	-3053
ichten	-3054
ierter	-3055
kosten	-3056
mmlung	-3057
▁augen	-3058
▁basis	-3059
▁exper	-3060
▁gemäß	-3061
▁schle	-3062
▁sinne	-3063
▁teile	-3064
▁urspr	-3065
▁verab	-3066
achtens	-3067
achtung	-3068
fordert	-3069
▁anzahl	-3070
▁binnen	-3071
▁bundes	-3072
▁detail	-3073
▁eingeb	-3074
▁kontak	-3075
▁meinem	-3076
▁meines	-3077
▁morgen	-3078
▁sonnen	-3079
▁spezif	-3080
▁sprach	-3081
▁wenige	-3082
▁betrieb	-3083
▁geführt	-3084
▁immobil	-3085
▁soziale	-3086
▁sprache	-3087
arbeitung	-3088
▁erfüllen	-3089
▁personal	-3090
▁zunehmen	-3091
▁bestimmte	-3092
▁genannten	-3093
▁leistungs	-3094
▁untersuch	-3095
▁auffassung	-3096
▁initiative	-3097
▁vorgesehen	-3098
▁österreich	-3099
▁geschlossen	-3100
▁nachfolgend	-3101
▁restaurants	-3102
▁fortschritte	-3103
▁unternehmens	-3104
▁anforderungen	-3105
▁unterkategorien	-3106
11	-3107
by	-3108
gn	-3109
tu	-3110
bür	-3111
flä	-3112
res	-3113
äst	-3114
▁mu	-3115
ffer	-3116
haft	-3117
lose	-3118
mehr	-3119
soft	-3120
▁alt	-3121
▁anb	-3122
▁dor	-3123
▁mod	-3124
▁sob	-3125
▁tab	-3126
annte	-3127
geber	-3128
iegen	-3129
▁camp	-3130
▁extr	-3131
▁grie	-3132
▁holz	-3133
▁iden	-3134
▁irak	-3135
▁juni	-3136
▁kauf	-3137
▁redu	-3138
▁schm	-3139
▁site	-3140
▁stär	-3141
fallen	-3142
gliche	-3143
liefer	-3144
ziehen	-3145
zieren	-3146
▁alten	-3147
▁beruf	-3148
▁deine	-3149
▁dinge	-3150
▁firma	-3151
▁kennt	-3152
▁nimmt	-3153
▁sonst	-3154
▁ständ	-3155
▁stück	-3156
▁tätig	-3157
▁video	-3158
bringen	-3159
erweise	-3160
mitglie	-3161
▁beginn	-3162
▁berlin	-3163
▁bilder	-3164
▁erneut	-3165
▁erster	-3166
▁israel	-3167
▁konfli	-3168
▁konkre	-3169
▁kontin	-3170
▁kooper	-3171
▁wochen	-3172
▁zahlen	-3173
▁braucht	-3174
▁familie	-3175
▁fordern	-3176
▁handeln	-3177
▁hochwer	-3178
▁jeweili	-3179
▁prozent	-3180
▁verring	-3181
▁wenigen	-3182
▁äußerst	-3183
maßnahmen	-3184
sprogramm	-3185
wirkungen	-3186
▁beziehen	-3187
▁gerichts	-3188
▁heutigen	-3189
▁modernen	-3190
▁november	-3191
▁angezeigt	-3192
▁antworten	-3193
▁beihilfen	-3194
▁erachtens	-3195
▁förderung	-3196
▁konferenz	-3197
▁protokoll	-3198
▁strategie	-3199
▁technolog	-3200
▁vergleich	-3201
▁innovation	-3202
▁milliarden	-3203
▁automatisch	-3204
▁information	-3205
▁regierungen	-3206
▁technischen	-3207
▁vereinigten	-3208
▁vorschriften	-3209
▁beschäftigung	-3210
▁institutionen	-3211
50	-3212
fi	-3213
ja	-3214
pe	-3215
ps	-3216
uz	-3217
ona	-3218
see	-3219
ult	-3220
vil	-3221
ktiv	-3222
lang	-3223
mann	-3224
wurf	-3225
würd	-3226
▁bre	-3227
▁cor	-3228
▁hom	-3229
▁kir	-3230
▁okt	-3231
▁pan	-3232
▁see	-3233
▁sur	-3234
▁ten	-3235
▁tri	-3236
altet	-3237
bauen	-3238
enter	-3239
etten	-3240
ielle	-3241
maßen	-3242
ograf	-3243
press	-3244
räfte	-3245
teten	-3246
unsch	-3247
ution	-3248
▁2000	-3249
▁beob	-3250
▁cent	-3251
▁dist	-3252
▁märz	-3253
▁room	-3254
▁stat	-3255
▁this	-3256
▁unge	-3257
▁zuge	-3258
anlage	-3259
astrop	-3260
gewöhn	-3261
handel	-3262
isiert	-3263
legten	-3264
spiele	-3265
teilen	-3266
▁danke	-3267
▁disku	-3268
▁kampf	-3269
▁multi	-3270
▁neuer	-3271
▁neues	-3272
dlichen	-3273
fordern	-3274
itieren	-3275
leisten	-3276
tierung	-3277
ämpfung	-3278
▁aktion	-3279
▁bemerk	-3280
▁eigene	-3281
▁extrem	-3282
▁garten	-3283
▁gesamt	-3284
▁irgend	-3285
▁praxis	-3286
▁sobald	-3287
▁sofort	-3288
▁untern	-3289
▁urlaub	-3290
▁beitrag	-3291
▁bildung	-3292
▁gehören	-3293
▁kapital	-3294
▁komplex	-3295
▁kontext	-3296
▁nachbar	-3297
▁spezial	-3298
▁straßen	-3299
▁arbeitet	-3300
▁download	-3301
▁erwarten	-3302
▁herunter	-3303
▁privaten	-3304
▁umgebung	-3305
▁fischerei	-3306
▁langfrist	-3307
▁möglichst	-3308
▁sämtliche	-3309
▁verbesser	-3310
▁zuverläss	-3311
▁diejenigen	-3312
▁verbessern	-3313
▁verordnung	-3314
▁willkommen	-3315
▁allgemeinen	-3316
▁kolleginnen	-3317
▁persönlichen	-3318
▁öffentlichkeit	-3319
▁präsidentschaft	-3320
fo	-3321
vo	-3322
za	-3323
heb	-3324
les	-3325
mod	-3326
ose	-3327
äre	-3328
▁..	-3329
▁ed	-3330
▁ii	-3331
▁ps	-3332
▁vö	-3333
feld	-3334
gest	-3335
iden	-3336
igur	-3337
imal	-3338
izin	-3339
last	-3340
nach	-3341
sekt	-3342
tete	-3343
tist	-3344
ände	-3345
önen	-3346
▁cas	-3347
▁don	-3348
▁dro	-3349
armon	-3350
aufen	-3351
hafen	-3352
hoben	-3353
ienen	-3354
ringt	-3355
setzt	-3356
tensi	-3357
terin	-3358
ützen	-3359
▁2002	-3360
▁bahn	-3361
▁berg	-3362
▁bill	-3363
▁dopp	-3364
▁fein	-3365
▁frem	-3366
▁gemü	-3367
▁hoff	-3368
▁host	-3369
▁idee	-3370
▁jähr	-3371
▁mann	-3372
▁volk	-3373
ektive	-3374
führer	-3375
kennen	-3376
laufen	-3377
orgung	-3378
stehen	-3379
▁apart	-3380
▁autor	-3381
▁befür	-3382
▁bewer	-3383
▁gutes	-3384
▁künst	-3385
▁liste	-3386
▁schla	-3387
▁setzt	-3388
▁volks	-3389
▁voran	-3390
▁weder	-3391
barkeit	-3392
ließend	-3393
ständen	-3394
▁exklus	-3395
▁häufig	-3396
▁paläst	-3397
▁server	-3398
▁voraus	-3399
▁vorber	-3400
▁völlig	-3401
▁wahlen	-3402
▁winter	-3403
▁ziehen	-3404
riterien	-3405
tzentrum	-3406
▁anderem	-3407
▁anfrage	-3408
▁gebäude	-3409
▁gezeigt	-3410
▁glauben	-3411
▁moderne	-3412
▁oktober	-3413
▁richtig	-3414
▁stunden	-3415
▁übersch	-3416
drücklich	-3417
▁behörden	-3418
▁einfache	-3419
▁erschein	-3420
▁versucht	-3421
▁vorgehen	-3422
management	-3423
▁verhalten	-3424
▁verlassen	-3425
▁einführung	-3426
▁eingesetzt	-3427
▁forschungs	-3428
▁frankreich	-3429
▁geschaffen	-3430
▁ressourcen	-3431
▁standpunkt	-3432
▁solidarität	-3433
▁vollständig	-3434
▁auswirkungen	-3435
▁investitionen	-3436
▁aufmerksamkeit	-3437
gs	-3438
ry	-3439
:00	-3440
how	-3441
ire	-3442
low	-3443
ril	-3444
utt	-3445
▁23	-3446
▁bi	-3447
ales	-3448
arch	-3449
falt	-3450
gelt	-3451
ight	-3452
nern	-3453
netz	-3454
sequ	-3455
sidi	-3456
sser	-3457
vier	-3458
▁197	-3459
▁dre	-3460
▁erl	-3461
▁fei	-3462
▁gre	-3463
▁jem	-3464
▁kos	-3465
▁len	-3466
▁liz	-3467
▁mac	-3468
▁mom	-3469
aktiv	-3470
paket	-3471
ritts	-3472
scher	-3473
älter	-3474
▁2001	-3475
▁2005	-3476
▁afri	-3477
▁atmo	-3478
▁comm	-3479
▁dich	-3480
▁drin	-3481
▁ehem	-3482
▁frie	-3483
▁jene	-3484
▁rats	-3485
▁rede	-3486
▁sach	-3487
▁spra	-3488
▁temp	-3489
▁woll	-3490
▁zehn	-3491
gebiet	-3492
kontro	-3493
schine	-3494
tigten	-3495
weiten	-3496
▁absol	-3497
▁damen	-3498
▁fisch	-3499
▁folge	-3500
▁guten	-3501
▁homep	-3502
▁klass	-3503
▁links	-3504
▁metho	-3505
▁poten	-3506
▁terra	-3507
▁zivil	-3508
hältnis	-3509
reichen	-3510
version	-3511
ziehung	-3512
▁belieb	-3513
▁einzig	-3514
▁leiden	-3515
▁reserv	-3516
▁schwar	-3517
▁vertei	-3518
▁völker	-3519
▁wunsch	-3520
etzungen	-3521
▁aspekte	-3522
▁einiger	-3523
▁erklärt	-3524
▁konstru	-3525
▁spieler	-3526
▁gefunden	-3527
▁parteien	-3528
▁stellung	-3529
▁weiteres	-3530
lichkeiten	-3531
▁erstellen	-3532
▁vorliegen	-3533
▁zufrieden	-3534
▁ausgezeich	-3535
▁entwickeln	-3536
▁immobilien	-3537
▁mitteilung	-3538
▁regierungs	-3539
▁stabilität	-3540
▁übernehmen	-3541
▁gewährleist	-3542
▁präsidenten	-3543
▁stadtzentrum	-3544
▁angelegenheit	-3545
▁gewährleisten	-3546
▁entsprechenden	-3547
▁angelegenheiten	-3548
▁wirtschaftliche	-3549
ud	-3550
ark	-3551
ary	-3552
ban	-3553
han	-3554
ira	-3555
ish	-3556
osi	-3557
sel	-3558
tzu	-3559
ämp	-3560
äne	-3561
▁13	-3562
▁eg	-3563
▁zä	-3564
geht	-3565
ielt	-3566
pfel	-3567
pfen	-3568
reib	-3569
sent	-3570
tran	-3571
utzt	-3572
ynam	-3573
▁agr	-3574
▁bud	-3575
▁cli	-3576
▁dez	-3577
▁ham	-3578
▁loc	-3579
▁zul	-3580
eilen	-3581
eller	-3582
elles	-3583
ernen	-3584
fahrt	-3585
inner	-3586
ition	-3587
kommt	-3588
lüsse	-3589
sende	-3590
weder	-3591
wesen	-3592
▁acht	-3593
▁brei	-3594
▁kürz	-3595
▁mass	-3596
▁real	-3597
▁vari	-3598
▁wand	-3599
aktion	-3600
attung	-3601
formen	-3602
ission	-3603
karten	-3604
publik	-3605
schung	-3606
sicher	-3607
▁analy	-3608
▁beant	-3609
▁email	-3610
▁ergän	-3611
▁erheb	-3612
▁guter	-3613
▁hause	-3614
▁näher	-3615
▁schwe	-3616
▁staff	-3617
▁tagen	-3618
▁unten	-3619
▁villa	-3620
tischer	-3621
wertung	-3622
▁absatz	-3623
▁bedürf	-3624
▁berech	-3625
▁bilden	-3626
▁forder	-3627
▁krimin	-3628
▁medien	-3629
▁moment	-3630
▁monate	-3631
▁punkte	-3632
▁risiko	-3633
▁seines	-3634
▁servic	-3635
▁teilen	-3636
▁ändern	-3637
anderung	-3638
▁agentur	-3639
▁auswahl	-3640
▁dokumen	-3641
▁durchge	-3642
▁gründen	-3643
▁medizin	-3644
konferenz	-3645
▁bedenken	-3646
▁darunter	-3647
▁genommen	-3648
▁speziell	-3649
▁verständ	-3650
▁zweitens	-3651
▁erfahrung	-3652
▁flughafen	-3653
▁maschinen	-3654
▁schaffung	-3655
geschlossen	-3656
▁eigentlich	-3657
▁mindestens	-3658
▁datenschutz	-3659
▁einrichtung	-3660
▁kommissarin	-3661
▁transparenz	-3662
▁entsprechend	-3663
▁informations	-3664
▁verbesserung	-3665
▁infrastruktur	-3666
▁ratspräsident	-3667
▁veröffentlich	-3668
▁demokratischen	-3669
-1	-3670
.1	-3671
dy	-3672
gi	-3673
yl	-3674
adr	-3675
app	-3676
ath	-3677
clu	-3678
ect	-3679
mel	-3680
oni	-3681
ott	-3682
que	-3683
uld	-3684
ums	-3685
unt	-3686
äte	-3687
▁ip	-3688
▁nr	-3689
▁sw	-3690
eien	-3691
lleg	-3692
tung	-3693
▁blu	-3694
▁brü	-3695
▁hör	-3696
▁jün	-3697
▁ost	-3698
▁pre	-3699
▁sal	-3700
annen	-3701
etter	-3702
heits	-3703
liegt	-3704
losen	-3705
sehen	-3706
örter	-3707
ücken	-3708
▁auft	-3709
▁auto	-3710
▁beru	-3711
▁eleg	-3712
▁kind	-3713
▁resp	-3714
▁sign	-3715
dessen	-3716
innern	-3717
langen	-3718
nungen	-3719
spunkt	-3720
tierte	-3721
zeigen	-3722
▁april	-3723
▁armut	-3724
▁geeig	-3725
▁illeg	-3726
▁letzt	-3727
▁optim	-3728
▁paris	-3729
▁somit	-3730
▁stren	-3731
▁trans	-3732
▁zweck	-3733
bericht	-3734
eichter	-3735
stimmen	-3736
vertrag	-3737
vorsitz	-3738
▁danach	-3739
▁dienen	-3740
▁freuen	-3741
▁größte	-3742
▁harmon	-3743
▁irland	-3744
▁länger	-3745
▁normal	-3746
gebracht	-3747
▁ausgang	-3748
▁begrenz	-3749
▁erwähnt	-3750
▁gerecht	-3751
▁prinzip	-3752
▁scheint	-3753
▁systeme	-3754
▁umfasst	-3755
▁wünsche	-3756
▁zuletzt	-3757
▁ausreich	-3758
▁begrüßen	-3759
▁benutzen	-3760
▁benötigt	-3761
▁dezember	-3762
▁elektron	-3763
▁erinnern	-3764
▁homepage	-3765
▁leistung	-3766
▁minister	-3767
▁nationen	-3768
▁regelung	-3769
▁unmittel	-3770
▁währungs	-3771
▁änderung	-3772
▁aktuellen	-3773
▁angegeben	-3774
▁außerhalb	-3775
▁eindeutig	-3776
▁erklärung	-3777
▁kostenlos	-3778
▁niederlan	-3779
▁richtigen	-3780
ellschaften	-3781
▁bekämpfung	-3782
▁technische	-3783
▁entschieden	-3784
▁erfahrungen	-3785
▁bestimmungen	-3786
▁eingerichtet	-3787
▁einrichtungen	-3788
▁veränderungen	-3789
▁berücksichtigt	-3790
da	-3791
xi	-3792
ym	-3793
ake	-3794
cel	-3795
dam	-3796
eht	-3797
era	-3798
kor	-3799
ole	-3800
str	-3801
unk	-3802
züg	-3803
▁äg	-3804
▁öl	-3805
chem	-3806
elte	-3807
iete	-3808
sprü	-3809
uren	-3810
vent	-3811
wohn	-3812
▁amb	-3813
▁ank	-3814
▁bro	-3815
▁clu	-3816
▁erd	-3817
▁erm	-3818
▁etc	-3819
▁hig	-3820
▁lat	-3821
▁mel	-3822
▁urs	-3823
▁usw	-3824
▁van	-3825
fälle	-3826
grenz	-3827
reibt	-3828
rimin	-3829
sätze	-3830
▁chem	-3831
▁einf	-3832
▁erle	-3833
▁laut	-3834
▁oben	-3835
▁play	-3836
▁rech	-3837
▁vern	-3838
dienst	-3839
gruppe	-3840
leisch	-3841
rinzip	-3842
wasser	-3843
▁aufzu	-3844
▁behin	-3845
▁digit	-3846
▁event	-3847
▁getan	-3848
▁laden	-3849
▁meter	-3850
▁älter	-3851
mittelt	-3852
reibung	-3853
tlichen	-3854
zentrum	-3855
▁aufent	-3856
▁daraus	-3857
▁derzei	-3858
▁erhöht	-3859
▁fahren	-3860
▁höchst	-3861
▁laufen	-3862
▁regist	-3863
▁studen	-3864
einricht	-3865
issionen	-3866
zeichnen	-3867
▁angaben	-3868
▁archite	-3869
▁ausland	-3870
▁begrüße	-3871
▁bestand	-3872
▁endlich	-3873
▁erfolgt	-3874
▁erlaubt	-3875
▁gruppen	-3876
▁jeweils	-3877
▁sorgfäl	-3878
▁systems	-3879
▁verbind	-3880
▁vorrang	-3881
▁zuständ	-3882
▁betriebs	-3883
▁dokument	-3884
▁dringend	-3885
▁effizien	-3886
▁entweder	-3887
▁erfahren	-3888
▁kompeten	-3889
▁komplett	-3890
▁sprachen	-3891
▁wünschen	-3892
stellungen	-3893
▁abschluss	-3894
▁behandelt	-3895
▁beteiligt	-3896
▁geschieht	-3897
▁kriterien	-3898
▁schwierig	-3899
▁wiederhol	-3900
▁zeitpunkt	-3901
▁atmosphäre	-3902
▁informiert	-3903
▁verbessert	-3904
▁zusätzlich	-3905
▁persönliche	-3906
▁unternommen	-3907
▁entschlossen	-3908
▁wesentlichen	-3909
▁entschließung	-3910
▁konzentrieren	-3911
▁einschließlich	-3912
▁veröffentlicht	-3913
cc	-3914
fl	-3915
ww	-3916
▁+	-3917
ala	-3918
ano	-3919
aul	-3920
ces	-3921
cri	-3922
grö	-3923
ice	-3924
ini	-3925
ino	-3926
til	-3927
tit	-3928
vel	-3929
vid	-3930
ych	-3931
▁22	-3932
▁60	-3933
▁fu	-3934
▁si	-3935
▁är	-3936
aren	-3937
berg	-3938
erst	-3939
fast	-3940
meer	-3941
proj	-3942
riff	-3943
stag	-3944
stör	-3945
will	-3946
wimm	-3947
wind	-3948
zern	-3949
ängt	-3950
▁11.	-3951
▁ind	-3952
▁lab	-3953
▁lag	-3954
▁mat	-3955
▁mer	-3956
▁vir	-3957
▁öff	-3958
barer	-3959
ckung	-3960
ction	-3961
dient	-3962
ellos	-3963
elten	-3964
ender	-3965
eting	-3966
gangs	-3967
iness	-3968
ision	-3969
karte	-3970
lasse	-3971
nungs	-3972
räume	-3973
schul	-3974
werke	-3975
▁2006	-3976
▁bald	-3977
▁flor	-3978
▁fran	-3979
▁haup	-3980
▁kaum	-3981
▁kurs	-3982
▁lauf	-3983
▁perf	-3984
▁rein	-3985
▁slow	-3986
▁well	-3987
fläche	-3988
freund	-3989
gungen	-3990
ograph	-3991
schlag	-3992
senden	-3993
wirken	-3994
ändert	-3995
▁agrar	-3996
▁angen	-3997
▁attra	-3998
▁bedro	-3999
▁berat	-4000
▁dauer	-4001
▁dritt	-4002
▁erzeu	-4003
▁exist	-4004
▁falle	-4005
▁karte	-4006
▁lesen	-4007
▁monat	-4008
▁offiz	-4009
▁opfer	-4010
▁osten	-4011
▁regul	-4012
▁siehe	-4013
▁suche	-4014
▁train	-4015
▁wechs	-4016
▁zuges	-4017
altungs	-4018
anlagen	-4019
bilität	-4020
erseits	-4021
ikation	-4022
ulation	-4023
ühungen	-4024
▁bedarf	-4025
▁debian	-4026
▁keiner	-4027
▁legiti	-4028
▁sehens	-4029
▁status	-4030
▁termin	-4031
arischen	-4032
sammlung	-4033
zusetzen	-4034
▁betonen	-4035
▁gesehen	-4036
▁gewesen	-4037
▁gleiche	-4038
▁haltung	-4039
▁konsequ	-4040
▁leisten	-4041
▁telefon	-4042
▁versich	-4043
▁welcher	-4044
alisieren	-4045
forderung	-4046
▁bestimmt	-4047
▁eindruck	-4048
▁einzelne	-4049
▁erzielen	-4050
▁gewinnen	-4051
▁mechanis	-4052
▁trotzdem	-4053
▁allgemein	-4054
▁beitragen	-4055
▁besondere	-4056
▁empfehlen	-4057
▁mitglieds	-4058
▁programme	-4059
entwicklung	-4060
▁beeindruck	-4061
▁engagement	-4062
▁entstanden	-4063
▁garantiert	-4064
▁jeweiligen	-4065
▁management	-4066
▁umfassende	-4067
▁verabschie	-4068
▁verfassung	-4069
▁anerkennung	-4070
▁anwendungen	-4071
▁fortschritt	-4072
▁gegenwärtig	-4073
▁genehmigung	-4074
▁hintergrund	-4075
▁jahrhundert	-4076
▁profitieren	-4077
▁vorschlagen	-4078
möglichkeiten	-4079
▁entsprechende	-4080
▁französischen	-4081
▁mitgliedstaat	-4082
▁partnerschaft	-4083
▁möglicherweise	-4084
▁verpflichtungen	-4085
12	-4086
af	-4087
ai	-4088
do	-4089
fa	-4090
ml	-4091
ms	-4092
▁é	-4093
ada	-4094
ana	-4095
anb	-4096
die	-4097
dis	-4098
eff	-4099
haf	-4100
hop	-4101
ink	-4102
izi	-4103
kap	-4104
liz	-4105
ols	-4106
ong	-4107
out	-4108
ovo	-4109
sor	-4110
ude	-4111
▁29	-4112
▁by	-4113
▁nö	-4114
▁wh	-4115
auen	-4116
hler	-4117
künf	-4118
lern	-4119
othe	-4120
stre	-4121
ufen	-4122
uver	-4123
zone	-4124
äuft	-4125
▁adr	-4126
▁arg	-4127
▁cle	-4128
▁flä	-4129
▁fri	-4130
▁gül	-4131
▁hor	-4132
▁kil	-4133
▁mig	-4134
▁mor	-4135
▁pap	-4136
▁rec	-4137
berge	-4138
hafte	-4139
stein	-4140
unkte	-4141
uropa	-4142
▁2004	-4143
▁enor	-4144
▁haft	-4145
▁heim	-4146
▁kenn	-4147
▁komb	-4148
▁kons	-4149
▁leit	-4150
▁mand	-4151
▁mess	-4152
▁nega	-4153
▁sonn	-4154
▁städ	-4155
▁trag	-4156
▁very	-4157
▁ägyp	-4158
aturen	-4159
sektor	-4160
stelle	-4161
steuer	-4162
stoffe	-4163
uellen	-4164
zeiten	-4165
▁abend	-4166
▁einbe	-4167
▁enter	-4168
▁halte	-4169
▁könig	-4170
▁küche	-4171
▁menge	-4172
▁niedr	-4173
▁renov	-4174
▁sache	-4175
▁sechs	-4176
amerika	-4177
ichtete	-4178
institu	-4179
meister	-4180
olution	-4181
wachsen	-4182
▁abhäng	-4183
▁antrag	-4184
▁aufbau	-4185
▁christ	-4186
▁erwähn	-4187
▁ferner	-4188
▁festzu	-4189
▁großer	-4190
▁hoffen	-4191
▁karten	-4192
▁lernen	-4193
▁prüfen	-4194
▁soweit	-4195
▁trifft	-4196
▁waffen	-4197
▁zukünf	-4198
altungen	-4199
funktion	-4200
gerungen	-4201
mitglied	-4202
stattung	-4203
ständige	-4204
verkehrs	-4205
▁basiert	-4206
▁bessere	-4207
▁dateien	-4208
▁details	-4209
▁einkauf	-4210
▁erfüllt	-4211
▁erhöhen	-4212
▁genutzt	-4213
▁kleiner	-4214
▁lokalen	-4215
▁maximal	-4216
▁nachdem	-4217
▁offenen	-4218
▁schließ	-4219
▁seitens	-4220
▁solchen	-4221
▁statist	-4222
▁studien	-4223
▁ständig	-4224
▁stärken	-4225
▁ursprün	-4226
▁verkauf	-4227
▁welches	-4228
strategie	-4229
▁berichts	-4230
▁eigentum	-4231
▁erwartet	-4232
▁freiheit	-4233
▁gebieten	-4234
▁gebracht	-4235
▁griechen	-4236
▁herzlich	-4237
▁projekte	-4238
▁schweden	-4239
▁vertrags	-4240
▁angeboten	-4241
▁aufnehmen	-4242
▁entstehen	-4243
▁erscheint	-4244
▁jederzeit	-4245
▁katastrop	-4246
▁klimawand	-4247
▁kommenden	-4248
▁nationale	-4249
▁überhaupt	-4250
licherweise	-4251
▁behandlung	-4252
▁bemühungen	-4253
▁besonderen	-4254
▁unabhängig	-4255
▁weltweiten	-4256
▁zustimmung	-4257
▁aktivitäten	-4258
▁bürgerinnen	-4259
▁gerichtshof	-4260
▁zusätzliche	-4261
▁historischen	-4262
▁vereinbarung	-4263
▁verpflichtet	-4264
▁arbeitsplätze	-4265
▁gemeinschafts	-4266
▁vergangenheit	-4267
▁übereinkommen	-4268
▁verantwortlich	-4269
▁berücksichtigen	-4270
80	-4271
fu	-4272
tp	-4273
zb	-4274
ée	-4275
,00	-4276
ali	-4277
bad	-4278
bit	-4279
bus	-4280
dri	-4281
ieg	-4282
kra	-4283
pla	-4284
rad	-4285
urn	-4286
▁2.	-4287
▁ce	-4288
▁fi	-4289
▁ga	-4290
▁mi	-4291
/200	-4292
apan	-4293
ards	-4294
auso	-4295
bert	-4296
best	-4297
cket	-4298
ffet	-4299
fühl	-4300
ison	-4301
izei	-4302
leun	-4303
länd	-4304
ourn	-4305
rien	-4306
tags	-4307
team	-4308
zehn	-4309
äden	-4310
änge	-4311
▁bot	-4312
▁che	-4313
▁dän	-4314
▁eis	-4315
▁kop	-4316
▁mex	-4317
▁pat	-4318
▁pop	-4319
▁rie	-4320
▁seh	-4321
▁sek	-4322
▁sem	-4323
▁sim	-4324
▁you	-4325
dingt	-4326
ektor	-4327
erzie	-4328
hören	-4329
inger	-4330
ments	-4331
risen	-4332
ränkt	-4333
schir	-4334
union	-4335
uropä	-4336
verst	-4337
▁bewe	-4338
▁cons	-4339
▁fair	-4340
▁ging	-4341
▁hält	-4342
▁java	-4343
▁mail	-4344
▁nahr	-4345
▁news	-4346
▁spei	-4347
▁symb	-4348
▁uner	-4349
▁wien	-4350
akfast	-4351
annung	-4352
artner	-4353
banken	-4354
digung	-4355
haltet	-4356
indest	-4357
kultur	-4358
ranken	-4359
rennen	-4360
stands	-4361
vollen	-4362
▁armen	-4363
▁betra	-4364
▁brüss	-4365
▁dynam	-4366
▁erfre	-4367
▁erneu	-4368
▁finde	-4369
▁genug	-4370
▁günst	-4371
▁ideal	-4372
▁japan	-4373
▁klare	-4374
▁manch	-4375
▁meist	-4376
▁paket	-4377
▁psych	-4378
▁roman	-4379
▁schen	-4380
▁titel	-4381
bestimm	-4382
dienste	-4383
führten	-4384
nehmern	-4385
quellen	-4386
tigungs	-4387
zeption	-4388
▁banken	-4389
▁center	-4390
▁chines	-4391
▁diesbe	-4392
▁inhalt	-4393
▁kombin	-4394
▁latein	-4395
▁lizenz	-4396
▁minder	-4397
▁museum	-4398
▁nahezu	-4399
▁sauber	-4400
▁schlaf	-4401
▁verurs	-4402
atischen	-4403
qualität	-4404
wachstum	-4405
▁anderes	-4406
▁annahme	-4407
▁anstren	-4408
▁fernseh	-4409
▁fremden	-4410
▁genauso	-4411
▁general	-4412
▁gericht	-4413
▁geschle	-4414
▁gewisse	-4415
▁intensi	-4416
▁komprom	-4417
▁konzept	-4418
▁mindest	-4419
▁ordnung	-4420
▁rechten	-4421
▁schulen	-4422
▁schweiz	-4423
▁schönen	-4424
▁vorsitz	-4425
▁währung	-4426
▁zerstör	-4427
sicherung	-4428
▁business	-4429
▁deutsche	-4430
▁effektiv	-4431
▁erstellt	-4432
▁geworden	-4433
▁hinsicht	-4434
▁rechnung	-4435
▁republik	-4436
▁webseite	-4437
▁zurückge	-4438
▁zurückzu	-4439
▁überwach	-4440
richtlinie	-4441
ungsantrag	-4442
▁breakfast	-4443
▁gegenteil	-4444
▁getroffen	-4445
▁kommerzie	-4446
▁möglichen	-4447
▁reagieren	-4448
▁regionale	-4449
▁unbedingt	-4450
▁vermeiden	-4451
▁vertreter	-4452
▁wundersch	-4453
▁allgemeine	-4454
▁unterkunft	-4455
▁vereinfach	-4456
▁zweifellos	-4457
▁beteiligung	-4458
▁binnenmarkt	-4459
▁garantieren	-4460
▁kooperation	-4461
▁prioritäten	-4462
▁ratsvorsitz	-4463
▁menschenrechts	-4464
▁schwierigkeiten	-4465
-0	-4466
5.	-4467
cd	-4468
cu	-4469
fr	-4470
nö	-4471
sf	-4472
wo	-4473
zä	-4474
ón	-4475
...	-4476
aff	-4477
eto	-4478
hes	-4479
ica	-4480
ise	-4481
med	-4482
nit	-4483
ory	-4484
rik	-4485
ruh	-4486
räf	-4487
spl	-4488
way	-4489
▁70	-4490
▁90	-4491
▁bü	-4492
▁hy	-4493
▁hü	-4494
▁ri	-4495
▁ve	-4496
▁zü	-4497
ager	-4498
agne	-4499
anen	-4500
asse	-4501
atik	-4502
book	-4503
emen	-4504
flug	-4505
fügt	-4506
icro	-4507
igin	-4508
ites	-4509
park	-4510
pool	-4511
ular	-4512
viel	-4513
work	-4514
▁000	-4515
▁15.	-4516
▁196	-4517
▁500	-4518
▁bio	-4519
▁exp	-4520
▁feb	-4521
▁fon	-4522
▁gam	-4523
▁mio	-4524
▁por	-4525
▁que	-4526
▁sex	-4527
▁tes	-4528
▁yor	-4529
auern	-4530
endes	-4531
forma	-4532
fähig	-4533
fügen	-4534
gener	-4535
ilien	-4536
krieg	-4537
liste	-4538
mente	-4539
mögen	-4540
ohner	-4541
preis	-4542
tiver	-4543
werte	-4544
ühren	-4545
▁alte	-4546
▁asso	-4547
▁band	-4548
▁foto	-4549
▁fund	-4550
▁glas	-4551
▁halb	-4552
▁hilf	-4553
▁krie	-4554
▁last	-4555
▁niem	-4556
▁räum	-4557
▁spie	-4558
▁ster	-4559
▁that	-4560
▁verh	-4561
▁view	-4562
▁were	-4563
achtet	-4564
azität	-4565
geschä	-4566
hebung	-4567
iellen	-4568
minist	-4569
nummer	-4570
ragten	-4571
rochen	-4572
sichts	-4573
sterne	-4574
wiesen	-4575
wortet	-4576
ährung	-4577
▁anwes	-4578
▁autob	-4579
▁beträ	-4580
▁boden	-4581
▁erwer	-4582
▁eröff	-4583
▁essen	-4584
▁folgt	-4585
▁größe	-4586
▁kaffe	-4587
▁korre	-4588
▁krank	-4589
▁legen	-4590
▁läuft	-4591
▁micro	-4592
▁parad	-4593
▁polen	-4594
▁schie	-4595
▁sensi	-4596
▁stamm	-4597
▁start	-4598
▁stell	-4599
▁tsche	-4600
▁versp	-4601
▁verur	-4602
▁wären	-4603
▁zuvor	-4604
bahnhof	-4605
gestell	-4606
gewicht	-4607
greifen	-4608
spoliti	-4609
▁ausger	-4610
▁balkon	-4611
▁bitten	-4612
▁distri	-4613
▁dritte	-4614
▁ehemal	-4615
▁erzeug	-4616
▁farben	-4617
▁gegrün	-4618
▁gesprä	-4619
▁grenze	-4620
▁kennen	-4621
▁kosovo	-4622
▁mutter	-4623
▁origin	-4624
▁souver	-4625
▁spiele	-4626
▁straße	-4627
▁voller	-4628
▁westen	-4629
▁willen	-4630
▁wollte	-4631
alisiert	-4632
fraktion	-4633
ierenden	-4634
▁besitzt	-4635
▁brüssel	-4636
▁bürgern	-4637
▁dienste	-4638
▁gewählt	-4639
▁hinweis	-4640
▁monaten	-4641
▁preisen	-4642
▁schaden	-4643
▁welchen	-4644
▁zugriff	-4645
maschinen	-4646
▁besuchen	-4647
▁einigung	-4648
▁erklären	-4649
▁folgende	-4650
▁gegensei	-4651
▁gekommen	-4652
▁globalen	-4653
▁verfolgt	-4654
▁vorteile	-4655
▁zentrale	-4656
▁übrigens	-4657
leistungen	-4658
▁beschleun	-4659
▁bestätigt	-4660
▁darstellt	-4661
▁folgenden	-4662
▁gestalten	-4663
▁grenzüber	-4664
▁grundsatz	-4665
▁positiven	-4666
▁produkten	-4667
▁schreiben	-4668
▁speichern	-4669
▁teilweise	-4670
▁transport	-4671
▁umständen	-4672
▁vertreten	-4673
▁vorgelegt	-4674
▁wichtiger	-4675
▁beinhaltet	-4676
▁einhaltung	-4677
▁einschränk	-4678
▁entspricht	-4679
▁festgelegt	-4680
▁fraktionen	-4681
▁konvention	-4682
▁nationaler	-4683
▁produziert	-4684
▁sehenswürd	-4685
organisation	-4686
▁abgeordnete	-4687
▁akzeptieren	-4688
▁durchführen	-4689
▁individuell	-4690
▁informieren	-4691
▁notwendigen	-4692
▁produktions	-4693
▁universität	-4694
einrichtungen	-4695
▁abschließend	-4696
▁arbeitnehmer	-4697
▁ausdrücklich	-4698
▁europäischer	-4699
▁funktioniert	-4700
▁griechenland	-4701
gesellschaften	-4702
▁anstrengungen	-4703
▁demokratische	-4704
▁eigenschaften	-4705
▁sicherstellen	-4706
▁verpflichtung	-4707
▁sicherzustellen	-4708
pä	-4709
sc	-4710
zt	-4711
anc	-4712
ara	-4713
bas	-4714
för	-4715
ied	-4716
kam	-4717
ker	-4718
kle	-4719
kur	-4720
law	-4721
luß	-4722
mer	-4723
mme	-4724
tau	-4725
vin	-4726
zin	-4727
▁--	-4728
▁35	-4729
▁av	-4730
▁ke	-4731
▁mr	-4732
▁pc	-4733
▁sm	-4734
▁ul	-4735
ball	-4736
ehrt	-4737
ella	-4738
grad	-4739
iner	-4740
iter	-4741
lege	-4742
loss	-4743
mack	-4744
mitt	-4745
orie	-4746
pers	-4747
rale	-4748
rate	-4749
ruar	-4750
stes	-4751
steu	-4752
stri	-4753
stät	-4754
view	-4755
ährt	-4756
ünen	-4757
ützt	-4758
▁bat	-4759
▁col	-4760
▁fen	-4761
▁geh	-4762
▁kro	-4763
▁opp	-4764
▁pub	-4765
▁rad	-4766
▁ski	-4767
▁syn	-4768
▁tol	-4769
▁ton	-4770
▁tor	-4771
▁tut	-4772
▁uno	-4773
andid	-4774
deten	-4775
ehrte	-4776
endet	-4777
entes	-4778
macht	-4779
ollar	-4780
seits	-4781
wagen	-4782
wogen	-4783
▁atom	-4784
▁bemü	-4785
▁bett	-4786
▁beur	-4787
▁blog	-4788
▁bras	-4789
▁dorf	-4790
▁einb	-4791
▁fakt	-4792
▁juli	-4793
▁jung	-4794
▁lond	-4795
▁mach	-4796
▁serv	-4797
▁spaz	-4798
▁symp	-4799
▁verg	-4800
▁wald	-4801
▁wege	-4802
brauch	-4803
häsion	-4804
ktiven	-4805
lieben	-4806
preise	-4807
stechn	-4808
stände	-4809
ämpfen	-4810
ückwün	-4811
▁beher	-4812
▁beizu	-4813
▁bewäl	-4814
▁block	-4815
▁einst	-4816
▁fotos	-4817
▁gewün	-4818
▁house	-4819
▁journ	-4820
▁junge	-4821
▁küste	-4822
▁leute	-4823
▁phase	-4824
▁radio	-4825
▁schei	-4826
▁sorge	-4827
▁strom	-4828
▁unein	-4829
▁verlu	-4830
anische	-4831
ermaßen	-4832
handels	-4833
ierende	-4834
leitung	-4835
schluss	-4836
▁aktien	-4837
▁anteil	-4838
▁bewahr	-4839
▁drogen	-4840
▁fertig	-4841
▁freude	-4842
▁fällen	-4843
▁gebaut	-4844
▁häuser	-4845
▁ideale	-4846
▁invest	-4847
▁kilome	-4848
▁kritik	-4849
▁nennen	-4850
▁option	-4851
▁qualit	-4852
▁reicht	-4853
▁treten	-4854
▁verwei	-4855
▁worten	-4856
anischen	-4857
▁ankunft	-4858
▁benutzt	-4859
▁dagegen	-4860
▁element	-4861
▁erinner	-4862
▁februar	-4863
▁gesetzt	-4864
▁heutige	-4865
▁kategor	-4866
▁legitim	-4867
▁letzter	-4868
▁mittels	-4869
▁münchen	-4870
▁pflicht	-4871
▁polizei	-4872
▁positiv	-4873
▁private	-4874
▁reichen	-4875
▁spanien	-4876
▁steuern	-4877
▁subsidi	-4878
▁tschech	-4879
▁verstär	-4880
schreiten	-4881
▁aussicht	-4882
▁deswegen	-4883
▁englisch	-4884
▁formular	-4885
▁gefangen	-4886
▁gelungen	-4887
▁geändert	-4888
▁geöffnet	-4889
▁gleichen	-4890
▁größeren	-4891
▁kürzlich	-4892
▁manchmal	-4893
▁mehreren	-4894
▁methoden	-4895
▁palästin	-4896
▁realität	-4897
▁wellness	-4898
▁austausch	-4899
▁betreffen	-4900
▁derartige	-4901
▁diskrimin	-4902
▁geschehen	-4903
▁konkreten	-4904
▁problemen	-4905
▁qualitäts	-4906
▁steuerung	-4907
▁vereinten	-4908
▁zunehmend	-4909
tifizierung	-4910
ungsbereich	-4911
▁akzeptiert	-4912
▁badezimmer	-4913
▁beglückwün	-4914
▁definition	-4915
▁überwachen	-4916
▁beteiligten	-4917
▁betroffenen	-4918
▁erklärungen	-4919
▁finanzielle	-4920
▁gelegenheit	-4921
▁mitgliedern	-4922
▁nachrichten	-4923
▁organisiert	-4924
▁terrorismus	-4925
▁unterstütze	-4926
▁überwachung	-4927
▁ausführungen	-4928
▁durchgeführt	-4929
▁flexibilität	-4930
▁installation	-4931
▁organisation	-4932
▁unverzüglich	-4933
organisationen	-4934
▁ausgangspunkt	-4935
▁gewährleistet	-4936
▁haushaltsplan	-4937
▁erforderlichen	-4938
▁offensichtlich	-4939
▁unabhängigkeit	-4940
▁wirtschaftlich	-4941
▁herausforderung	-4942
▁liberalisierung	-4943
99	-4944
hm	-4945
jo	-4946
kü	-4947
nü	-4948
bed	-4949
dor	-4950
fel	-4951
hed	-4952
kat	-4953
llo	-4954
nor	-4955
ora	-4956
oth	-4957
trä	-4958
une	-4959
win	-4960
zwe	-4961
▁bö	-4962
▁cd	-4963
▁ep	-4964
▁ht	-4965
▁mm	-4966
▁vi	-4967
anne	-4968
bene	-4969
comm	-4970
date	-4971
dete	-4972
gert	-4973
hann	-4974
haup	-4975
ller	-4976
mess	-4977
mode	-4978
oder	-4979
oker	-4980
opol	-4981
schw	-4982
sein	-4983
star	-4984
verl	-4985
▁aug	-4986
▁fas	-4987
▁fit	-4988
▁gov	-4989
▁kol	-4990
▁lam	-4991
▁mik	-4992
▁müs	-4993
▁ord	-4994
▁sam	-4995
▁tru	-4996
▁wär	-4997
ament	-4998
angeb	-4999
bruch	-5000
freie	-5001
genda	-5002
haben	-5003
mlich	-5004
namen	-5005
ohlen	-5006
orten	-5007
regel	-5008
reift	-5009
unruh	-5010
wechs	-5011
zesse	-5012
▁1000	-5013
▁akte	-5014
▁aufs	-5015
▁bequ	-5016
▁bere	-5017
▁bran	-5018
▁chin	-5019
▁cook	-5020
▁from	-5021
▁genü	-5022
▁gold	-5023
▁good	-5024
▁have	-5025
▁insp	-5026
▁jüng	-5027
▁nütz	-5028
▁oste	-5029
▁plen	-5030
▁prem	-5031
▁roll	-5032
▁samm	-5033
▁sand	-5034
▁scho	-5035
▁sing	-5036
▁umge	-5037
▁wall	-5038
bereit	-5039
gebaut	-5040
ischem	-5041
lanzen	-5042
lösung	-5043
schule	-5044
selben	-5045
server	-5046
utzung	-5047
ärkten	-5048
ätzung	-5049
▁abges	-5050
▁arten	-5051
▁asien	-5052
▁domin	-5053
▁erhol	-5054
▁gramm	-5055
▁grand	-5056
▁islam	-5057
▁lager	-5058
▁linie	-5059
▁linux	-5060
▁luxur	-5061
▁lösen	-5062
▁mitge	-5063
▁relig	-5064
▁ruhig	-5065
▁spitz	-5066
▁straf	-5067
▁texte	-5068
▁trägt	-5069
▁unent	-5070
▁urlau	-5071
▁vater	-5072
▁vorzu	-5073
alismus	-5074
atische	-5075
demokra	-5076
fertigt	-5077
instrum	-5078
onenten	-5079
osition	-5080
problem	-5081
service	-5082
sichten	-5083
tisches	-5084
verbind	-5085
zwungen	-5086
▁achten	-5087
▁barcel	-5088
▁behaup	-5089
▁client	-5090
▁doppel	-5091
▁enterp	-5092
▁festiv	-5093
▁firmen	-5094
▁friend	-5095
▁gelöst	-5096
▁gering	-5097
▁gewiss	-5098
▁grünen	-5099
▁haupts	-5100
▁hauses	-5101
▁hätten	-5102
▁indien	-5103
▁inseln	-5104
▁jemand	-5105
▁kirche	-5106
▁kurzen	-5107
▁letzte	-5108
▁london	-5109
▁meeres	-5110
▁redner	-5111
▁schöne	-5112
▁sektor	-5113
▁senden	-5114
▁sofern	-5115
▁studio	-5116
▁symbol	-5117
▁umfeld	-5118
▁vieler	-5119
▁zeiten	-5120
freiheit	-5121
richtung	-5122
sprinzip	-5123
zwischen	-5124
▁absolut	-5125
▁beunruh	-5126
▁bezieht	-5127
▁camping	-5128
▁eigenes	-5129
▁entdeck	-5130
▁entlang	-5131
▁erkennt	-5132
▁erörter	-5133
▁fleisch	-5134
▁großzüg	-5135
▁journal	-5136
▁kindern	-5137
▁komment	-5138
▁kontinu	-5139
▁kranken	-5140
▁planung	-5141
▁schafft	-5142
▁schnitt	-5143
▁täglich	-5144
▁verschw	-5145
▁vorbild	-5146
▁weshalb	-5147
▁wirkung	-5148
austausch	-5149
▁aktuelle	-5150
▁anfragen	-5151
▁ausgaben	-5152
▁ausnahme	-5153
▁beitritt	-5154
▁berichte	-5155
▁besucher	-5156
▁einkaufs	-5157
▁eröffnet	-5158
▁experten	-5159
▁fahrzeug	-5160
▁flugzeug	-5161
▁humanitä	-5162
▁kohäsion	-5163
▁konflikt	-5164
▁künstler	-5165
▁material	-5166
▁netzwerk	-5167
▁positive	-5168
▁regional	-5169
▁schützen	-5170
▁services	-5171
▁terrasse	-5172
▁verboten	-5173
▁verkauft	-5174
▁verloren	-5175
▁vielmehr	-5176
▁werkzeug	-5177
▁ziemlich	-5178
gewöhnlich	-5179
ungsmittel	-5180
versorgung	-5181
verstanden	-5182
▁anerkannt	-5183
▁anpassung	-5184
▁beispiele	-5185
▁beitritts	-5186
▁brasilien	-5187
▁einkommen	-5188
▁einsetzen	-5189
▁fähigkeit	-5190
▁gefordert	-5191
▁lieferung	-5192
▁marketing	-5193
▁potenzial	-5194
▁priorität	-5195
▁spezielle	-5196
▁verbrauch	-5197
▁vertrages	-5198
▁verändert	-5199
▁wichtiges	-5200
▁wiederauf	-5201
▁zumindest	-5202
▁ausbildung	-5203
▁ausgewogen	-5204
▁erscheinen	-5205
▁funktionen	-5206
▁mittelmeer	-5207
▁persönlich	-5208
▁regionalen	-5209
▁sorgfältig	-5210
▁verbrechen	-5211
▁verhältnis	-5212
▁wesentlich	-5213
▁überprüfen	-5214
▁alternative	-5215
▁bestehenden	-5216
▁hervorragen	-5217
▁klimawandel	-5218
▁rechtsgrund	-5219
▁rechtsstaat	-5220
▁zentralbank	-5221
▁agrarpolitik	-5222
▁angesprochen	-5223
▁einwanderung	-5224
▁installieren	-5225
▁technologien	-5226
▁abgeschlossen	-5227
▁entwicklungen	-5228
▁funktionieren	-5229
▁grundlegenden	-5230
▁strategischen	-5231
▁subsidiarität	-5232
▁voraussetzung	-5233
▁beglückwünschen	-5234
▁veranstaltungen	-5235
15	-5236
2-	-5237
iw	-5238
iö	-5239
mä	-5240
no	-5241
abl	-5242
aci	-5243
avi	-5244
bek	-5245
ele	-5246
flu	-5247
gef	-5248
gei	-5249
gte	-5250
gül	-5251
hle	-5252
ico	-5253
läu	-5254
mon	-5255
onn	-5256
pre	-5257
ral	-5258
spe	-5259
uts	-5260
äßt	-5261
▁4-	-5262
▁4.	-5263
▁5.	-5264
▁80	-5265
▁os	-5266
▁pi	-5267
▁tu	-5268
▁zy	-5269
▁ök	-5270
.200	-5271
angt	-5272
atis	-5273
card	-5274
denk	-5275
essi	-5276
gner	-5277
gten	-5278
ibli	-5279
ient	-5280
ions	-5281
iven	-5282
kung	-5283
list	-5284
rige	-5285
schi	-5286
stoß	-5287
ther	-5288
uern	-5289
verw	-5290
zwei	-5291
▁150	-5292
▁19.	-5293
▁300	-5294
▁abw	-5295
▁ban	-5296
▁bla	-5297
▁caf	-5298
▁cap	-5299
▁fab	-5300
▁fak	-5301
▁fro	-5302
▁har	-5303
▁häl	-5304
▁jur	-5305
▁los	-5306
▁nör	-5307
▁sil	-5308
▁sli	-5309
▁tal	-5310
▁tod	-5311
▁wil	-5312
▁www	-5313
ancen	-5314
anger	-5315
datei	-5316
ebene	-5317
istan	-5318
konom	-5319
lands	-5320
oking	-5321
orien	-5322
rechn	-5323
riebs	-5324
riere	-5325
▁1997	-5326
▁anti	-5327
▁bars	-5328
▁burg	-5329
▁egal	-5330
▁gang	-5331
▁gebe	-5332
▁grat	-5333
▁halt	-5334
▁hard	-5335
▁just	-5336
▁kamp	-5337
▁kopf	-5338
▁link	-5339
▁läßt	-5340
▁mini	-5341
▁nein	-5342
▁phil	-5343
▁schl	-5344
▁sehe	-5345
▁ukra	-5346
▁wild	-5347
▁wlan	-5348
▁york	-5349
▁zuzu	-5350
antast	-5351
anwend	-5352
ausend	-5353
berech	-5354
bürger	-5355
eistet	-5356
führte	-5357
gemein	-5358
geräte	-5359
hängen	-5360
leiten	-5361
lätzen	-5362
rahmen	-5363
region	-5364
reitet	-5365
ränken	-5366
schirm	-5367
schten	-5368
sprach	-5369
suchen	-5370
▁alpen	-5371
▁belar	-5372
▁brenn	-5373
▁dring	-5374
▁feuer	-5375
▁geför	-5376
▁gross	-5377
▁hören	-5378
▁kreuz	-5379
▁kunde	-5380
▁messe	-5381
▁quali	-5382
▁regen	-5383
▁schli	-5384
▁sogen	-5385
▁stein	-5386
▁stock	-5387
▁tabak	-5388
▁verbr	-5389
▁wesen	-5390
▁zeich	-5391
adresse	-5392
behörde	-5393
fähigen	-5394
gegeben	-5395
grammen	-5396
istisch	-5397
mension	-5398
schnitt	-5399
sterdam	-5400
technik	-5401
ungsver	-5402
zeichen	-5403
änglich	-5404
▁aspekt	-5405
▁august	-5406
▁bedien	-5407
▁bringt	-5408
▁buchen	-5409
▁chance	-5410
▁deiner	-5411
▁denken	-5412
▁ehrgei	-5413
▁geräum	-5414
▁govern	-5415
▁johann	-5416
▁jungen	-5417
▁kandid	-5418
▁klaren	-5419
▁konver	-5420
▁krisen	-5421
▁mitten	-5422
▁märkte	-5423
▁passen	-5424
▁resort	-5425
▁schiff	-5426
▁schätz	-5427
▁starke	-5428
▁umgang	-5429
▁vorder	-5430
▁zählen	-5431
▁überra	-5432
gewiesen	-5433
lässlich	-5434
maschine	-5435
schaffen	-5436
software	-5437
sproblem	-5438
zeichnis	-5439
▁amerika	-5440
▁anlagen	-5441
▁betrach	-5442
▁bezahlt	-5443
▁erstens	-5444
▁fenster	-5445
▁freunde	-5446
▁genannt	-5447
▁größere	-5448
▁identit	-5449
▁nachmit	-5450
▁niemand	-5451
▁perfekt	-5452
▁ruhigen	-5453
▁solange	-5454
▁solcher	-5455
▁stärker	-5456
▁versand	-5457
▁vorteil	-5458
▁welchem	-5459
▁zeichen	-5460
▁zweifel	-5461
▁ägypten	-5462
forschung	-5463
▁administ	-5464
▁angenehm	-5465
▁aufnahme	-5466
▁ausschuß	-5467
▁beachten	-5468
▁befassen	-5469
▁bezahlen	-5470
▁durchaus	-5471
▁friendly	-5472
▁gebrauch	-5473
▁gelangen	-5474
▁gelegene	-5475
▁gesetzes	-5476
▁gewissen	-5477
▁jährlich	-5478
▁reformen	-5479
▁souverän	-5480
▁speicher	-5481
▁verwende	-5482
▁weiterer	-5483
▁amsterdam	-5484
▁angesehen	-5485
▁auftreten	-5486
▁barcelona	-5487
▁bemerkung	-5488
▁berichten	-5489
▁beziehung	-5490
▁einfacher	-5491
▁erfordert	-5492
▁forderung	-5493
▁gegründet	-5494
▁geleistet	-5495
▁hinweisen	-5496
▁kategorie	-5497
▁komplette	-5498
▁letztlich	-5499
▁microsoft	-5500
▁schließen	-5501
▁schneller	-5502
▁standards	-5503
▁vollständ	-5504
▁wiederher	-5505
▁überblick	-5506
▁überzeugt	-5507
▁aufenthalt	-5508
▁außerorden	-5509
▁berechtigt	-5510
▁bestimmung	-5511
▁bestätigen	-5512
▁diskutiert	-5513
▁ehemaligen	-5514
▁enterprise	-5515
▁erhältlich	-5516
▁gesprochen	-5517
▁hersteller	-5518
▁integriert	-5519
▁kompromiss	-5520
▁kontinuier	-5521
▁regelungen	-5522
▁übernommen	-5523
▁ausgestatte	-5524
▁einstellung	-5525
▁feststellen	-5526
▁forderungen	-5527
▁geschrieben	-5528
▁grundrechte	-5529
▁hergestellt	-5530
▁palästinens	-5531
▁praktischen	-5532
▁richtlinien	-5533
▁spezifische	-5534
▁staatlichen	-5535
▁stattfinden	-5536
▁verbundenen	-5537
▁zahlreichen	-5538
ungsverfahren	-5539
▁durchführung	-5540
▁grundlegende	-5541
▁interessante	-5542
▁jahrhunderts	-5543
▁lebensmittel	-5544
▁niederlanden	-5545
▁präsentieren	-5546
▁tagesordnung	-5547
▁unabhängigen	-5548
▁einverstanden	-5549
▁gegenwärtigen	-5550
▁kommunikation	-5551
▁stellungnahme	-5552
▁ausschließlich	-5553
▁verbesserungen	-5554
.-	-5555
22	-5556
go	-5557
je	-5558
ki	-5559
mt	-5560
wa	-5561
üt	-5562
ash	-5563
ata	-5564
ced	-5565
ded	-5566
eid	-5567
far	-5568
ika	-5569
ike	-5570
kün	-5571
oom	-5572
ori	-5573
ots	-5574
pft	-5575
rab	-5576
sek	-5577
stu	-5578
tex	-5579
uel	-5580
umb	-5581
urm	-5582
vas	-5583
xen	-5584
zed	-5585
zum	-5586
zur	-5587
öpf	-5588
▁1,	-5589
▁26	-5590
▁3-	-5591
▁31	-5592
▁cl	-5593
▁cr	-5594
▁if	-5595
▁ky	-5596
▁my	-5597
▁pd	-5598
▁tv	-5599
2010	-5600
ayne	-5601
band	-5602
bett	-5603
cess	-5604
dule	-5605
hren	-5606
ickt	-5607
ling	-5608
plom	-5609
posi	-5610
päck	-5611
ques	-5612
rase	-5613
tage	-5614
tets	-5615
ücke	-5616
▁12.	-5617
▁amt	-5618
▁any	-5619
▁bru	-5620
▁bul	-5621
▁dec	-5622
▁exc	-5623
▁ezb	-5624
▁het	-5625
▁jug	-5626
▁kal	-5627
▁las	-5628
▁oli	-5629
▁rum	-5630
▁top	-5631
▁tos	-5632
▁val	-5633
▁ven	-5634
▁wid	-5635
▁zyp	-5636
artem	-5637
artig	-5638
dauer	-5639
emark	-5640
itter	-5641
konto	-5642
langt	-5643
metho	-5644
modus	-5645
onien	-5646
riert	-5647
stung	-5648
tifik	-5649
tigte	-5650
utzer	-5651
zepte	-5652
▁arme	-5653
▁asyl	-5654
▁baum	-5655
▁belg	-5656
▁club	-5657
▁farb	-5658
▁free	-5659
▁fuer	-5660
▁haut	-5661
▁list	-5662
▁more	-5663
▁must	-5664
▁nett	-5665
▁nive	-5666
▁präz	-5667
▁rand	-5668
▁sage	-5669
▁sant	-5670
▁stay	-5671
emente	-5672
gendes	-5673
igsten	-5674
inform	-5675
leihen	-5676
plätze	-5677
politi	-5678
ritann	-5679
räften	-5680
seiten	-5681
skrise	-5682
verein	-5683
waffen	-5684
werfen	-5685
zahlen	-5686
▁anzub	-5687
▁audio	-5688
▁befug	-5689
▁besei	-5690
▁check	-5691
▁clean	-5692
▁costa	-5693
▁demon	-5694
▁dient	-5695
▁energ	-5696
▁ersta	-5697
▁extra	-5698
▁feier	-5699
▁fonds	-5700
▁georg	-5701
▁glaub	-5702
▁hafen	-5703
▁komme	-5704
▁laufe	-5705
▁liebe	-5706
▁monte	-5707
▁motor	-5708
▁nötig	-5709
▁power	-5710
▁reden	-5711
▁reprä	-5712
▁schne	-5713
▁seien	-5714
▁sonne	-5715
▁stets	-5716
▁swimm	-5717
▁trend	-5718
▁veran	-5719
▁weist	-5720
eichert	-5721
gruppen	-5722
isieren	-5723
klärung	-5724
lichten	-5725
nerstag	-5726
partner	-5727
ssektor	-5728
ssicher	-5729
tierten	-5730
▁angeht	-5731
▁assozi	-5732
▁ausmaß	-5733
▁balkan	-5734
▁bequem	-5735
▁centre	-5736
▁dollar	-5737
▁effizi	-5738
▁eingel	-5739
▁fehlen	-5740
▁führte	-5741
▁ganzes	-5742
▁german	-5743
▁gewinn	-5744
▁gipfel	-5745
▁hälfte	-5746
▁kaffee	-5747
▁konsol	-5748
▁mangel	-5749
▁master	-5750
▁modell	-5751
▁multim	-5752
▁perman	-5753
▁prakti	-5754
▁presse	-5755
▁respek	-5756
▁selten	-5757
▁temper	-5758
▁update	-5759
▁verbot	-5760
▁vorbeh	-5761
▁wenden	-5762
▁wähler	-5763
▁ziffer	-5764
▁ökolog	-5765
abilität	-5766
azitäten	-5767
gehenden	-5768
haushalt	-5769
ibliothe	-5770
▁absicht	-5771
▁analyse	-5772
▁ausgewä	-5773
▁bahnhof	-5774
▁begriff	-5775
▁beifall	-5776
▁bemühen	-5777
▁berechn	-5778
▁buchung	-5779
▁chancen	-5780
▁enthalt	-5781
▁ergeben	-5782
▁erneuer	-5783
▁erteilt	-5784
▁erzielt	-5785
▁führung	-5786
▁gelingt	-5787
▁geschen	-5788
▁gesetze	-5789
▁inhalte	-5790
▁jeglich	-5791
▁kleines	-5792
▁konzern	-5793
▁landwir	-5794
▁liefern	-5795
▁niemals	-5796
▁residen	-5797
▁schiffe	-5798
▁schwarz	-5799
▁schäden	-5800
▁starken	-5801
▁starten	-5802
▁steigen	-5803
▁umgeben	-5804
▁vernünf	-5805
▁verwand	-5806
▁zufolge	-5807
losigkeit	-5808
präsident	-5809
setzungen	-5810
▁abhängig	-5811
▁anwesend	-5812
▁autobahn	-5813
▁begonnen	-5814
▁dänemark	-5815
▁einfluss	-5816
▁erkennen	-5817
▁erlauben	-5818
▁freizeit	-5819
▁gedanken	-5820
▁hoffnung	-5821
▁intensiv	-5822
▁jegliche	-5823
▁location	-5824
▁mehrwert	-5825
▁neuesten	-5826
▁reaktion	-5827
▁revision	-5828
▁schicken	-5829
▁standort	-5830
▁swimming	-5831
sicherheit	-5832
windigkeit	-5833
▁anspruchs	-5834
▁automobil	-5835
▁begeister	-5836
▁behandeln	-5837
▁bekannten	-5838
▁einwander	-5839
▁empfänger	-5840
▁ergreifen	-5841
▁geschmack	-5842
▁mittleren	-5843
▁praktisch	-5844
▁rechnungs	-5845
▁studenten	-5846
▁teilnahme	-5847
▁verlangen	-5848
▁verlieren	-5849
▁verändern	-5850
▁wohlstand	-5851
▁zustimmen	-5852
ssicherheit	-5853
technologie	-5854
▁ausgesetzt	-5855
▁betrachtet	-5856
▁darstellen	-5857
▁dokumenten	-5858
▁donnerstag	-5859
▁ereignisse	-5860
▁festlegung	-5861
▁inzwischen	-5862
▁kostenfrei	-5863
▁regelmäßig	-5864
▁schlussfol	-5865
▁strukturen	-5866
▁uneingesch	-5867
▁verhindert	-5868
▁vollkommen	-5869
▁vorschlags	-5870
▁übertragen	-5871
▁ausstattung	-5872
▁eingereicht	-5873
▁fähigkeiten	-5874
▁historische	-5875
▁instrumente	-5876
▁interessant	-5877
▁komfortable	-5878
▁kommissions	-5879
▁kulturellen	-5880
▁materialien	-5881
▁mechanismus	-5882
▁mittelalter	-5883
▁mittelpunkt	-5884
▁präsentiert	-5885
▁schwerpunkt	-5886
▁stattdessen	-5887
▁technologie	-5888
▁umfassenden	-5889
▁überzeugung	-5890
▁andererseits	-5891
▁einbeziehung	-5892
▁gesetzlichen	-5893
▁investitions	-5894
▁kriminalität	-5895
▁minderheiten	-5896
▁organisieren	-5897
▁souveränität	-5898
▁spezifischen	-5899
▁ausgesprochen	-5900
▁diesbezüglich	-5901
▁verabschiedet	-5902
▁veranstaltung	-5903
▁ausgezeichnete	-5904
▁unterschiedlich	-5905
▁vorgeschlagenen	-5906
▁zuverlässigkeit	-5907
90	-5908
bu	-5909
ev	-5910
hi	-5911
ij	-5912
kr	-5913
ld	-5914
ns	-5915
zy	-5916
án	-5917
ama	-5918
bew	-5919
ehl	-5920
err	-5921
ese	-5922
gas	-5923
gol	-5924
hab	-5925
ime	-5926
ird	-5927
kom	-5928
mot	-5929
mär	-5930
oph	-5931
sph	-5932
täu	-5933
una	-5934
uro	-5935
urr	-5936
ves	-5937
vis	-5938
wie	-5939
üch	-5940
▁27	-5941
▁28	-5942
▁3.	-5943
▁cm	-5944
▁cu	-5945
▁dv	-5946
▁gü	-5947
▁hu	-5948
▁iv	-5949
▁ku	-5950
▁pt	-5951
▁zö	-5952
aria	-5953
ated	-5954
bles	-5955
deut	-5956
elbe	-5957
eprä	-5958
ernt	-5959
fähr	-5960
hern	-5961
holz	-5962
ical	-5963
iser	-5964
itar	-5965
itel	-5966
itut	-5967
läge	-5968
male	-5969
ogle	-5970
omen	-5971
orgt	-5972
otal	-5973
rest	-5974
sens	-5975
tain	-5976
tele	-5977
ulin	-5978
uung	-5979
vert	-5980
ward	-5981
züge	-5982
▁1,5	-5983
▁195	-5984
▁20.	-5985
▁400	-5986
▁aff	-5987
▁cal	-5988
▁cre	-5989
▁cro	-5990
▁dep	-5991
▁emo	-5992
▁exz	-5993
▁flo	-5994
▁gal	-5995
▁kle	-5996
▁köl	-5997
▁leb	-5998
▁net	-5999
▁one	-6000
▁our	-6001
▁out	-6002
▁ref	-6003
▁rem	-6004
▁sec	-6005
▁une	-6006
▁via	-6007
▁viz	-6008
▁wto	-6009
▁wäl	-6010
▁zin	-6011
ahnen	-6012
akete	-6013
ammen	-6014
antie	-6015
chtet	-6016
cript	-6017
dlich	-6018
ffend	-6019
gende	-6020
geord	-6021
hlten	-6022
ieden	-6023
iefer	-6024
ieter	-6025
inder	-6026
itten	-6027
jekte	-6028
ließt	-6029
neter	-6030
oslaw	-6031
plant	-6032
prüft	-6033
ronom	-6034
rufen	-6035
sigen	-6036
spakt	-6037
uelle	-6038
urger	-6039
usion	-6040
zahlt	-6041
▁1996	-6042
▁able	-6043
▁amts	-6044
▁brut	-6045
▁denk	-6046
▁dreh	-6047
▁ever	-6048
▁feld	-6049
▁fire	-6050
▁heil	-6051
▁high	-6052
▁live	-6053
▁neun	-6054
▁pati	-6055
▁pfer	-6056
▁pool	-6057
▁pres	-6058
▁sagt	-6059
▁satz	-6060
▁send	-6061
▁serb	-6062
▁spät	-6063
▁stei	-6064
▁tief	-6065
▁umzu	-6066
▁vorn	-6067
▁ware	-6068
absich	-6069
atoren	-6070
dliche	-6071
gänger	-6072
ierend	-6073
iertes	-6074
izienz	-6075
materi	-6076
modell	-6077
onsten	-6078
passen	-6079
phrase	-6080
punkte	-6081
ranten	-6082
stande	-6083
straße	-6084
unsten	-6085
urlaub	-6086
wenden	-6087
werken	-6088
worfen	-6089
ändler	-6090
▁alter	-6091
▁anhör	-6092
▁anrei	-6093
▁bemer	-6094
▁betru	-6095
▁diver	-6096
▁echte	-6097
▁eisen	-6098
▁engag	-6099
▁hohes	-6100
▁horiz	-6101
▁häfen	-6102
▁hängt	-6103
▁image	-6104
▁korru	-6105
▁orien	-6106
▁paten	-6107
▁persp	-6108
▁pläne	-6109
▁prote	-6110
▁rasch	-6111
▁spann	-6112
▁stern	-6113
▁still	-6114
▁straß	-6115
▁studi	-6116
▁tibet	-6117
▁tiere	-6118
▁tisch	-6119
▁todes	-6120
▁umsch	-6121
▁ungar	-6122
▁verzö	-6123
▁virtu	-6124
▁volle	-6125
▁weihn	-6126
▁worte	-6127
assungs	-6128
betrieb	-6129
britann	-6130
hedrale	-6131
jährige	-6132
liefert	-6133
restaur	-6134
rischen	-6135
sprache	-6136
sprüche	-6137
stätten	-6138
ulieren	-6139
viertel	-6140
▁agenda	-6141
▁airbus	-6142
▁bauern	-6143
▁begrün	-6144
▁beibeh	-6145
▁benach	-6146
▁breite	-6147
▁dauern	-6148
▁fallen	-6149
▁flücht	-6150
▁formen	-6151
▁frankf	-6152
▁geburt	-6153
▁gegner	-6154
▁google	-6155
▁grafik	-6156
▁großes	-6157
▁grunde	-6158
▁heimat	-6159
▁herbst	-6160
▁hunder	-6161
▁keines	-6162
▁kroati	-6163
▁langen	-6164
▁lautet	-6165
▁lehrer	-6166
▁lesung	-6167
▁massen	-6168
▁metall	-6169
▁mexiko	-6170
▁nachzu	-6171
▁niveau	-6172
▁normen	-6173
▁opfern	-6174
▁provin	-6175
▁rotary	-6176
▁slowak	-6177
▁stattf	-6178
▁streit	-6179
▁städte	-6180
▁suiten	-6181
▁surfen	-6182
▁territ	-6183
▁theore	-6184
▁verknü	-6185
▁vertie	-6186
▁vision	-6187
▁wälder	-6188
▁öffnen	-6189
erkennen	-6190
geltlich	-6191
lösungen	-6192
tionelle	-6193
▁adresse	-6194
▁afrikan	-6195
▁aktuell	-6196
▁angriff	-6197
▁argumen	-6198
▁ausgabe	-6199
▁bedeuts	-6200
▁beginnt	-6201
▁belarus	-6202
▁bestell	-6203
▁booking	-6204
▁bürokra	-6205
▁ehrgeiz	-6206
▁entlast	-6207
▁erkannt	-6208
▁fitness	-6209
▁geboten	-6210
▁gestern	-6211
▁größter	-6212
▁haftung	-6213
▁hierbei	-6214
▁hostels	-6215
▁höchste	-6216
▁höheren	-6217
▁langsam	-6218
▁liefert	-6219
▁meister	-6220
▁männern	-6221
▁nächste	-6222
▁relativ	-6223
▁schloss	-6224
▁speisen	-6225
▁technik	-6226
▁verwirk	-6227
▁vielfäl	-6228
▁vizeprä	-6229
▁wechsel	-6230
effizienz	-6231
kontrolle	-6232
programms	-6233
standards	-6234
▁aktionen	-6235
▁anbieten	-6236
▁angebote	-6237
▁ausgehen	-6238
▁behinder	-6239
▁bewegung	-6240
▁direkten	-6241
▁energien	-6242
▁ergänzen	-6243
▁erhöhung	-6244
▁ersetzen	-6245
▁erstmals	-6246
▁europäer	-6247
▁fotograf	-6248
▁früheren	-6249
▁größeres	-6250
▁gründung	-6251
▁höchsten	-6252
▁jahrzehn	-6253
▁kenntnis	-6254
▁konfigur	-6255
▁konkrete	-6256
▁leichter	-6257
▁maschine	-6258
▁mehrfach	-6259
▁passiert	-6260
▁passwort	-6261
▁sektoren	-6262
▁stehende	-6263
▁stärkung	-6264
▁tausende	-6265
▁ungefähr	-6266
▁ungleich	-6267
▁verstärk	-6268
▁verteilt	-6269
▁vielfalt	-6270
▁wirkungs	-6271
▁zugleich	-6272
arbeitungs	-6273
britannien	-6274
kommission	-6275
produktion	-6276
▁ansonsten	-6277
▁aufkommen	-6278
▁bekämpfen	-6279
▁berühmten	-6280
▁bewertung	-6281
▁entdecken	-6282
▁ernährung	-6283
▁erwachsen	-6284
▁geblieben	-6285
▁gefördert	-6286
▁gegensatz	-6287
▁geltenden	-6288
▁komplexen	-6289
▁politiker	-6290
▁prozesses	-6291
▁schweizer	-6292
▁tourismus	-6293
▁touristen	-6294
▁tätigkeit	-6295
▁unmöglich	-6296
▁vertriebs	-6297
▁vornehmen	-6298
▁wachstums	-6299
▁übersicht	-6300
ausschusses	-6301
▁amerikaner	-6302
▁anzubieten	-6303
▁anzuzeigen	-6304
▁apartments	-6305
▁ausführung	-6306
▁beobachten	-6307
▁britischen	-6308
▁derzeitige	-6309
▁ferienwohn	-6310
▁hinzufügen	-6311
▁instrument	-6312
▁investoren	-6313
▁missbrauch	-6314
▁programmen	-6315
▁protektion	-6316
▁reduzieren	-6317
▁teilnehmen	-6318
▁teilnehmer	-6319
▁unterlagen	-6320
▁vermitteln	-6321
▁verringern	-6322
▁verursacht	-6323
▁widerstand	-6324
bestimmungen	-6325
▁angegebenen	-6326
▁architektur	-6327
▁aufzunehmen	-6328
▁bemerkungen	-6329
▁beschlossen	-6330
▁diskutieren	-6331
▁erwartungen	-6332
▁grammatisch	-6333
▁herstellung	-6334
▁hochwertige	-6335
▁investieren	-6336
▁klimaanlage	-6337
▁kontextuell	-6338
▁kreditkarte	-6339
▁politischer	-6340
▁realisieren	-6341
▁schwierigen	-6342
▁verständnis	-6343
▁verwaltungs	-6344
▁wunderschön	-6345
▁zuständigen	-6346
▁überprüfung	-6347
▁arbeitsmarkt	-6348
▁empfehlungen	-6349
▁individuelle	-6350
▁interessiert	-6351
▁kreditkarten	-6352
▁militärische	-6353
▁nichtraucher	-6354
▁umweltschutz	-6355
▁unterschiede	-6356
▁verteidigung	-6357
▁vorliegenden	-6358
▁wirklichkeit	-6359
▁übernachtung	-6360
▁ausgezeichnet	-6361
▁entscheidende	-6362
▁gleichgewicht	-6363
▁hauptsächlich	-6364
▁individuellen	-6365
▁internetseite	-6366
▁italienischen	-6367
▁koordinierung	-6368
▁schlusselwort	-6369
▁sozialdemokra	-6370
▁unentgeltlich	-6371
▁organisationen	-6372
▁vorgeschlagene	-6373
▁ausgezeichneten	-6374
▁professionellen	-6375
▁schlusselphrase	-6376
25	-6377
40	-6378
45	-6379
60	-6380
:0	-6381
bä	-6382
db	-6383
ji	-6384
lö	-6385
oc	-6386
ox	-6387
tv	-6388
wn	-6389
ws	-6390
yo	-6391
öm	-6392
500	-6393
ads	-6394
ags	-6395
amb	-6396
ars	-6397
blo	-6398
cal	-6399
ero	-6400
ets	-6401
flü	-6402
geg	-6403
gro	-6404
har	-6405
hel	-6406
ito	-6407
kal	-6408
kre	-6409
lek	-6410
olo	-6411
ost	-6412
ous	-6413
rig	-6414
sur	-6415
the	-6416
yle	-6417
zeß	-6418
ées	-6419
▁48	-6420
▁9.	-6421
▁fö	-6422
▁il	-6423
▁iw	-6424
▁kä	-6425
▁mp	-6426
▁rh	-6427
alle	-6428
angs	-6429
arat	-6430
arta	-6431
bern	-6432
blas	-6433
ckte	-6434
code	-6435
edia	-6436
ento	-6437
eres	-6438
fest	-6439
fied	-6440
fiel	-6441
fäll	-6442
ghan	-6443
latz	-6444
leit	-6445
mach	-6446
mien	-6447
orea	-6448
rück	-6449
umer	-6450
veau	-6451
zung	-6452
äten	-6453
üler	-6454
▁120	-6455
▁17.	-6456
▁30.	-6457
▁ang	-6458
▁bon	-6459
▁bör	-6460
▁dur	-6461
▁eig	-6462
▁emp	-6463
▁fac	-6464
▁fel	-6465
▁gas	-6466
▁gnu	-6467
▁its	-6468
▁lob	-6469
▁mix	-6470
▁nav	-6471
▁pil	-6472
▁ram	-6473
▁var	-6474
▁wom	-6475
aller	-6476
asien	-6477
deckt	-6478
gress	-6479
günst	-6480
ierra	-6481
ktive	-6482
linge	-6483
musik	-6484
pport	-6485
prägt	-6486
raten	-6487
reten	-6488
schte	-6489
tiere	-6490
tiker	-6491
tritt	-6492
ungsf	-6493
weite	-6494
wirkt	-6495
zonen	-6496
▁1990	-6497
▁1998	-6498
▁alli	-6499
▁anon	-6500
▁audi	-6501
▁back	-6502
▁bang	-6503
▁card	-6504
▁dikt	-6505
▁drit	-6506
▁ermu	-6507
▁fans	-6508
▁fiel	-6509
▁finn	-6510
▁gern	-6511
▁gewi	-6512
▁gran	-6513
▁hast	-6514
▁kost	-6515
▁künf	-6516
▁länd	-6517
▁läng	-6518
▁main	-6519
▁maus	-6520
▁menü	-6521
▁merk	-6522
▁name	-6523
▁opti	-6524
▁prüf	-6525
▁quad	-6526
▁ruhe	-6527
▁sens	-6528
▁spaß	-6529
▁stol	-6530
▁stri	-6531
▁tari	-6532
▁toch	-6533
▁verd	-6534
ameter	-6535
beauft	-6536
behand	-6537
fernen	-6538
genden	-6539
häuser	-6540
kommun	-6541
kräfte	-6542
leitet	-6543
lernen	-6544
mitten	-6545
normen	-6546
rische	-6547
speich	-6548
▁anbau	-6549
▁andre	-6550
▁baden	-6551
▁begeg	-6552
▁beige	-6553
▁bucht	-6554
▁dekor	-6555
▁deleg	-6556
▁einig	-6557
▁fehlt	-6558
▁fluss	-6559
▁freue	-6560
▁front	-6561
▁fälle	-6562
▁fällt	-6563
▁gewal	-6564
▁great	-6565
▁hilft	-6566
▁hände	-6567
▁ideen	-6568
▁javas	-6569
▁konto	-6570
▁kurze	-6571
▁leder	-6572
▁luxem	-6573
▁marok	-6574
▁nahen	-6575
▁orden	-6576
▁panor	-6577
▁prodi	-6578
▁refer	-6579
▁resul	-6580
▁rumän	-6581
▁sound	-6582
▁speci	-6583
▁swiss	-6584
▁toler	-6585
▁werbe	-6586
▁zweit	-6587
artigen	-6588
bezogen	-6589
chester	-6590
einheit	-6591
ektiven	-6592
fristig	-6593
grenzen	-6594
handelt	-6595
märkten	-6596
mäßigen	-6597
station	-6598
stunden	-6599
▁afghan	-6600
▁afrika	-6601
▁analys	-6602
▁authen	-6603
▁bekräf	-6604
▁bildet	-6605
▁bulgar	-6606
▁casino	-6607
▁chinas	-6608
▁commun	-6609
▁diplom	-6610
▁direct	-6611
▁dusche	-6612
▁ebenen	-6613
▁echten	-6614
▁endgül	-6615
▁erfreu	-6616
▁erlebt	-6617
▁experi	-6618
▁export	-6619
▁fahrer	-6620
▁faszin	-6621
▁golden	-6622
▁kaufen	-6623
▁korrup	-6624
▁kostet	-6625
▁kräfte	-6626
▁manche	-6627
▁reisen	-6628
▁schwed	-6629
▁sierra	-6630
▁spielt	-6631
▁stimmt	-6632
▁stunde	-6633
▁textil	-6634
▁versto	-6635
▁werten	-6636
▁zielen	-6637
ativität	-6638
behörden	-6639
benutzer	-6640
eichtern	-6641
fertigen	-6642
geschäft	-6643
ichteten	-6644
vertrags	-6645
zusammen	-6646
▁achtung	-6647
▁anwesen	-6648
▁begrüßt	-6649
▁beliebt	-6650
▁beraten	-6651
▁comfort	-6652
▁cookies	-6653
▁einheim	-6654
▁entwurf	-6655
▁fordere	-6656
▁fordert	-6657
▁geboren	-6658
▁gelernt	-6659
▁geprüft	-6660
▁gewährt	-6661
▁hamburg	-6662
▁hinzuge	-6663
▁klassen	-6664
▁kompakt	-6665
▁mitteln	-6666
▁nunmehr	-6667
▁oftmals	-6668
▁premier	-6669
▁provinz	-6670
▁risiken	-6671
▁schauen	-6672
▁schlimm	-6673
▁schwäch	-6674
▁sichern	-6675
▁spazier	-6676
▁spricht	-6677
▁tausend	-6678
▁treiber	-6679
▁trocken	-6680
▁truppen	-6681
▁urlaubs	-6682
▁ursache	-6683
▁western	-6684
▁zimmern	-6685
▁zustand	-6686
beschluss	-6687
produkten	-6688
programme	-6689
stellungs	-6690
tifiziert	-6691
▁anhalten	-6692
▁anliegen	-6693
▁anpassen	-6694
▁ausblick	-6695
▁beeinflu	-6696
▁beratung	-6697
▁betracht	-6698
▁beträcht	-6699
▁bevölker	-6700
▁bewahren	-6701
▁drittens	-6702
▁eingesch	-6703
▁einstimm	-6704
▁einzigen	-6705
▁erwerben	-6706
▁faktoren	-6707
▁freiwill	-6708
▁gebühren	-6709
▁geeignet	-6710
▁gefahren	-6711
▁inmitten	-6712
▁internen	-6713
▁jugoslaw	-6714
▁kontakte	-6715
▁kroatien	-6716
▁mögliche	-6717
▁nutzungs	-6718
▁reagiert	-6719
▁referenz	-6720
▁schließe	-6721
▁sekunden	-6722
▁transfer	-6723
▁ursachen	-6724
▁vermögen	-6725
▁vielzahl	-6726
▁vorgaben	-6727
▁vorstand	-6728
▁wiederum	-6729
▁zeitraum	-6730
▁ähnliche	-6731
emissionen	-6732
restaurant	-6733
sprozesses	-6734
strategien	-6735
▁abschnitt	-6736
▁ausgehend	-6737
▁beschluss	-6738
▁dimension	-6739
▁einwohner	-6740
▁entfernen	-6741
▁erfordern	-6742
▁erheblich	-6743
▁gastronom	-6744
▁gezwungen	-6745
▁grundsätz	-6746
▁identität	-6747
▁interview	-6748
▁jeglicher	-6749
▁kilometer	-6750
▁konflikte	-6751
▁kontinent	-6752
▁nachdruck	-6753
▁nachfrage	-6754
▁parkplatz	-6755
▁programms	-6756
▁scheitern	-6757
▁stehenden	-6758
▁versicher	-6759
▁webseiten	-6760
▁übergangs	-6761
geschrieben	-6762
▁ansprechen	-6763
▁ausgeführt	-6764
▁betrachten	-6765
▁bisherigen	-6766
▁einerseits	-6767
▁entspannen	-6768
▁erstellung	-6769
▁formuliert	-6770
▁frühstücks	-6771
▁generation	-6772
▁grundlagen	-6773
▁javascript	-6774
▁kathedrale	-6775
▁landschaft	-6776
▁leistungen	-6777
▁menschheit	-6778
▁nachmittag	-6779
▁nördlichen	-6780
▁revolution	-6781
▁sanktionen	-6782
▁speziellen	-6783
▁strategien	-6784
▁umzusetzen	-6785
▁verwaltung	-6786
▁wichtigste	-6787
▁zugänglich	-6788
▁überwinden	-6789
verbindungen	-6790
verletzungen	-6791
versicherung	-6792
wissenschaft	-6793
▁ausreichend	-6794
▁ausstellung	-6795
▁beantwortet	-6796
▁bedürfnisse	-6797
▁beschrieben	-6798
▁derzeitigen	-6799
▁eingestellt	-6800
▁entspannung	-6801
▁erleichtern	-6802
▁frühstücksb	-6803
▁gespeichert	-6804
▁installiert	-6805
▁integrierte	-6806
▁investition	-6807
▁katastrophe	-6808
▁miteinander	-6809
▁nachhaltige	-6810
▁natürlichen	-6811
▁unternehmer	-6812
▁verbreitung	-6813
▁verfassungs	-6814
▁verzeichnis	-6815
▁vorschlägen	-6816
▁wesentliche	-6817
▁wirksamkeit	-6818
verhandlungen	-6819
▁aktualisiert	-6820
▁arbeitsplatz	-6821
▁festgestellt	-6822
▁französische	-6823
▁generationen	-6824
▁gleichberech	-6825
▁intervention	-6826
▁mitarbeitern	-6827
▁organisierte	-6828
▁verringerung	-6829
▁versicherung	-6830
▁außenminister	-6831
▁erfolgreichen	-6832
▁herunterladen	-6833
▁hervorragende	-6834
▁kommerziellen	-6835
▁lateinamerika	-6836
▁nachbarschaft	-6837
▁traditionelle	-6838
▁umfangreichen	-6839
▁unterscheiden	-6840
▁währungsunion	-6841
▁amerikanischen	-6842
▁bereitgestellt	-6843
▁globalisierung	-6844
▁traditionellen	-6845
▁untersuchungen	-6846
▁ursprünglichen	-6847
▁dienstleistungs	-6848
▁rechtsgrundlage	-6849
,9	-6850
1/	-6851
13	-6852
21	-6853
44	-6854
5-	-6855
70	-6856
98	-6857
ex	-6858
ii	-6859
kk	-6860
mu	-6861
nä	-6862
sm	-6863
tä	-6864
zn	-6865
én	-6866
és	-6867
ado	-6868
air	-6869
bal	-6870
beu	-6871
bro	-6872
ema	-6873
erz	-6874
fes	-6875
hts	-6876
ias	-6877
ido	-6878
inc	-6879
its	-6880
kas	-6881
lab	-6882
leb	-6883
lla	-6884
off	-6885
pap	-6886
rot	-6887
ruf	-6888
ton	-6889
uth	-6890
ype	-6891
ysi	-6892
ärt	-6893
öss	-6894
übt	-6895
▁00	-6896
▁38	-6897
▁ay	-6898
▁bä	-6899
▁eb	-6900
▁ou	-6901
aden	-6902
afft	-6903
ages	-6904
aill	-6905
alth	-6906
asen	-6907
bind	-6908
bran	-6909
cast	-6910
club	-6911
ders	-6912
digt	-6913
disk	-6914
dner	-6915
erto	-6916
film	-6917
fter	-6918
gess	-6919
here	-6920
hört	-6921
iers	-6922
inne	-6923
isla	-6924
itor	-6925
loch	-6926
oben	-6927
odes	-6928
omas	-6929
pful	-6930
play	-6931
quar	-6932
send	-6933
tzei	-6934
uche	-6935
vari	-6936
vern	-6937
wald	-6938
ways	-6939
woch	-6940
ßern	-6941
äume	-6942
▁21.	-6943
▁800	-6944
▁anf	-6945
▁bez	-6946
▁bug	-6947
▁cds	-6948
▁dol	-6949
▁dun	-6950
▁een	-6951
▁erh	-6952
▁err	-6953
▁feu	-6954
▁ign	-6955
▁ill	-6956
▁int	-6957
▁irr	-6958
▁iwf	-6959
▁kab	-6960
▁klo	-6961
▁kmu	-6962
▁mak	-6963
▁mas	-6964
▁miß	-6965
▁mrd	-6966
▁mut	-6967
▁pdf	-6968
▁pen	-6969
▁pie	-6970
▁pin	-6971
▁plä	-6972
▁sah	-6973
▁säu	-6974
▁tak	-6975
▁thr	-6976
▁two	-6977
▁una	-6978
▁who	-6979
▁wik	-6980
▁won	-6981
▁xml	-6982
▁zei	-6983
▁ält	-6984
▁ärm	-6985
.2009	-6986
autom	-6987
defin	-6988
earch	-6989
ergeb	-6990
ester	-6991
ettet	-6992
figur	-6993
fragt	-6994
fugen	-6995
gerät	-6996
hagen	-6997
heber	-6998
hnung	-6999
iente	-7000
ildet	-7001
klang	-7002
klass	-7003
kolle	-7004
krise	-7005
legte	-7006
lehnt	-7007
loser	-7008
lässt	-7009
reide	-7010
reihe	-7011
riebe	-7012
ssatz	-7013
swert	-7014
uffet	-7015
undet	-7016
usern	-7017
vileg	-7018
weile	-7019
ärten	-7020
öpfen	-7021
▁1970	-7022
▁1995	-7023
▁arab	-7024
▁ball	-7025
▁beam	-7026
▁bist	-7027
▁boot	-7028
▁bush	-7029
▁city	-7030
▁cour	-7031
▁dach	-7032
▁feed	-7033
▁gehe	-7034
▁gepf	-7035
▁getr	-7036
▁jetz	-7037
▁karl	-7038
▁know	-7039
▁koch	-7040
▁köln	-7041
▁liby	-7042
▁maße	-7043
▁mäch	-7044
▁nato	-7045
▁note	-7046
▁phot	-7047
▁prop	-7048
▁rela	-7049
▁sack	-7050
▁sech	-7051
▁sied	-7052
▁simp	-7053
▁skiz	-7054
▁stor	-7055
▁taxi	-7056
▁than	-7057
▁time	-7058
▁ungl	-7059
▁unnö	-7060
andern	-7061
bevölk	-7062
fahrer	-7063
finanz	-7064
fällen	-7065
fällig	-7066
gelöst	-7067
gressi	-7068
hafter	-7069
holfen	-7070
kehren	-7071
lingen	-7072
machen	-7073
orgnis	-7074
partei	-7075
portal	-7076
quelle	-7077
rschen	-7078
räumen	-7079
sekret	-7080
sphase	-7081
splant	-7082
steten	-7083
tional	-7084
verfol	-7085
werden	-7086
ziplin	-7087
ängnis	-7088
▁abonn	-7089
▁anmel	-7090
▁berge	-7091
▁beweg	-7092
▁bison	-7093
▁class	-7094
▁datum	-7095
▁ernen	-7096
▁expor	-7097
▁fahrt	-7098
▁found	-7099
▁freie	-7100
▁green	-7101
▁güter	-7102
▁highl	-7103
▁höhen	-7104
▁impor	-7105
▁inclu	-7106
▁ingen	-7107
▁kamen	-7108
▁konst	-7109
▁kopen	-7110
▁kredi	-7111
▁könnt	-7112
▁lobby	-7113
▁madri	-7114
▁media	-7115
▁mikro	-7116
▁milch	-7117
▁modul	-7118
▁motiv	-7119
▁poker	-7120
▁rooms	-7121
▁roten	-7122
▁saint	-7123
▁schwä	-7124
▁serie	-7125
▁sorgt	-7126
▁spezi	-7127
▁tiefe	-7128
▁total	-7129
▁traum	-7130
▁unsch	-7131
▁veget	-7132
▁versa	-7133
▁water	-7134
▁werke	-7135
aufwand	-7136
digungs	-7137
estelle	-7138
gebiete	-7139
isierte	-7140
issions	-7141
lassung	-7142
leidung	-7143
liziert	-7144
mutzung	-7145
orgungs	-7146
rüstung	-7147
saktion	-7148
schrift	-7149
sichtig	-7150
spielen	-7151
statten	-7152
tragung	-7153
tzeitig	-7154
usetzen	-7155
verhält	-7156
weisung	-7157
wünsche	-7158
zeitung	-7159
zentren	-7160
zusehen	-7161
▁abfall	-7162
▁aktive	-7163
▁befrei	-7164
▁behält	-7165
▁beruht	-7166
▁berühr	-7167
▁derart	-7168
▁dürfte	-7169
▁eltern	-7170
▁enttäu	-7171
▁featur	-7172
▁förder	-7173
▁fühlen	-7174
▁gefühl	-7175
▁gepäck	-7176
▁geräte	-7177
▁gesamm	-7178
▁geziel	-7179
▁greift	-7180
▁gästen	-7181
▁heißen	-7182
▁händen	-7183
▁innere	-7184
▁justiz	-7185
▁kernel	-7186
▁klasse	-7187
▁leiten	-7188
▁lenken	-7189
▁linken	-7190
▁mieten	-7191
▁multip	-7192
▁musste	-7193
▁männer	-7194
▁neutra	-7195
▁objekt	-7196
▁oliven	-7197
▁palast	-7198
▁pflege	-7199
▁plenum	-7200
▁portug	-7201
▁profil	-7202
▁realer	-7203
▁reihen	-7204
▁satell	-7205
▁schnee	-7206
▁signal	-7207
▁single	-7208
▁stammt	-7209
▁street	-7210
▁studie	-7211
▁therap	-7212
▁toskan	-7213
▁träume	-7214
▁umsatz	-7215
▁wandel	-7216
▁warten	-7217
▁werdet	-7218
▁wonach	-7219
▁worauf	-7220
▁zuerst	-7221
▁zusatz	-7222
▁zypern	-7223
▁ökonom	-7224
adressen	-7225
arbeiter	-7226
bereiche	-7227
gefunden	-7228
gleichen	-7229
ikations	-7230
isierten	-7231
legungen	-7232
mechanis	-7233
ssysteme	-7234
wicklung	-7235
▁abstimm	-7236
▁akteure	-7237
▁alleine	-7238
▁anstatt	-7239
▁beheben	-7240
▁besucht	-7241
▁consult	-7242
▁daneben	-7243
▁detaill	-7244
▁eigenem	-7245
▁ersetzt	-7246
▁existen	-7247
▁fantast	-7248
▁fließen	-7249
▁flächen	-7250
▁gedacht	-7251
▁geplant	-7252
▁geraten	-7253
▁gesicht	-7254
▁gewicht	-7255
▁helpful	-7256
▁hierfür	-7257
▁inhalts	-7258
▁interne	-7259
▁kapitel	-7260
▁kräften	-7261
▁luxuriö	-7262
▁mussten	-7263
▁organen	-7264
▁präsidi	-7265
▁punkten	-7266
▁quadrat	-7267
▁registr	-7268
▁richten	-7269
▁richtet	-7270
▁schicks	-7271
▁sektors	-7272
▁senkung	-7273
▁solches	-7274
▁staates	-7275
▁tauchen	-7276
▁tochter	-7277
▁ukraine	-7278
▁urheber	-7279
▁verlust	-7280
▁widersp	-7281
▁zweiter	-7282
▁ähnlich	-7283
▁überall	-7284
förderung	-7285
gesetzten	-7286
glichkeit	-7287
ibliothek	-7288
rankungen	-7289
sprechend	-7290
stehenden	-7291
teilungen	-7292
tierenden	-7293
zahlungen	-7294
▁beabsich	-7295
▁bedürfen	-7296
▁begrenzt	-7297
▁bemerken	-7298
▁berühmte	-7299
▁besseren	-7300
▁bevorzug	-7301
▁beweisen	-7302
▁branchen	-7303
▁elegante	-7304
▁entsteht	-7305
▁erwägung	-7306
▁falschen	-7307
▁folglich	-7308
▁garantie	-7309
▁geliefer	-7310
▁gemeinde	-7311
▁geograph	-7312
▁gerichte	-7313
▁gespielt	-7314
▁getreide	-7315
▁getreten	-7316
▁herkunft	-7317
▁hingegen	-7318
▁johannes	-7319
▁listings	-7320
▁markiert	-7321
▁meinungs	-7322
▁mithilfe	-7323
▁nachbarn	-7324
▁nachweis	-7325
▁ordnungs	-7326
▁original	-7327
▁privileg	-7328
▁problems	-7329
▁reichhal	-7330
▁research	-7331
▁sammlung	-7332
▁schienen	-7333
▁schlecht	-7334
▁schnelle	-7335
▁serviert	-7336
▁slowakei	-7337
▁soldaten	-7338
▁sonstige	-7339
▁verehrte	-7340
▁übergang	-7341
behandlung	-7342
echtigkeit	-7343
fikationen	-7344
hersteller	-7345
sprogramme	-7346
tifizieren	-7347
▁anbindung	-7348
▁ansichten	-7349
▁beachtung	-7350
▁bedrohung	-7351
▁begleitet	-7352
▁beschränk	-7353
▁besorgnis	-7354
▁effizient	-7355
▁eindrucks	-7356
▁empfohlen	-7357
▁entdeckst	-7358
▁erfüllung	-7359
▁ergriffen	-7360
▁erweitert	-7361
▁erwähnten	-7362
▁eventuell	-7363
▁flugzeuge	-7364
▁frankfurt	-7365
▁funktions	-7366
▁geeignete	-7367
▁gegebenen	-7368
▁gerichtet	-7369
▁gestatten	-7370
▁gewählten	-7371
▁handlungs	-7372
▁irgendein	-7373
▁landwirte	-7374
▁luxemburg	-7375
▁mobilität	-7376
▁mobiltele	-7377
▁nachricht	-7378
▁niedriger	-7379
▁permanent	-7380
▁pflichten	-7381
▁sicherung	-7382
▁straßburg	-7383
▁umgesetzt	-7384
▁verbinden	-7385
▁verfolgen	-7386
▁versionen	-7387
▁verwaltet	-7388
▁verwiesen	-7389
▁zugunsten	-7390
bevölkerung	-7391
▁aktivieren	-7392
▁anerkennen	-7393
▁atomwaffen	-7394
▁besonderer	-7395
▁bildschirm	-7396
▁delegation	-7397
▁emissionen	-7398
▁erarbeiten	-7399
▁erleichter	-7400
▁exklusiven	-7401
▁freiheiten	-7402
▁gefangenen	-7403
▁governance	-7404
▁grundstück	-7405
▁hinzufugen	-7406
▁humanitäre	-7407
▁kommentare	-7408
▁korruption	-7409
▁kostenlose	-7410
▁leitlinien	-7411
▁notwendige	-7412
▁opposition	-7413
▁praktische	-7414
▁qualitativ	-7415
▁regionaler	-7416
▁staatliche	-7417
▁vermittelt	-7418
▁versorgung	-7419
▁verteilung	-7420
▁zusammenge	-7421
▁überlassen	-7422
▁abschließen	-7423
▁angemessene	-7424
▁arbeitgeber	-7425
▁auseinander	-7426
▁beruflichen	-7427
▁beschränken	-7428
▁beunruhigen	-7429
▁eingebunden	-7430
▁eingehalten	-7431
▁einzigartig	-7432
▁erweiterten	-7433
▁festzulegen	-7434
▁französisch	-7435
▁hingewiesen	-7436
▁hinzugefügt	-7437
▁hotelzimmer	-7438
▁kreativität	-7439
▁langfristig	-7440
▁niederlande	-7441
▁rechtzeitig	-7442
▁spaziergang	-7443
▁statistiken	-7444
▁tätigkeiten	-7445
▁umfangreich	-7446
▁vorbereitet	-7447
▁vordergrund	-7448
▁vorgelegten	-7449
▁vorliegende	-7450
eigenschaften	-7451
informationen	-7452
ungsmaßnahmen	-7453
▁ausreichende	-7454
▁beeinflussen	-7455
▁chinesischen	-7456
▁demokratisch	-7457
▁festgelegten	-7458
▁gerichtshofs	-7459
▁hochwertigen	-7460
▁integrierten	-7461
▁kontrolliert	-7462
▁menschlichen	-7463
▁mittlerweile	-7464
▁nachhaltigen	-7465
▁schriftliche	-7466
▁unterbrochen	-7467
▁untersuchung	-7468
▁verbesserten	-7469
▁verpflichten	-7470
▁vorbereitung	-7471
▁zusätzlichen	-7472
▁arbeitnehmern	-7473
▁dringlichkeit	-7474
▁einheitlichen	-7475
▁einschränkung	-7476
▁festzustellen	-7477
▁gleichermaßen	-7478
▁interessieren	-7479
▁kontextuellen	-7480
▁nachdrücklich	-7481
▁regierungsche	-7482
▁unmittelbarer	-7483
▁verschiedener	-7484
▁fremdenverkehr	-7485
▁gewährleistung	-7486
▁großbritannien	-7487
▁mitgliedschaft	-7488
▁mittelmeerraum	-7489
▁professionelle	-7490
▁übereinkommens	-7491
▁diskriminierung	-7492
▁uneingeschränkt	-7493
▁voraussetzungen	-7494
▁zusammensetzung	-7495
,0	-7496
.2	-7497
29	-7498
31	-7499
4.	-7500
59	-7501
74	-7502
cp	-7503
cr	-7504
gu	-7505
mi	-7506
pg	-7507
rh	-7508
ye	-7509
zo	-7510
5-0	-7511
ace	-7512
agn	-7513
alu	-7514
aub	-7515
bra	-7516
cep	-7517
cia	-7518
col	-7519
dex	-7520
dok	-7521
eds	-7522
fot	-7523
hon	-7524
ket	-7525
kop	-7526
käu	-7527
las	-7528
lic	-7529
max	-7530
mes	-7531
mil	-7532
mäh	-7533
nes	-7534
ock	-7535
ops	-7536
pel	-7537
pha	-7538
pps	-7539
ppy	-7540
rau	-7541
rio	-7542
riz	-7543
ssp	-7544
ted	-7545
tiz	-7546
tür	-7547
ual	-7548
ugh	-7549
val	-7550
vir	-7551
ère	-7552
ünd	-7553
▁2-	-7554
▁32	-7555
▁45	-7556
▁53	-7557
▁55	-7558
▁7.	-7559
▁75	-7560
▁ci	-7561
▁gb	-7562
▁gn	-7563
▁ni	-7564
▁ol	-7565
▁sv	-7566
▁sä	-7567
afri	-7568
akte	-7569
ally	-7570
alte	-7571
ames	-7572
anke	-7573
arge	-7574
atie	-7575
ause	-7576
bach	-7577
baum	-7578
blei	-7579
blin	-7580
bres	-7581
comp	-7582
dere	-7583
echt	-7584
empf	-7585
eras	-7586
erte	-7587
etzu	-7588
fakt	-7589
funk	-7590
gelö	-7591
genz	-7592
gibt	-7593
hard	-7594
hlte	-7595
holt	-7596
imum	-7597
iode	-7598
ione	-7599
itze	-7600
izza	-7601
jekt	-7602
lige	-7603
läuf	-7604
ners	-7605
onal	-7606
pass	-7607
phen	-7608
rats	-7609
reck	-7610
reen	-7611
rief	-7612
roso	-7613
same	-7614
schn	-7615
spor	-7616
steh	-7617
strä	-7618
temp	-7619
tens	-7620
tish	-7621
tsch	-7622
usse	-7623
vide	-7624
wirt	-7625
zene	-7626
ückt	-7627
ürzt	-7628
üsse	-7629
▁14.	-7630
▁600	-7631
▁akp	-7632
▁asi	-7633
▁ast	-7634
▁avi	-7635
▁bay	-7636
▁blü	-7637
▁bor	-7638
▁box	-7639
▁bur	-7640
▁cam	-7641
▁dör	-7642
▁eth	-7643
▁gaz	-7644
▁gei	-7645
▁got	-7646
▁his	-7647
▁iso	-7648
▁kra	-7649
▁mid	-7650
▁mur	-7651
▁nic	-7652
▁pas	-7653
▁php	-7654
▁pic	-7655
▁put	-7656
▁roh	-7657
▁sap	-7658
▁sau	-7659
▁set	-7660
▁sod	-7661
▁tel	-7662
▁unw	-7663
▁vot	-7664
▁zut	-7665
▁öst	-7666
.2010	-7667
achte	-7668
achts	-7669
acion	-7670
ación	-7671
anner	-7672
anter	-7673
apest	-7674
arier	-7675
artet	-7676
bares	-7677
books	-7678
bungs	-7679
count	-7680
eiler	-7681
facht	-7682
famil	-7683
gasse	-7684
häfen	-7685
ights	-7686
initi	-7687
inkel	-7688
kehrt	-7689
kurse	-7690
lager	-7691
lines	-7692
passt	-7693
payne	-7694
rates	-7695
reckt	-7696
regul	-7697
riffe	-7698
sorge	-7699
spekt	-7700
teils	-7701
teren	-7702
terra	-7703
träch	-7704
tungs	-7705
venue	-7706
ämpft	-7707
üstet	-7708
▁1991	-7709
▁1999	-7710
▁2011	-7711
▁auge	-7712
▁blau	-7713
▁blut	-7714
▁cast	-7715
▁cham	-7716
▁code	-7717
▁cont	-7718
▁deep	-7719
▁enge	-7720
▁enth	-7721
▁erde	-7722
▁erzä	-7723
▁fang	-7724
▁frag	-7725
▁gipf	-7726
▁grad	-7727
▁graf	-7728
▁habt	-7729
▁home	-7730
▁hung	-7731
▁impl	-7732
▁kari	-7733
▁kino	-7734
▁legt	-7735
▁liqu	-7736
▁logo	-7737
▁lohn	-7738
▁made	-7739
▁marb	-7740
▁nahm	-7741
▁paul	-7742
▁plug	-7743
▁plus	-7744
▁pour	-7745
▁prag	-7746
▁rate	-7747
▁renn	-7748
▁rent	-7749
▁show	-7750
▁spar	-7751
▁stud	-7752
▁stör	-7753
▁taiw	-7754
▁tool	-7755
▁tout	-7756
▁trin	-7757
▁turn	-7758
▁your	-7759
▁zugr	-7760
ativer	-7761
bilden	-7762
bringt	-7763
eidung	-7764
eigern	-7765
einigt	-7766
fassen	-7767
fähige	-7768
füllen	-7769
gehend	-7770
genöss	-7771
leiter	-7772
letter	-7773
lichem	-7774
listen	-7775
niveau	-7776
spezif	-7777
sprech	-7778
strafe	-7779
tition	-7780
undern	-7781
uropas	-7782
wendet	-7783
werten	-7784
wiegen	-7785
wählen	-7786
würdig	-7787
zeugen	-7788
zugang	-7789
▁after	-7790
▁alban	-7791
▁anbet	-7792
▁angel	-7793
▁anreg	-7794
▁auton	-7795
▁bauen	-7796
▁bedau	-7797
▁beleg	-7798
▁breit	-7799
▁champ	-7800
▁dahin	-7801
▁deskt	-7802
▁ehren	-7803
▁engel	-7804
▁erhöh	-7805
▁erleb	-7806
▁erwor	-7807
▁etabl	-7808
▁evalu	-7809
▁exter	-7810
▁freit	-7811
▁fried	-7812
▁föder	-7813
▁handy	-7814
▁hilfs	-7815
▁hoher	-7816
▁kanal	-7817
▁kurse	-7818
▁kämpf	-7819
▁masse	-7820
▁moral	-7821
▁möbel	-7822
▁mögen	-7823
▁navig	-7824
▁obama	-7825
▁other	-7826
▁peter	-7827
▁physi	-7828
▁playa	-7829
▁rufen	-7830
▁schau	-7831
▁semin	-7832
▁skand	-7833
▁sofor	-7834
▁spekt	-7835
▁stick	-7836
▁stolz	-7837
▁strei	-7838
▁stufe	-7839
▁stutt	-7840
▁subst	-7841
▁sucht	-7842
▁taten	-7843
▁tests	-7844
▁teuer	-7845
▁treib	-7846
▁views	-7847
▁wagen	-7848
▁weich	-7849
▁weite	-7850
▁would	-7851
▁wärme	-7852
▁zieht	-7853
▁zuber	-7854
▁zusch	-7855
▁übert	-7856
achteil	-7857
agentur	-7858
artiges	-7859
commend	-7860
dateien	-7861
drücken	-7862
eichten	-7863
entlich	-7864
flächen	-7865
geladen	-7866
gerufen	-7867
igkeits	-7868
igungen	-7869
liessen	-7870
mischen	-7871
platten	-7872
plätzen	-7873
projekt	-7874
prozess	-7875
rechter	-7876
spieler	-7877
tellten	-7878
verband	-7879
zimmern	-7880
▁allmäh	-7881
▁anonym	-7882
▁applik	-7883
▁befrie	-7884
▁belast	-7885
▁bergen	-7886
▁besich	-7887
▁bilanz	-7888
▁charta	-7889
▁contin	-7890
▁contro	-7891
▁corpor	-7892
▁dement	-7893
▁dichte	-7894
▁differ	-7895
▁enorme	-7896
▁erkenn	-7897
▁feiern	-7898
▁festen	-7899
▁fläche	-7900
▁füllen	-7901
▁galile	-7902
▁gebill	-7903
▁gegend	-7904
▁geheim	-7905
▁gelegt	-7906
▁genaue	-7907
▁gewöhn	-7908
▁griech	-7909
▁grosse	-7910
▁hilfen	-7911
▁hinein	-7912
▁hängen	-7913
▁höhere	-7914
▁junger	-7915
▁kamera	-7916
▁konsum	-7917
▁konzer	-7918
▁küsten	-7919
▁lecker	-7920
▁libyen	-7921
▁madrid	-7922
▁metern	-7923
▁module	-7924
▁museen	-7925
▁mängel	-7926
▁nahmen	-7927
▁norden	-7928
▁nutzer	-7929
▁organe	-7930
▁planet	-7931
▁player	-7932
▁quelle	-7933
▁quoten	-7934
▁regime	-7935
▁rennen	-7936
▁renten	-7937
▁ruhige	-7938
▁schluß	-7939
▁schule	-7940
▁silber	-7941
▁sitzen	-7942
▁slowen	-7943
▁steigt	-7944
▁syrien	-7945
▁tagung	-7946
▁tennis	-7947
▁thomas	-7948
▁verste	-7949
▁videos	-7950
▁vieles	-7951
▁volkes	-7952
▁wahren	-7953
▁weißen	-7954
▁wetter	-7955
▁wiener	-7956
▁zucker	-7957
aktionen	-7958
ausschau	-7959
ditionen	-7960
eldungen	-7961
etzugang	-7962
formular	-7963
istenten	-7964
leistung	-7965
produkte	-7966
projekte	-7967
rechnung	-7968
regelung	-7969
schutzes	-7970
sekretär	-7971
tigungen	-7972
▁abfälle	-7973
▁abgesch	-7974
▁aktiven	-7975
▁anfangs	-7976
▁anreise	-7977
▁anstieg	-7978
▁ausländ	-7979
▁barroso	-7980
▁bedient	-7981
▁bevorzu	-7982
▁bewegen	-7983
▁england	-7984
▁english	-7985
▁erleben	-7986
▁erwarte	-7987
▁express	-7988
▁fassung	-7989
▁gebiete	-7990
▁gezogen	-7991
▁geäußer	-7992
▁hindern	-7993
▁hoheits	-7994
▁ingenie	-7995
▁inneren	-7996
▁kloster	-7997
▁kollege	-7998
▁manchen	-7999
▁marokko	-8000
▁methode	-8001
▁mission	-8002
▁negativ	-8003
▁präsenz	-8004
▁quellen	-8005
▁respekt	-8006
▁sammeln	-8007
▁schlage	-8008
▁schüler	-8009
▁sonntag	-8010
▁spiegel	-8011
▁station	-8012
▁stecken	-8013
▁sterben	-8014
▁streben	-8015
▁theorie	-8016
▁toskana	-8017
▁trennen	-8018
▁verhält	-8019
▁verzwei	-8020
▁vielsei	-8021
▁viertel	-8022
▁vorlage	-8023
▁wohnung	-8024
▁wünscht	-8025
▁zahlung	-8026
▁älteren	-8027
abschluss	-8028
abteilung	-8029
alisierte	-8030
artements	-8031
führungen	-8032
isierungs	-8033
katastrop	-8034
steuerung	-8035
tigkeiten	-8036
tisierung	-8037
werkzeuge	-8038
▁altstadt	-8039
▁ambiente	-8040
▁angewand	-8041
▁anhörung	-8042
▁argument	-8043
▁aussehen	-8044
▁bedienen	-8045
▁beiträge	-8046
▁bereitet	-8047
▁bildungs	-8048
▁debatten	-8049
▁einblick	-8050
▁einklang	-8051
▁entdeckt	-8052
▁erfolgen	-8053
▁erlernen	-8054
▁erwähnte	-8055
▁erörtert	-8056
▁fertigen	-8057
▁festival	-8058
▁flexibel	-8059
▁gefallen	-8060
▁genannte	-8061
▁genügend	-8062
▁getragen	-8063
▁globaler	-8064
▁hardware	-8065
▁herstell	-8066
▁hervorge	-8067
▁hervorra	-8068
▁horizont	-8069
▁höchster	-8070
▁jüngsten	-8071
▁kongress	-8072
▁kulturen	-8073
▁offenbar	-8074
▁paradies	-8075
▁partnern	-8076
▁pflanzen	-8077
▁potenzie	-8078
▁prozesse	-8079
▁schieben	-8080
▁sichtbar	-8081
▁sorgfalt	-8082
▁steigern	-8083
▁training	-8084
▁typische	-8085
▁verdient	-8086
▁verlangt	-8087
▁verliert	-8088
▁versehen	-8089
▁vertrieb	-8090
▁vorliegt	-8091
▁websites	-8092
▁wirksame	-8093
▁zerstört	-8094
▁zugrunde	-8095
▁zustande	-8096
▁ältesten	-8097
antwortung	-8098
atisierung	-8099
geschichte	-8100
gesundheit	-8101
interessen	-8102
mitglieder	-8103
verbindung	-8104
verfahrens	-8105
verwaltung	-8106
würdigkeit	-8107
▁abgelehnt	-8108
▁abkommens	-8109
▁abstimmen	-8110
▁anschluss	-8111
▁ansprüche	-8112
▁apartment	-8113
▁aufgebaut	-8114
▁auslegung	-8115
▁befragten	-8116
▁behaupten	-8117
▁bestellen	-8118
▁betreiben	-8119
▁betreuung	-8120
▁betrieben	-8121
▁botschaft	-8122
▁chemische	-8123
▁community	-8124
▁denselben	-8125
▁effektive	-8126
▁eigentums	-8127
▁einfachen	-8128
▁eintragen	-8129
▁eisenbahn	-8130
▁emissions	-8131
▁engagiert	-8132
▁ernennung	-8133
▁erweitern	-8134
▁existiert	-8135
▁fußgänger	-8136
▁führenden	-8137
▁geniessen	-8138
▁geschützt	-8139
▁haushalte	-8140
▁hochschul	-8141
▁illegalen	-8142
▁jeweilige	-8143
▁jugendher	-8144
▁keinerlei	-8145
▁kompetenz	-8146
▁korrektur	-8147
▁kritische	-8148
▁liberalen	-8149
▁osteuropa	-8150
▁produktiv	-8151
▁präsidium	-8152
▁recommend	-8153
▁reduziert	-8154
▁renoviert	-8155
▁repräsent	-8156
▁rezeption	-8157
▁russische	-8158
▁sackgasse	-8159
▁schnellen	-8160
▁schwarzen	-8161
▁schönheit	-8162
▁techniken	-8163
▁unvergess	-8164
▁verbindet	-8165
▁verleihen	-8166
▁verlänger	-8167
▁verstärkt	-8168
▁weltkrieg	-8169
▁wohnungen	-8170
▁zentralen	-8171
▁übernimmt	-8172
▁überprüft	-8173
anwendungen	-8174
komponenten	-8175
uropäischen	-8176
versammlung	-8177
versorgungs	-8178
zeichnungen	-8179
▁anbetracht	-8180
▁anregungen	-8181
▁auffordern	-8182
▁aufrechter	-8183
▁beeinträch	-8184
▁benachrich	-8185
▁benachteil	-8186
▁beschlüsse	-8187
▁beschreibt	-8188
▁betreffend	-8189
▁denjenigen	-8190
▁effiziente	-8191
▁elektronik	-8192
▁entlastung	-8193
▁erreichung	-8194
▁erwachsene	-8195
▁foundation	-8196
▁gemütliche	-8197
▁grundsätze	-8198
▁gültigkeit	-8199
▁innenstadt	-8200
▁innovative	-8201
▁jahreszeit	-8202
▁jedenfalls	-8203
▁jährlichen	-8204
▁kandidaten	-8205
▁kontrollen	-8206
▁kopenhagen	-8207
▁mitgeteilt	-8208
▁natürliche	-8209
▁problemlos	-8210
▁rechtliche	-8211
▁satelliten	-8212
▁spanischen	-8213
▁university	-8214
▁unterliegt	-8215
▁vereinbart	-8216
▁verletzung	-8217
▁versichern	-8218
▁vertretern	-8219
▁überzeugen	-8220
gesetzgebung	-8221
▁afghanistan	-8222
▁aktionsplan	-8223
▁beigetragen	-8224
▁beschäftigt	-8225
▁bestandteil	-8226
▁beurteilung	-8227
▁bezeichnung	-8228
▁chinesische	-8229
▁darstellung	-8230
▁durchsetzen	-8231
▁einzusetzen	-8232
▁erzeugnisse	-8233
▁gewünschten	-8234
▁gratulieren	-8235
▁initiativen	-8236
▁instruments	-8237
▁kombination	-8238
▁kostenfreie	-8239
▁krankheiten	-8240
▁legitimität	-8241
▁perspektive	-8242
▁politisches	-8243
▁sogenannten	-8244
▁stattfindet	-8245
▁transparent	-8246
▁unterliegen	-8247
▁verarbeiten	-8248
▁versammlung	-8249
▁verzeichnen	-8250
▁vorausschau	-8251
▁vorgenommen	-8252
▁vorgestellt	-8253
▁vorzunehmen	-8254
▁wichtigkeit	-8255
▁zukünftigen	-8256
▁übermittelt	-8257
▁alternativen	-8258
▁angemessenen	-8259
▁anschließend	-8260
▁aufgefordert	-8261
▁ausgeliefert	-8262
▁außenpolitik	-8263
▁begeisterung	-8264
▁beschreibung	-8265
▁betreffenden	-8266
▁bevölkerungs	-8267
▁drittländern	-8268
▁einschätzung	-8269
▁einzigartige	-8270
▁entscheidend	-8271
▁geschlechter	-8272
▁hauptbahnhof	-8273
▁italienische	-8274
▁journalisten	-8275
▁jugendlichen	-8276
▁konstruktion	-8277
▁konzentriert	-8278
▁nationalpark	-8279
▁schwerwiegen	-8280
▁spezialisten	-8281
▁strategische	-8282
▁swimmingpool	-8283
▁verarbeitung	-8284
▁vollständige	-8285
wissenschaften	-8286
▁ausführlichen	-8287
▁beschäftigten	-8288
▁einstellungen	-8289
▁kennzeichnung	-8290
▁konstruktiven	-8291
▁langfristigen	-8292
▁militärischen	-8293
▁normalerweise	-8294
▁ratifizierung	-8295
▁strukturfonds	-8296
▁verabschieden	-8297
▁vereinfachung	-8298
▁verfügbarkeit	-8299
▁verteidigungs	-8300
▁vollständigen	-8301
▁zuständigkeit	-8302
geschwindigkeit	-8303
mitgliedstaaten	-8304
▁beschäftigungs	-8305
▁internetzugang	-8306
▁modernisierung	-8307
▁nahrungsmittel	-8308
▁stabilisierung	-8309
▁unterstreichen	-8310
▁vereinbarungen	-8311
▁zurückzuführen	-8312
▁außergewöhnlich	-8313
▁außerordentlich	-8314
▁einschränkungen	-8315
▁kontinuierliche	-8316
▁premierminister	-8317
▁protektionismus	-8318
▁regierungschefs	-8319
/2	-8320
/3	-8321
32	-8322
4-	-8323
72	-8324
86	-8325
ao	-8326
bb	-8327
gb	-8328
mü	-8329
rt	-8330
sz	-8331
xe	-8332
yc	-8333
yd	-8334
ès	-8335
ía	-8336
üd	-8337
▁ü	-8338
.06	-8339
ack	-8340
ael	-8341
aga	-8342
aly	-8343
amm	-8344
arn	-8345
ask	-8346
bef	-8347
bem	-8348
bik	-8349
cis	-8350
cts	-8351
dia	-8352
edi	-8353
gut	-8354
ham	-8355
ial	-8356
ida	-8357
ift	-8358
irk	-8359
kru	-8360
laf	-8361
lav	-8362
ley	-8363
mas	-8364
mie	-8365
neu	-8366
oda	-8367
ody	-8368
olf	-8369
olv	-8370
oro	-8371
oto	-8372
pal	-8373
pol	-8374
pon	-8375
pri	-8376
ray	-8377
sie	-8378
son	-8379
stä	-8380
tan	-8381
teu	-8382
uli	-8383
uls	-8384
vre	-8385
wel	-8386
wen	-8387
yth	-8388
zig	-8389
ßte	-8390
äss	-8391
éri	-8392
öch	-8393
▁//	-8394
▁09	-8395
▁5-	-8396
▁52	-8397
▁71	-8398
▁cn	-8399
▁dä	-8400
▁dé	-8401
▁jh	-8402
▁kw	-8403
▁mb	-8404
▁oe	-8405
▁ok	-8406
▁om	-8407
▁rä	-8408
▁rü	-8409
▁sd	-8410
▁sn	-8411
▁yo	-8412
5-00	-8413
aben	-8414
adem	-8415
aner	-8416
arth	-8417
ates	-8418
beam	-8419
büro	-8420
dens	-8421
dorf	-8422
dyll	-8423
egro	-8424
emin	-8425
endo	-8426
enkt	-8427
esco	-8428
folg	-8429
ftet	-8430
gart	-8431
geld	-8432
gewä	-8433
gton	-8434
iets	-8435
igem	-8436
ikal	-8437
iker	-8438
inge	-8439
inos	-8440
ipel	-8441
izer	-8442
kenn	-8443
klar	-8444
lägt	-8445
mbab	-8446
menü	-8447
mont	-8448
mäch	-8449
niss	-8450
okol	-8451
onda	-8452
ooms	-8453
otte	-8454
over	-8455
pack	-8456
prin	-8457
quis	-8458
reit	-8459
rill	-8460
ript	-8461
ritz	-8462
ront	-8463
safe	-8464
sbas	-8465
serv	-8466
stil	-8467
sver	-8468
tech	-8469
uchs	-8470
ulen	-8471
uner	-8472
vill	-8473
wart	-8474
wege	-8475
wegs	-8476
west	-8477
xvid	-8478
älde	-8479
ätze	-8480
äumt	-8481
ünkt	-8482
▁180	-8483
▁2.0	-8484
▁23.	-8485
▁24-	-8486
▁250	-8487
▁900	-8488
▁ach	-8489
▁add	-8490
▁ann	-8491
▁aqu	-8492
▁bag	-8493
▁bom	-8494
▁bos	-8495
▁cad	-8496
▁cer	-8497
▁cir	-8498
▁cop	-8499
▁dos	-8500
▁eas	-8501
▁ehe	-8502
▁equ	-8503
▁esc	-8504
▁fat	-8505
▁fax	-8506
▁fis	-8507
▁fla	-8508
▁gir	-8509
▁has	-8510
▁hof	-8511
▁inf	-8512
▁jac	-8513
▁jar	-8514
▁kit	-8515
▁kür	-8516
▁lan	-8517
▁lcd	-8518
▁leh	-8519
▁let	-8520
▁lim	-8521
▁lit	-8522
▁lär	-8523
▁mad	-8524
▁maj	-8525
▁mis	-8526
▁mol	-8527
▁nam	-8528
▁nar	-8529
▁pau	-8530
▁pet	-8531
▁ppe	-8532
▁ret	-8533
▁run	-8534
▁sad	-8535
▁sri	-8536
▁sun	-8537
▁tee	-8538
▁tur	-8539
▁vul	-8540
▁wal	-8541
▁wat	-8542
▁win	-8543
▁zeu	-8544
▁zür	-8545
ablen	-8546
allel	-8547
arium	-8548
auben	-8549
biger	-8550
blatt	-8551
bäume	-8552
cedes	-8553
chron	-8554
denkt	-8555
dring	-8556
endre	-8557
ergie	-8558
essor	-8559
etenz	-8560
euten	-8561
fisch	-8562
flüge	-8563
folio	-8564
gemäß	-8565
hungs	-8566
iehlt	-8567
immel	-8568
ining	-8569
ischt	-8570
kshop	-8571
later	-8572
läuft	-8573
noten	-8574
ochen	-8575
ofern	-8576
ophie	-8577
oppen	-8578
optic	-8579
parks	-8580
pfung	-8581
quenz	-8582
rolle	-8583
ränke	-8584
schad	-8585
ssern	-8586
stock	-8587
trags	-8588
tzeit	-8589
urcht	-8590
ustom	-8591
werks	-8592
wider	-8593
ätzen	-8594
öhnen	-8595
ünfte	-8596
ütung	-8597
ützte	-8598
▁1988	-8599
▁1989	-8600
▁1993	-8601
▁acro	-8602
▁adri	-8603
▁alex	-8604
▁area	-8605
▁arzt	-8606
▁bele	-8607
▁bern	-8608
▁blue	-8609
▁cort	-8610
▁data	-8611
▁drän	-8612
▁dunk	-8613
▁eads	-8614
▁entf	-8615
▁ethn	-8616
▁etik	-8617
▁eure	-8618
▁food	-8619
▁fred	-8620
▁gala	-8621
▁game	-8622
▁geor	-8623
▁grem	-8624
▁haar	-8625
▁hart	-8626
▁hell	-8627
▁html	-8628
▁http	-8629
▁häuf	-8630
▁hört	-8631
▁inbe	-8632
▁infl	-8633
▁iron	-8634
▁jack	-8635
▁konj	-8636
▁konz	-8637
▁kron	-8638
▁lehn	-8639
▁lern	-8640
▁lett	-8641
▁ließ	-8642
▁like	-8643
▁line	-8644
▁lock	-8645
▁lust	-8646
▁maga	-8647
▁maur	-8648
▁modi	-8649
▁nied	-8650
▁norm	-8651
▁null	-8652
▁open	-8653
▁over	-8654
▁pens	-8655
▁quer	-8656
▁radi	-8657
▁read	-8658
▁rind	-8659
▁roma	-8660
▁safe	-8661
▁schu	-8662
▁spre	-8663
▁spur	-8664
▁spür	-8665
▁südo	-8666
▁trib	-8667
▁unzu	-8668
▁visa	-8669
▁vors	-8670
▁wass	-8671
▁wick	-8672
▁zend	-8673
▁zoll	-8674
abgabe	-8675
achsen	-8676
achter	-8677
alerie	-8678
annter	-8679
apital	-8680
bergen	-8681
betten	-8682
bieren	-8683
bungen	-8684
chtung	-8685
design	-8686
drückt	-8687
dungen	-8688
eitete	-8689
ellent	-8690
eption	-8691
etooth	-8692
fangen	-8693
festiv	-8694
garten	-8695
graben	-8696
grenze	-8697
größen	-8698
hausen	-8699
hotels	-8700
hörige	-8701
ieller	-8702
ietung	-8703
igungs	-8704
ilding	-8705
jahres	-8706
klasse	-8707
linder	-8708
läufig	-8709
mäßige	-8710
nisses	-8711
opping	-8712
ordnet	-8713
platte	-8714
ragung	-8715
risiko	-8716
sebene	-8717
sender	-8718
strand	-8719
terung	-8720
timmen	-8721
uchten	-8722
verter	-8723
vertre	-8724
voller	-8725
wäsche	-8726
ysteme	-8727
zahler	-8728
zenten	-8729
▁alarm	-8730
▁allzu	-8731
▁argen	-8732
▁atlan	-8733
▁befes	-8734
▁brand	-8735
▁clubs	-8736
▁derer	-8737
▁desto	-8738
▁disco	-8739
▁drama	-8740
▁endet	-8741
▁flash	-8742
▁flüss	-8743
▁forma	-8744
▁forum	-8745
▁frist	-8746
▁füßen	-8747
▁gerät	-8748
▁griff	-8749
▁group	-8750
▁idyll	-8751
▁ignor	-8752
▁indir	-8753
▁intel	-8754
▁jenen	-8755
▁kabel	-8756
▁klaus	-8757
▁knapp	-8758
▁kreis	-8759
▁later	-8760
▁leser	-8761
▁liter	-8762
▁luxus	-8763
▁maler	-8764
▁mazed	-8765
▁meint	-8766
▁motto	-8767
▁musli	-8768
▁nizza	-8769
▁nordk	-8770
▁nukle	-8771
▁nutzt	-8772
▁order	-8773
▁orten	-8774
▁patch	-8775
▁pilot	-8776
▁place	-8777
▁platt	-8778
▁pünkt	-8779
▁quell	-8780
▁rande	-8781
▁reduz	-8782
▁risik	-8783
▁räume	-8784
▁santa	-8785
▁schad	-8786
▁schar	-8787
▁schäd	-8788
▁sitze	-8789
▁skype	-8790
▁small	-8791
▁south	-8792
▁space	-8793
▁sperr	-8794
▁stahl	-8795
▁stift	-8796
▁style	-8797
▁sympt	-8798
▁there	-8799
▁tools	-8800
▁tritt	-8801
▁unaus	-8802
▁unger	-8803
▁upgra	-8804
▁urban	-8805
▁wasch	-8806
▁which	-8807
▁yacht	-8808
▁zählt	-8809
alteten	-8810
angebot	-8811
aritäts	-8812
branche	-8813
brechen	-8814
ementen	-8815
entwurf	-8816
familie	-8817
fleisch	-8818
gerecht	-8819
hington	-8820
ikalien	-8821
intensi	-8822
ischung	-8823
komplex	-8824
konzept	-8825
nummern	-8826
osophie	-8827
pflicht	-8828
preises	-8829
prinzip	-8830
rechten	-8831
reiches	-8832
richtet	-8833
schafts	-8834
schritt	-8835
spunkte	-8836
straßen	-8837
systems	-8838
tenegro	-8839
tlicher	-8840
wirkung	-8841
wärtige	-8842
zahlung	-8843
zession	-8844
▁ablauf	-8845
▁anlage	-8846
▁annehm	-8847
▁anstre	-8848
▁aufzug	-8849
▁ausgeb	-8850
▁batter	-8851
▁beacht	-8852
▁begann	-8853
▁beider	-8854
▁belohn	-8855
▁berufs	-8856
▁bestre	-8857
▁betont	-8858
▁bewaff	-8859
▁beweis	-8860
▁blumen	-8861
▁budget	-8862
▁compan	-8863
▁custom	-8864
▁damals	-8865
▁decken	-8866
▁dingen	-8867
▁einbau	-8868
▁einzur	-8869
▁engine	-8870
▁europe	-8871
▁format	-8872
▁frühen	-8873
▁furcht	-8874
▁führer	-8875
▁gekenn	-8876
▁gelang	-8877
▁gemüse	-8878
▁geplan	-8879
▁gewerk	-8880
▁grande	-8881
▁halben	-8882
▁himmel	-8883
▁hostel	-8884
▁inspir	-8885
▁jünger	-8886
▁kanada	-8887
▁kindes	-8888
▁kolumb	-8889
▁küchen	-8890
▁langem	-8891
▁legend	-8892
▁marken	-8893
▁maßgeb	-8894
▁messen	-8895
▁muster	-8896
▁müsste	-8897
▁nachge	-8898
▁namens	-8899
▁nummer	-8900
▁offene	-8901
▁planen	-8902
▁playst	-8903
▁portra	-8904
▁primär	-8905
▁puerto	-8906
▁recher	-8907
▁schall	-8908
▁schlag	-8909
▁senken	-8910
▁sieben	-8911
▁sodass	-8912
▁sparen	-8913
▁spuren	-8914
▁stoffe	-8915
▁tiefer	-8916
▁tonnen	-8917
▁trends	-8918
▁urteil	-8919
▁vergrö	-8920
▁verkün	-8921
▁verwir	-8922
▁vierte	-8923
▁vorbei	-8924
▁weisen	-8925
▁wellen	-8926
▁widmen	-8927
▁zauber	-8928
▁zwecke	-8929
▁zürich	-8930
▁ältere	-8931
▁ändert	-8932
▁überqu	-8933
anbieter	-8934
anzeigen	-8935
assungen	-8936
aufgaben	-8937
bereiten	-8938
berichte	-8939
bildungs	-8940
formatik	-8941
gebühren	-8942
geführte	-8943
gerechte	-8944
inischen	-8945
jährigen	-8946
kontroll	-8947
lichsten	-8948
lässigen	-8949
methoden	-8950
mögliche	-8951
onischen	-8952
pflanzen	-8953
schalten	-8954
sprochen	-8955
stehende	-8956
ysischen	-8957
zuführen	-8958
▁abnahme	-8959
▁abwechs	-8960
▁aktiver	-8961
▁angeben	-8962
▁anlegen	-8963
▁ansehen	-8964
▁beenden	-8965
▁beendet	-8966
▁befasst	-8967
▁bekommt	-8968
▁belgien	-8969
▁berühmt	-8970
▁besorgt	-8971
▁beträgt	-8972
▁bewährt	-8973
▁bislang	-8974
▁brachte	-8975
▁breiter	-8976
▁british	-8977
▁desktop	-8978
▁dialogs	-8979
▁digital	-8980
▁distanz	-8981
▁drücken	-8982
▁einspar	-8983
▁erfasst	-8984
▁erhoben	-8985
▁erstaun	-8986
▁europol	-8987
▁falsche	-8988
▁freitag	-8989
▁frische	-8990
▁galileo	-8991
▁geltend	-8992
▁genauer	-8993
▁genießt	-8994
▁greifen	-8995
▁grundle	-8996
▁hundert	-8997
▁interak	-8998
▁irische	-8999
▁karibik	-9000
▁kommand	-9001
▁konkret	-9002
▁konkurr	-9003
▁konsens	-9004
▁konvent	-9005
▁kredite	-9006
▁legisla	-9007
▁löschen	-9008
▁marktes	-9009
▁minimal	-9010
▁mittele	-9011
▁modelle	-9012
▁monitor	-9013
▁montage	-9014
▁müssten	-9015
▁nutzbar	-9016
▁panoram	-9017
▁preisst	-9018
▁prämien	-9019
▁ramblas	-9020
▁schwere	-9021
▁skandal	-9022
▁softwar	-9023
▁strecke	-9024
▁strenge	-9025
▁studium	-9026
▁support	-9027
▁tabelle	-9028
▁tatsäch	-9029
▁theater	-9030
▁thermal	-9031
▁tourist	-9032
▁turnier	-9033
▁umgehen	-9034
▁unglaub	-9035
▁verlauf	-9036
▁vermitt	-9037
▁verviel	-9038
▁vorgang	-9039
▁wachsen	-9040
▁wandern	-9041
▁werbung	-9042
▁wodurch	-9043
▁zurzeit	-9044
▁zwingen	-9045
▁ärmsten	-9046
bezogenen	-9047
einheiten	-9048
fizierten	-9049
fizierung	-9050
geschäfte	-9051
gestellte	-9052
kapazität	-9053
liegenden	-9054
ordnungen	-9055
reibungen	-9056
schließen	-9057
schlüssel	-9058
vereinbar	-9059
vertreten	-9060
wanderung	-9061
weisungen	-9062
▁amtieren	-9063
▁anstehen	-9064
▁anzeigen	-9065
▁ausfahrt	-9066
▁basieren	-9067
▁bedauere	-9068
▁befürwor	-9069
▁bekannte	-9070
▁besitzen	-9071
▁besticht	-9072
▁betriebe	-9073
▁bewerten	-9074
▁bewertet	-9075
▁bewohner	-9076
▁billigen	-9077
▁budapest	-9078
▁building	-9079
▁chambres	-9080
▁digitale	-9081
▁durchsch	-9082
▁eingehen	-9083
▁elektriz	-9084
▁erinnert	-9085
▁erklärte	-9086
▁errungen	-9087
▁erzeugen	-9088
▁exklusiv	-9089
▁externen	-9090
▁features	-9091
▁finnland	-9092
▁führende	-9093
▁gebäuden	-9094
▁gegangen	-9095
▁gegenden	-9096
▁gehalten	-9097
▁gepflegt	-9098
▁geregelt	-9099
▁geringen	-9100
▁gespräch	-9101
▁gewisser	-9102
▁gleicher	-9103
▁grünbuch	-9104
▁herauszu	-9105
▁hervorzu	-9106
▁illegale	-9107
▁implemen	-9108
▁insofern	-9109
▁interpre	-9110
▁irischen	-9111
▁jetzigen	-9112
▁konsolid	-9113
▁lettland	-9114
▁maßnahme	-9115
▁meistens	-9116
▁mercedes	-9117
▁mittlere	-9118
▁momentan	-9119
▁nächster	-9120
▁objektiv	-9121
▁parallel	-9122
▁planeten	-9123
▁portugal	-9124
▁riesigen	-9125
▁rumänien	-9126
▁scheinen	-9127
▁schlacht	-9128
▁sensibil	-9129
▁students	-9130
▁stärkere	-9131
▁systemen	-9132
▁tägliche	-9133
▁umgehend	-9134
▁ungewöhn	-9135
▁vergeben	-9136
▁verträge	-9137
▁wahrheit	-9138
▁wahrnehm	-9139
▁wechseln	-9140
▁weißbuch	-9141
▁zahlungs	-9142
▁zeichnet	-9143
gestellten	-9144
instrument	-9145
kontrollen	-9146
konvention	-9147
landschaft	-9148
vorschläge	-9149
▁abgesehen	-9150
▁anzugehen	-9151
▁auflösung	-9152
▁aufsichts	-9153
▁auswählen	-9154
▁bedeutsam	-9155
▁berechnet	-9156
▁bestimmen	-9157
▁bewundern	-9158
▁bluetooth	-9159
▁converter	-9160
▁datenbank	-9161
▁definiert	-9162
▁dokumente	-9163
▁einhalten	-9164
▁entfallen	-9165
▁erstklass	-9166
▁eröffnung	-9167
▁exklusive	-9168
▁fernsehen	-9169
▁flughäfen	-9170
▁gebilligt	-9171
▁gefängnis	-9172
▁geistigen	-9173
▁gelegenen	-9174
▁gemeinden	-9175
▁gemütlich	-9176
▁geschafft	-9177
▁geschickt	-9178
▁gespräche	-9179
▁gestaltet	-9180
▁gestartet	-9181
▁gestiegen	-9182
▁herkunfts	-9183
▁hilfreich	-9184
▁kapazität	-9185
▁kleineren	-9186
▁künstlern	-9187
▁laterooms	-9188
▁migration	-9189
▁niedrigen	-9190
▁politiken	-9191
▁projekten	-9192
▁schlechte	-9193
▁selbständ	-9194
▁speichert	-9195
▁stuttgart	-9196
▁ständigen	-9197
▁typischen	-9198
▁täglichen	-9199
▁unverbind	-9200
▁vermieden	-9201
▁versuchte	-9202
▁verträgen	-9203
▁vorherige	-9204
▁werkzeuge	-9205
▁zahlungen	-9206
▁zuständig	-9207
aktivitäten	-9208
möglichkeit	-9209
▁abgestimmt	-9210
▁administra	-9211
▁allmählich	-9212
▁angebracht	-9213
▁angewendet	-9214
▁angewiesen	-9215
▁anlässlich	-9216
▁anzunehmen	-9217
▁anzupassen	-9218
▁aufteilung	-9219
▁ausschließ	-9220
▁ausschluss	-9221
▁auswärtige	-9222
▁begründung	-9223
▁beratungen	-9224
▁beschränkt	-9225
▁beseitigen	-9226
▁bestellung	-9227
▁bestimmter	-9228
▁bewältigen	-9229
▁bezeichnet	-9230
▁bürokratie	-9231
▁deutlicher	-9232
▁eingeführt	-9233
▁empfehlung	-9234
▁entfernung	-9235
▁erreichbar	-9236
▁freundlich	-9237
▁gefährlich	-9238
▁gegenstand	-9239
▁hauptstadt	-9240
▁heimatland	-9241
▁integrität	-9242
▁kenntnisse	-9243
▁kommissare	-9244
▁konsequent	-9245
▁mazedonien	-9246
▁montenegro	-9247
▁multilater	-9248
▁nachdenken	-9249
▁nachtleben	-9250
▁newsletter	-9251
▁niederländ	-9252
▁offensicht	-9253
▁positionen	-9254
▁prävention	-9255
▁russischen	-9256
▁rücksichts	-9257
▁schlechter	-9258
▁simulation	-9259
▁spannungen	-9260
▁steigerung	-9261
▁verbringen	-9262
▁verfahrens	-9263
▁vorsichtig	-9264
▁washington	-9265
▁weihnachts	-9266
▁weitgehend	-9267
▁westlichen	-9268
▁wiederholt	-9269
▁wohnzimmer	-9270
▁zeitgenöss	-9271
▁zugestimmt	-9272
▁zukünftige	-9273
▁überschuss	-9274
beauftragten	-9275
beschreibung	-9276
spolitischen	-9277
spräsidenten	-9278
▁amtierenden	-9279
▁aufenthalts	-9280
▁beantworten	-9281
▁befürwortet	-9282
▁beibehalten	-9283
▁beizutragen	-9284
▁beschließen	-9285
▁bewusstsein	-9286
▁dargestellt	-9287
▁datenbanken	-9288
▁eingebracht	-9289
▁eingegangen	-9290
▁eingeleitet	-9291
▁eingetragen	-9292
▁einwanderer	-9293
▁einzuführen	-9294
▁enthaltenen	-9295
▁entwickelte	-9296
▁erleichtert	-9297
▁experimente	-9298
▁fitnessraum	-9299
▁freundliche	-9300
▁friedlichen	-9301
▁gemeinsamer	-9302
▁gemeinsames	-9303
▁jugendliche	-9304
▁kanarischen	-9305
▁keinesfalls	-9306
▁klassischen	-9307
▁kostengünst	-9308
▁mechanismen	-9309
▁neuigkeiten	-9310
▁parlamenten	-9311
▁produzieren	-9312
▁rechtlichen	-9313
▁reihenfolge	-9314
▁situationen	-9315
▁traditionen	-9316
▁unmittelbar	-9317
▁untergraben	-9318
▁unterhalten	-9319
▁versprochen	-9320
▁vielfältige	-9321
▁vorankommen	-9322
▁vorstellung	-9323
▁widerspruch	-9324
▁zahlreicher	-9325
infrastruktur	-9326
▁abhängigkeit	-9327
▁anzusprechen	-9328
▁attraktionen	-9329
▁beabsichtigt	-9330
▁bedürfnissen	-9331
▁diskussionen	-9332
▁drittstaaten	-9333
▁durchsetzung	-9334
▁einheitliche	-9335
▁erfolgreiche	-9336
▁erkenntnisse	-9337
▁festgehalten	-9338
▁feststellung	-9339
▁finanzierung	-9340
▁gegenwärtige	-9341
▁interinstitu	-9342
▁konsequenzen	-9343
▁kontaktieren	-9344
▁lateinamerik	-9345
▁leidenschaft	-9346
▁rechnungshof	-9347
▁regulierungs	-9348
▁reservierung	-9349
▁schlafzimmer	-9350
▁schwedischen	-9351
▁traditionell	-9352
▁umweltfreund	-9353
▁ungewöhnlich	-9354
▁unterbreitet	-9355
▁vernünftigen	-9356
▁vorsitzenden	-9357
▁wiederaufbau	-9358
▁wunderschöne	-9359
▁öffentlicher	-9360
▁überlegungen	-9361
ationsabkommen	-9362
▁beschleunigen	-9363
▁bürgermeister	-9364
▁eingerichtete	-9365
▁erforderliche	-9366
▁finanzierungs	-9367
▁gerechtigkeit	-9368
▁hervorgehoben	-9369
▁interessanter	-9370
▁konzentration	-9371
▁medizinischen	-9372
▁organisierten	-9373
▁rechtfertigen	-9374
▁stattgefunden	-9375
▁untergebracht	-9376
▁untersuchungs	-9377
▁unterzeichnet	-9378
▁vizepräsident	-9379
▁vorausgesetzt	-9380
▁weitergegeben	-9381
▁widersprechen	-9382
▁wunderschönen	-9383
▁dienstleistung	-9384
▁eingerichteten	-9385
▁elektronischen	-9386
▁energiequellen	-9387
▁entscheidender	-9388
▁frühstücksraum	-9389
▁funktionalität	-9390
▁gerechtfertigt	-9391
▁jugendherberge	-9392
▁kommunikations	-9393
▁komplettpreise	-9394
▁mehrwertsteuer	-9395
▁naturkatastrop	-9396
▁unterschrieben	-9397
▁vorgehensweise	-9398
▁dementsprechend	-9399
▁ferienwohnungen	-9400
▁veröffentlichen	-9401
,2	-9402
,6	-9403
-/	-9404
18	-9405
28	-9406
35	-9407
4/	-9408
47	-9409
58	-9410
65	-9411
av	-9412
dp	-9413
dv	-9414
ez	-9415
gg	-9416
gy	-9417
gä	-9418
jn	-9419
kw	-9420
kö	-9421
pu	-9422
sh	-9423
su	-9424
td	-9425
tü	-9426
uc	-9427
xy	-9428
zz	-9429
▁q	-9430
1.1	-9431
20-	-9432
aby	-9433
acc	-9434
act	-9435
ago	-9436
agt	-9437
ahe	-9438
ain	-9439
ais	-9440
ani	-9441
anj	-9442
ato	-9443
aux	-9444
bon	-9445
brü	-9446
chi	-9447
cus	-9448
dau	-9449
day	-9450
deb	-9451
dle	-9452
edo	-9453
eho	-9454
ely	-9455
eme	-9456
ena	-9457
eri	-9458
esa	-9459
esk	-9460
eth	-9461
fan	-9462
frü	-9463
fst	-9464
ged	-9465
gnü	-9466
ick	-9467
ics	-9468
ids	-9469
ieh	-9470
ios	-9471
ipp	-9472
irt	-9473
iso	-9474
ius	-9475
jar	-9476
jet	-9477
kau	-9478
key	-9479
let	-9480
lus	-9481
mor	-9482
män	-9483
nam	-9484
ney	-9485
obe	-9486
ois	-9487
oss	-9488
pes	-9489
put	-9490
ras	-9491
rem	-9492
rid	-9493
rim	-9494
rol	-9495
sec	-9496
ska	-9497
spf	-9498
tsp	-9499
typ	-9500
uck	-9501
ump	-9502
ura	-9503
var	-9504
vec	-9505
via	-9506
vol	-9507
zel	-9508
äle	-9509
äqu	-9510
▁06	-9511
▁33	-9512
▁39	-9513
▁42	-9514
▁43	-9515
▁44	-9516
▁46	-9517
▁51	-9518
▁54	-9519
▁59	-9520
▁cv	-9521
▁dj	-9522
▁kg	-9523
▁ki	-9524
▁nl	-9525
▁ré	-9526
▁sl	-9527
▁sz	-9528
▁sé	-9529
▁ts	-9530
▁tö	-9531
▁wc	-9532
▁wm	-9533
▁ya	-9534
▁ye	-9535
▁ze	-9536
▁äu	-9537
ader	-9538
ahme	-9539
aker	-9540
ania	-9541
apie	-9542
apol	-9543
arfs	-9544
arma	-9545
asie	-9546
azur	-9547
bele	-9548
bewe	-9549
blen	-9550
char	-9551
ción	-9552
ctor	-9553
dmet	-9554
eige	-9555
elen	-9556
erbe	-9557
erer	-9558
eric	-9559
esch	-9560
euro	-9561
flex	-9562
ford	-9563
frie	-9564
ftig	-9565
förm	-9566
gast	-9567
gers	-9568
gesp	-9569
helm	-9570
hilf	-9571
hony	-9572
ible	-9573
ider	-9574
ieck	-9575
iein	-9576
iern	-9577
igte	-9578
iler	-9579
info	-9580
isen	-9581
ited	-9582
itiv	-9583
itra	-9584
iums	-9585
kern	-9586
klen	-9587
krie	-9588
lanz	-9589
lech	-9590
lymp	-9591
mark	-9592
nutz	-9593
nähe	-9594
omin	-9595
ones	-9596
opro	-9597
ores	-9598
pres	-9599
priv	-9600
reif	-9601
ress	-9602
rier	-9603
road	-9604
rock	-9605
rägt	-9606
senk	-9607
sfer	-9608
sinn	-9609
spei	-9610
sson	-9611
sthe	-9612
strö	-9613
städ	-9614
tels	-9615
tial	-9616
tzut	-9617
uben	-9618
uble	-9619
webs	-9620
well	-9621
wser	-9622
währ	-9623
xima	-9624
ynth	-9625
zeln	-9626
ßten	-9627
ärer	-9628
ätzt	-9629
öpft	-9630
ühle	-9631
▁18.	-9632
▁29.	-9633
▁abu	-9634
▁aer	-9635
▁akt	-9636
▁arc	-9637
▁arl	-9638
▁aro	-9639
▁bac	-9640
▁bse	-9641
▁but	-9642
▁ceo	-9643
▁cra	-9644
▁day	-9645
▁doc	-9646
▁dün	-9647
▁ech	-9648
▁erb	-9649
▁erw	-9650
▁faq	-9651
▁flu	-9652
▁gau	-9653
▁gvo	-9654
▁han	-9655
▁hie	-9656
▁hug	-9657
▁iii	-9658
▁inc	-9659
▁job	-9660
▁jos	-9661
▁jüd	-9662
▁ker	-9663
▁key	-9664
▁kla	-9665
▁klu	-9666
▁koh	-9667
▁lev	-9668
▁lod	-9669
▁lou	-9670
▁lov	-9671
▁mah	-9672
▁mau	-9673
▁may	-9674
▁mcc	-9675
▁nür	-9676
▁ohn	-9677
▁pak	-9678
▁rab	-9679
▁rau	-9680
▁reb	-9681
▁rig	-9682
▁rio	-9683
▁rob	-9684
▁rue	-9685
▁ruf	-9686
▁saf	-9687
▁sat	-9688
▁seu	-9689
▁sho	-9690
▁stö	-9691
▁sud	-9692
▁sul	-9693
▁sus	-9694
▁thy	-9695
▁unm	-9696
▁usb	-9697
▁use	-9698
▁vic	-9699
▁voy	-9700
▁wus	-9701
▁wör	-9702
▁zah	-9703
▁zit	-9704
▁äng	-9705
/2001	-9706
/2002	-9707
artik	-9708
bauer	-9709
bergt	-9710
boden	-9711
büros	-9712
datum	-9713
eidet	-9714
erten	-9715
estra	-9716
fizit	-9717
fluss	-9718
forum	-9719
füllt	-9720
gebäu	-9721
haber	-9722
heira	-9723
ierer	-9724
ietet	-9725
igere	-9726
insel	-9727
ittel	-9728
keten	-9729
küche	-9730
leute	-9731
lägen	-9732
mmert	-9733
motor	-9734
onanz	-9735
orben	-9736
orium	-9737
ossen	-9738
phabe	-9739
pläne	-9740
reibe	-9741
rüger	-9742
schme	-9743
spart	-9744
stens	-9745
stern	-9746
stete	-9747
stral	-9748
stuhl	-9749
sturm	-9750
sucht	-9751
szeit	-9752
teams	-9753
terne	-9754
teuer	-9755
ttern	-9756
tziel	-9757
ucher	-9758
ulden	-9759
urity	-9760
verla	-9761
zweck	-9762
änden	-9763
▁1920	-9764
▁1960	-9765
▁1980	-9766
▁2020	-9767
▁anre	-9768
▁avec	-9769
▁baut	-9770
▁bind	-9771
▁biom	-9772
▁bloß	-9773
▁bord	-9774
▁bull	-9775
▁burn	-9776
▁café	-9777
▁chip	-9778
▁dans	-9779
▁diam	-9780
▁east	-9781
▁ebit	-9782
▁echt	-9783
▁erlä	-9784
▁erre	-9785
▁este	-9786
▁fett	-9787
▁file	-9788
▁fons	-9789
▁foot	-9790
▁fron	-9791
▁fuss	-9792
▁fürs	-9793
▁gard	-9794
▁gläu	-9795
▁grav	-9796
▁guar	-9797
▁hann	-9798
▁hein	-9799
▁iber	-9800
▁impf	-9801
▁ipod	-9802
▁isol	-9803
▁jord	-9804
▁kali	-9805
▁kart	-9806
▁keep	-9807
▁klin	-9808
▁klon	-9809
▁köst	-9810
▁lack	-9811
▁lebt	-9812
▁leid	-9813
▁lieb	-9814
▁mani	-9815
▁maul	-9816
▁mech	-9817
▁near	-9818
▁obst	-9819
▁orch	-9820
▁orte	-9821
▁para	-9822
▁pfad	-9823
▁plat	-9824
▁prix	-9825
▁pron	-9826
▁rang	-9827
▁road	-9828
▁ross	-9829
▁salz	-9830
▁seid	-9831
▁setz	-9832
▁skep	-9833
▁sozi	-9834
▁stir	-9835
▁surf	-9836
▁tanz	-9837
▁task	-9838
▁thun	-9839
▁toll	-9840
▁town	-9841
▁tsch	-9842
▁unzä	-9843
▁vinc	-9844
▁voor	-9845
▁weis	-9846
▁wifi	-9847
▁work	-9848
▁ziti	-9849
▁zone	-9850
altete	-9851
annehm	-9852
bedien	-9853
betrag	-9854
biläum	-9855
burger	-9856
bution	-9857
center	-9858
distri	-9859
eleist	-9860
endien	-9861
ervice	-9862
faktor	-9863
freien	-9864
futter	-9865
gebend	-9866
gebühr	-9867
gehalt	-9868
habung	-9869
hänger	-9870
iegeln	-9871
ielten	-9872
ilater	-9873
ishing	-9874
itärer	-9875
iziert	-9876
kasten	-9877
landes	-9878
leiste	-9879
liance	-9880
llektu	-9881
mework	-9882
pflich	-9883
rachte	-9884
redner	-9885
reffen	-9886
regeln	-9887
richen	-9888
ränkte	-9889
saison	-9890
schild	-9891
schlei	-9892
spoten	-9893
stille	-9894
stücke	-9895
sätzen	-9896
tement	-9897
termin	-9898
tokoll	-9899
umente	-9900
uments	-9901
weilen	-9902
wesens	-9903
willig	-9904
zeilen	-9905
ärtner	-9906
▁abgel	-9907
▁absur	-9908
▁adobe	-9909
▁adäqu	-9910
▁anbel	-9911
▁anger	-9912
▁angst	-9913
▁apple	-9914
▁armee	-9915
▁array	-9916
▁arsch	-9917
▁athen	-9918
▁autos	-9919
▁baute	-9920
▁beach	-9921
▁beleu	-9922
▁beruh	-9923
▁beton	-9924
▁black	-9925
▁blogs	-9926
▁braun	-9927
▁brief	-9928
▁broad	-9929
▁brust	-9930
▁börse	-9931
▁canal	-9932
▁chron	-9933
▁conne	-9934
▁damal	-9935
▁davor	-9936
▁della	-9937
▁dunge	-9938
▁enden	-9939
▁erdöl	-9940
▁erfor	-9941
▁eurer	-9942
▁euros	-9943
▁farbe	-9944
▁feste	-9945
▁flüge	-9946
▁frühl	-9947
▁fülle	-9948
▁games	-9949
▁gebur	-9950
▁gento	-9951
▁genus	-9952
▁gitar	-9953
▁haiti	-9954
▁harte	-9955
▁heiße	-9956
▁heter	-9957
▁hyper	-9958
▁immig	-9959
▁immun	-9960
▁inspi	-9961
▁jener	-9962
▁komit	-9963
▁krist	-9964
▁könne	-9965
▁legte	-9966
▁liebl	-9967
▁local	-9968
▁lohnt	-9969
▁maria	-9970
▁mater	-9971
▁medik	-9972
▁miten	-9973
▁mitzu	-9974
▁netto	-9975
▁niger	-9976
▁night	-9977
▁norde	-9978
▁olymp	-9979
▁organ	-9980
▁passt	-9981
▁phant	-9982
▁plaza	-9983
▁point	-9984
▁popul	-9985
▁porto	-9986
▁quart	-9987
▁relev	-9988
▁repar	-9989
▁shutt	-9990
▁spart	-9991
▁süden	-9992
▁thail	-9993
▁treue	-9994
▁trock	-9995
▁ultra	-9996
▁ungew	-9997
▁valen	-9998
▁wofür	-9999
▁womit	-10000
▁world	-10001
▁wovon	-10002
▁young	-10003
▁überf	-10004
abgeord	-10005
anzeige	-10006
archite	-10007
arische	-10008
bleiben	-10009
buchung	-10010
deckung	-10011
duktion	-10012
ergehen	-10013
etschen	-10014
fektion	-10015
fenster	-10016
fernseh	-10017
händler	-10018
install	-10019
itravel	-10020
lichung	-10021
methode	-10022
minuten	-10023
motoren	-10024
ografen	-10025
ografie	-10026
onisten	-10027
otheken	-10028
preisen	-10029
rahmens	-10030
schiffe	-10031
skräfte	-10032
stellte	-10033
stoffen	-10034
sträger	-10035
treffen	-10036
tzutage	-10037
würdige	-10038
zentral	-10039
zierten	-10040
zusagen	-10041
zustand	-10042
ätigung	-10043
▁abflug	-10044
▁access	-10045
▁anmerk	-10046
▁archiv	-10047
▁armuts	-10048
▁austri	-10049
▁avenue	-10050
▁banden	-10051
▁befehl	-10052
▁betrug	-10053
▁betten	-10054
▁biolog	-10055
▁brücke	-10056
▁buffet	-10057
▁bücher	-10058
▁charme	-10059
▁deinem	-10060
▁domain	-10061
▁double	-10062
▁dublin	-10063
▁dunkel	-10064
▁effekt	-10065
▁eignen	-10066
▁einher	-10067
▁ersatz	-10068
▁erstar	-10069
▁erstes	-10070
▁eurora	-10071
▁fabrik	-10072
▁falsch	-10073
▁fassen	-10074
▁flügel	-10075
▁france	-10076
▁frucht	-10077
▁futter	-10078
▁gebühr	-10079
▁george	-10080
▁gesich	-10081
▁großem	-10082
▁gründe	-10083
▁gültig	-10084
▁hierzu	-10085
▁hinweg	-10086
▁hunger	-10087
▁import	-10088
▁irrtum	-10089
▁kaiser	-10090
▁klagen	-10091
▁korrig	-10092
▁kriegs	-10093
▁kurses	-10094
▁kurzem	-10095
▁kurzer	-10096
▁kämpfe	-10097
▁lehren	-10098
▁leuten	-10099
▁logist	-10100
▁lounge	-10101
▁längst	-10102
▁machte	-10103
▁mandat	-10104
▁marine	-10105
▁martin	-10106
▁meilen	-10107
▁minute	-10108
▁ostsee	-10109
▁pakete	-10110
▁passag	-10111
▁pharma	-10112
▁phasen	-10113
▁plenar	-10114
▁portal	-10115
▁rechen	-10116
▁reflek	-10117
▁remote	-10118
▁riesen	-10119
▁robert	-10120
▁runden	-10121
▁saison	-10122
▁sanitä	-10123
▁schock	-10124
▁school	-10125
▁schuld	-10126
▁simbab	-10127
▁socket	-10128
▁soeben	-10129
▁solide	-10130
▁strafe	-10131
▁strahl	-10132
▁suisse	-10133
▁säuber	-10134
▁taiwan	-10135
▁tasten	-10136
▁tenden	-10137
▁testen	-10138
▁tutori	-10139
▁unesco	-10140
▁verbün	-10141
▁verspä	-10142
▁vertik	-10143
▁vorhin	-10144
▁vorles	-10145
▁vulkan	-10146
▁wander	-10147
▁warmen	-10148
▁weiten	-10149
▁werfen	-10150
▁wohnen	-10151
▁wörter	-10152
▁zellen	-10153
▁zugest	-10154
▁zugute	-10155
▁zweier	-10156
▁äußern	-10157
▁öffnet	-10158
ausschuß	-10159
bewegung	-10160
chnitten	-10161
elemente	-10162
fahrzeug	-10163
festival	-10164
gestunde	-10165
gewässer	-10166
konfigur	-10167
material	-10168
nittlich	-10169
ourismus	-10170
parteien	-10171
personal	-10172
position	-10173
regionen	-10174
reiteten	-10175
republik	-10176
rontiert	-10177
schlüsse	-10178
spartner	-10179
spflicht	-10180
ssystems	-10181
standort	-10182
stischen	-10183
ternacht	-10184
vermögen	-10185
vielfalt	-10186
willigen	-10187
ündigung	-10188
▁abfahrt	-10189
▁angehen	-10190
▁anträge	-10191
▁atember	-10192
▁aussage	-10193
▁bedarfs	-10194
▁befreit	-10195
▁begleit	-10196
▁behörde	-10197
▁betrugs	-10198
▁bezogen	-10199
▁bilater	-10200
▁bildern	-10201
▁brennen	-10202
▁central	-10203
▁centrum	-10204
▁confort	-10205
▁defizit	-10206
▁demnach	-10207
▁direkte	-10208
▁drachen	-10209
▁drittel	-10210
▁effekte	-10211
▁ehrlich	-10212
▁eingang	-10213
▁elektro	-10214
▁empfang	-10215
▁enormen	-10216
▁erfreut	-10217
▁ergänzt	-10218
▁erheben	-10219
▁erzeugt	-10220
▁fehlern	-10221
▁florenz	-10222
▁formate	-10223
▁fördert	-10224
▁führend	-10225
▁gedanke	-10226
▁gelesen	-10227
▁gemälde	-10228
▁geprägt	-10229
▁gewinne	-10230
▁globale	-10231
▁grossen	-10232
▁gründer	-10233
▁günstig	-10234
▁heizung	-10235
▁hinzuzu	-10236
▁händler	-10237
▁impress	-10238
▁infolge	-10239
▁israels	-10240
▁kirchen	-10241
▁kompati	-10242
▁krieges	-10243
▁leistet	-10244
▁located	-10245
▁lokaler	-10246
▁längere	-10247
▁machbar	-10248
▁manager	-10249
▁mangeln	-10250
▁michael	-10251
▁monopol	-10252
▁nahrung	-10253
▁neueste	-10254
▁optimal	-10255
▁parking	-10256
▁perform	-10257
▁praktik	-10258
▁präsent	-10259
▁prüfung	-10260
▁rauchen	-10261
▁rechnen	-10262
▁rechner	-10263
▁samstag	-10264
▁schlägt	-10265
▁schokol	-10266
▁schreib	-10267
▁schwimm	-10268
▁schöner	-10269
▁serbien	-10270
▁sichere	-10271
▁signale	-10272
▁special	-10273
▁staffel	-10274
▁stellte	-10275
▁stoffen	-10276
▁städten	-10277
▁termini	-10278
▁thyssen	-10279
▁trinken	-10280
▁unnötig	-10281
▁venedig	-10282
▁verdeut	-10283
▁verstoß	-10284
▁vertrau	-10285
▁vertret	-10286
▁vorwand	-10287
▁völkerm	-10288
▁zukommt	-10289
▁zuwider	-10290
▁öffnung	-10291
▁überaus	-10292
aktivität	-10293
ationalen	-10294
bereichen	-10295
datenbank	-10296
istischer	-10297
kompetenz	-10298
meldungen	-10299
mäßigkeit	-10300
saktionen	-10301
schmecker	-10302
sprobleme	-10303
sprozesse	-10304
sstruktur	-10305
ungsrecht	-10306
ventionen	-10307
vorschlag	-10308
züglichen	-10309
▁albanien	-10310
▁anführen	-10311
▁arbeiter	-10312
▁argentin	-10313
▁aufbauen	-10314
▁auftrags	-10315
▁ausdrück	-10316
▁ausflüge	-10317
▁ausgrenz	-10318
▁bedanken	-10319
▁bedauern	-10320
▁begegnen	-10321
▁begriffe	-10322
▁beiträgt	-10323
▁bereiten	-10324
▁besitzer	-10325
▁betragen	-10326
▁betrüger	-10327
▁bewerber	-10328
▁bewirken	-10329
▁dasselbe	-10330
▁dienstag	-10331
▁dieselbe	-10332
▁eingeben	-10333
▁einsetzt	-10334
▁empfängt	-10335
▁energier	-10336
▁entschäd	-10337
▁erbracht	-10338
▁ereignis	-10339
▁erholung	-10340
▁erlassen	-10341
▁erlebnis	-10342
▁erläuter	-10343
▁erneuert	-10344
▁erschien	-10345
▁erstaunt	-10346
▁erteilen	-10347
▁erwiesen	-10348
▁erworben	-10349
▁existenz	-10350
▁exzellen	-10351
▁formaten	-10352
▁frühjahr	-10353
▁gebäudes	-10354
▁geeinigt	-10355
▁georgien	-10356
▁getrennt	-10357
▁gewähren	-10358
▁geäußert	-10359
▁herrscht	-10360
▁häufiger	-10361
▁immerhin	-10362
▁institut	-10363
▁kampagne	-10364
▁kandidat	-10365
▁karriere	-10366
▁kleidung	-10367
▁kleinere	-10368
▁konzepte	-10369
▁laufzeit	-10370
▁lizenzen	-10371
▁maximale	-10372
▁nachteil	-10373
▁nachvoll	-10374
▁negative	-10375
▁nützlich	-10376
▁redezeit	-10377
▁reibungs	-10378
▁reserven	-10379
▁resonanz	-10380
▁rückgang	-10381
▁rückkehr	-10382
▁schatten	-10383
▁schengen	-10384
▁schließt	-10385
▁schulden	-10386
▁schweren	-10387
▁shopping	-10388
▁siedlung	-10389
▁sinnvoll	-10390
▁sonntags	-10391
▁sozialer	-10392
▁strecken	-10393
▁synchron	-10394
▁treffens	-10395
▁unannehm	-10396
▁variiert	-10397
▁verluste	-10398
▁verschie	-10399
▁verschär	-10400
▁verzweif	-10401
▁vorhaben	-10402
▁vorschau	-10403
▁vorsieht	-10404
▁weltbank	-10405
▁workshop	-10406
▁zeitplan	-10407
▁zertifik	-10408
▁zitieren	-10409
▁zugriffs	-10410
▁zweifels	-10411
alisierten	-10412
funktionen	-10413
initiative	-10414
lässigkeit	-10415
oberfläche	-10416
serklärung	-10417
sprachigen	-10418
sprogramms	-10419
stillegung	-10420
uropäische	-10421
▁aktiviert	-10422
▁aktivität	-10423
▁anbelangt	-10424
▁angehören	-10425
▁angelegte	-10426
▁angepasst	-10427
▁anmeldung	-10428
▁anwendbar	-10429
▁anzusehen	-10430
▁architekt	-10431
▁aufweisen	-10432
▁ausdrucks	-10433
▁ausnahmen	-10434
▁basierend	-10435
▁bedienung	-10436
▁bedingung	-10437
▁befragung	-10438
▁begleiten	-10439
▁behauptet	-10440
▁beliebten	-10441
▁benutzung	-10442
▁betrachte	-10443
▁betreiber	-10444
▁bewegungs	-10445
▁britische	-10446
▁bulgarien	-10447
▁continent	-10448
▁differenz	-10449
▁digitalen	-10450
▁downloads	-10451
▁einbinden	-10452
▁einheiten	-10453
▁einigkeit	-10454
▁einleiten	-10455
▁einräumen	-10456
▁elementen	-10457
▁empfiehlt	-10458
▁entwerfen	-10459
▁ermutigen	-10460
▁erschöpft	-10461
▁erstreckt	-10462
▁excellent	-10463
▁fahrzeuge	-10464
▁fernseher	-10465
▁festivals	-10466
▁festlegen	-10467
▁fortgesch	-10468
▁gefährdet	-10469
▁gegenwart	-10470
▁geliefert	-10471
▁genehmigt	-10472
▁geräumige	-10473
▁geschäfte	-10474
▁gestattet	-10475
▁gestohlen	-10476
▁getrieben	-10477
▁glücklich	-10478
▁hauptziel	-10479
▁heterogen	-10480
▁krankheit	-10481
▁laufenden	-10482
▁literatur	-10483
▁luxuriöse	-10484
▁ländliche	-10485
▁meerblick	-10486
▁meinungen	-10487
▁migranten	-10488
▁mitarbeit	-10489
▁mitentsch	-10490
▁nordkorea	-10491
▁objektive	-10492
▁operation	-10493
▁palästina	-10494
▁parameter	-10495
▁passieren	-10496
▁patienten	-10497
▁plattform	-10498
▁professor	-10499
▁progressi	-10500
▁quadratme	-10501
▁ratschlag	-10502
▁reception	-10503
▁rezession	-10504
▁rücksicht	-10505
▁schicksal	-10506
▁schwellen	-10507
▁schwächen	-10508
▁skifahren	-10509
▁spanische	-10510
▁spazieren	-10511
▁treibhaus	-10512
▁unbegrenz	-10513
▁universal	-10514
▁ursprungs	-10515
▁vergütung	-10516
▁verkündet	-10517
▁vermieten	-10518
▁vermögens	-10519
▁verweilen	-10520
▁verwöhnen	-10521
▁vorrangig	-10522
▁weinberge	-10523
▁weltweite	-10524
▁westliche	-10525
▁zugreifen	-10526
▁überleben	-10527
▁überwacht	-10528
ausstellung	-10529
instrumente	-10530
ischerweise	-10531
kapazitäten	-10532
mechanismen	-10533
spezifische	-10534
splantation	-10535
ständigkeit	-10536
ungsfindung	-10537
▁abgehalten	-10538
▁abonnieren	-10539
▁angekommen	-10540
▁angenehmen	-10541
▁attraktive	-10542
▁aufgezahlt	-10543
▁augenblick	-10544
▁ausgewählt	-10545
▁auszubauen	-10546
▁bedeutende	-10547
▁befugnisse	-10548
▁beherbergt	-10549
▁beinhalten	-10550
▁bekräftigt	-10551
▁belgischen	-10552
▁beliebigen	-10553
▁bestehende	-10554
▁bezeichnen	-10555
▁bibliothek	-10556
▁effektiven	-10557
▁eindeutige	-10558
▁eingegeben	-10559
▁einrichten	-10560
▁englischen	-10561
▁entdeckung	-10562
▁entwickler	-10563
▁erfahrungs	-10564
▁erhebliche	-10565
▁erschienen	-10566
▁erörterung	-10567
▁existieren	-10568
▁gearbeitet	-10569
▁gestaltung	-10570
▁gewünschte	-10571
▁gleichheit	-10572
▁großartige	-10573
▁herrschaft	-10574
▁heutzutage	-10575
▁hinausgeht	-10576
▁intellektu	-10577
▁investiert	-10578
▁kilometern	-10579
▁konkurrenz	-10580
▁konvergenz	-10581
▁kulturelle	-10582
▁königreich	-10583
▁legendären	-10584
▁nachhaltig	-10585
▁netzwerken	-10586
▁offizielle	-10587
▁physischen	-10588
▁prinzipien	-10589
▁psychische	-10590
▁renovierte	-10591
▁resolution	-10592
▁schengener	-10593
▁schulungen	-10594
▁sogenannte	-10595
▁steigenden	-10596
▁subvention	-10597
▁temperatur	-10598
▁trainieren	-10599
▁unterdrück	-10600
▁vereinheit	-10601
▁verhaltens	-10602
▁verringert	-10603
▁verstanden	-10604
▁vertiefung	-10605
▁verurteile	-10606
▁virtuellen	-10607
▁vorbehalte	-10608
▁vorstellen	-10609
▁wachsenden	-10610
▁weitergabe	-10611
▁wikitravel	-10612
▁zerstörung	-10613
▁zunehmende	-10614
▁öffentlich	-10615
abhängigkeit	-10616
aritätsfonds	-10617
gemeinschaft	-10618
messmaschine	-10619
ungsbereichs	-10620
vereinbarung	-10621
▁angebotenen	-10622
▁anschließen	-10623
▁anstehenden	-10624
▁anweisungen	-10625
▁assistenten	-10626
▁aufeinander	-10627
▁aufstellung	-10628
▁ausgewählte	-10629
▁außergewöhn	-10630
▁bearbeitung	-10631
▁bekanntlich	-10632
▁beschwerden	-10633
▁bewältigung	-10634
▁chemikalien	-10635
▁comfortable	-10636
▁durchsuchen	-10637
▁eingebettet	-10638
▁endgültigen	-10639
▁ereignissen	-10640
▁finanzieren	-10641
▁flüchtlinge	-10642
▁fortgesetzt	-10643
▁fragestunde	-10644
▁gegenseitig	-10645
▁gegenstände	-10646
▁gesammelten	-10647
▁glaubwürdig	-10648
▁herausragen	-10649
▁hervorheben	-10650
▁hoffentlich	-10651
▁humanitären	-10652
▁inbegriffen	-10653
▁innovativen	-10654
▁inspiration	-10655
▁jahrzehnten	-10656
▁jugoslawien	-10657
▁komfortabel	-10658
▁komitologie	-10659
▁kommunismus	-10660
▁kompetenzen	-10661
▁kompliziert	-10662
▁komponenten	-10663
▁koordinaten	-10664
▁kostenlosen	-10665
▁kurzfristig	-10666
▁langjährige	-10667
▁mitternacht	-10668
▁oberflächen	-10669
▁offiziellen	-10670
▁optimierung	-10671
▁playstation	-10672
▁schwächsten	-10673
▁stimmabgabe	-10674
▁terroristen	-10675
▁todesstrafe	-10676
▁transaktion	-10677
▁umfassender	-10678
▁verarbeitet	-10679
▁vereinfacht	-10680
▁verfügbaren	-10681
▁vernünftige	-10682
▁verstärkung	-10683
▁verzögerung	-10684
▁veränderung	-10685
▁vorgesehene	-10686
▁vorhandenen	-10687
▁wohlergehen	-10688
▁zuverlässig	-10689
▁übertragung	-10690
▁übertrieben	-10691
anforderungen	-10692
einstellungen	-10693
institutionen	-10694
▁angenommenen	-10695
▁atemberauben	-10696
▁aufgegriffen	-10697
▁automatische	-10698
▁berühmtesten	-10699
▁beschleunigt	-10700
▁beschränkung	-10701
▁beschäftigen	-10702
▁bestandteile	-10703
▁detaillierte	-10704
▁deutschlands	-10705
▁einzustellen	-10706
▁entwickelten	-10707
▁finanziellen	-10708
▁finanzmittel	-10709
▁gesetzgebung	-10710
▁hervorragend	-10711
▁herzustellen	-10712
▁johannesburg	-10713
▁konfrontiert	-10714
▁koordination	-10715
▁kostenfreien	-10716
▁kundendienst	-10717
▁langfristige	-10718
▁privatsphäre	-10719
▁realisierung	-10720
▁rechtsetzung	-10721
▁staatsbürger	-10722
▁steuerzahler	-10723
▁teilzunehmen	-10724
▁temperaturen	-10725
▁tschechische	-10726
▁umfangreiche	-10727
▁unerlässlich	-10728
▁unmittelbare	-10729
▁unterhaltung	-10730
▁ursprünglich	-10731
▁veranstalten	-10732
▁verbindliche	-10733
▁vereinfachen	-10734
▁verwirklicht	-10735
▁wiederholung	-10736
zusammenarbeit	-10737
▁ausgearbeitet	-10738
▁ausgestattete	-10739
▁dokumentation	-10740
▁durchzuführen	-10741
▁durchzusetzen	-10742
▁eigenständige	-10743
▁feinschmecker	-10744
▁gegenseitigen	-10745
▁geographische	-10746
▁grundsätzlich	-10747
▁hervorzuheben	-10748
▁installations	-10749
▁kontrollieren	-10750
▁lebensmitteln	-10751
▁spezialisiert	-10752
▁standardmäßig	-10753
▁telefonnummer	-10754
▁transparenter	-10755
▁tschechischen	-10756
▁universitäten	-10757
▁unterzeichnen	-10758
▁versandkosten	-10759
▁verschmutzung	-10760
▁arbeitsplätzen	-10761
▁ausgeschlossen	-10762
▁ausgestatteten	-10763
▁benachrichtigt	-10764
▁bereitstellung	-10765
▁entscheidenden	-10766
▁gekennzeichnet	-10767
▁gemeinschaften	-10768
▁gesellschaften	-10769
▁gleichstellung	-10770
▁harmonisierung	-10771
▁haushaltsplans	-10772
▁herauszufinden	-10773
▁internetseiten	-10774
▁lebensqualität	-10775
▁nachhaltigkeit	-10776
▁räumlichkeiten	-10777
▁schwierigkeits	-10778
▁stellvertreten	-10779
▁unterzeichnung	-10780
▁weltwirtschaft	-10781
dienstleistungen	-10782
▁benachteiligung	-10783
▁diesbezüglichen	-10784
▁fortgeschritten	-10785
▁generalsekretär	-10786
▁glaubwürdigkeit	-10787
▁institutionelle	-10788
▁mitgliedsländer	-10789
▁partnerschaften	-10790
▁rahmenbeschluss	-10791
▁ratspräsidenten	-10792
▁spezifikationen	-10793
▁stabilitätspakt	-10794
▁volksgesundheit	-10795
-8	-10796
/1	-10797
19	-10798
37	-10799
39	-10800
42	-10801
75	-10802
85	-10803
8:	-10804
96	-10805
aj	-10806
bü	-10807
cm	-10808
cs	-10809
dh	-10810
ea	-10811
eb	-10812
ec	-10813
ef	-10814
gü	-10815
jk	-10816
kn	-10817
ku	-10818
kä	-10819
nr	-10820
of	-10821
pn	-10822
ql	-10823
sl	-10824
ui	-10825
ya	-10826
yb	-10827
yr	-10828
zö	-10829
ál	-10830
öt	-10831
▁è	-10832
-10	-10833
.03	-10834
/98	-10835
300	-10836
4-0	-10837
aco	-10838
ami	-10839
asa	-10840
asi	-10841
aso	-10842
bag	-10843
bin	-10844
ble	-10845
box	-10846
bte	-10847
bum	-10848
bur	-10849
car	-10850
cer	-10851
chr	-10852
cop	-10853
cor	-10854
cos	-10855
cto	-10856
dbc	-10857
dün	-10858
eda	-10859
eng	-10860
fab	-10861
fac	-10862
fal	-10863
fit	-10864
fox	-10865
gan	-10866
gap	-10867
gig	-10868
gin	-10869
hor	-10870
icy	-10871
iff	-10872
iga	-10873
ils	-10874
ily	-10875
iod	-10876
ior	-10877
ipo	-10878
ita	-10879
iza	-10880
kes	-10881
kir	-10882
kov	-10883
kow	-10884
lig	-10885
log	-10886
mag	-10887
mat	-10888
mos	-10889
mäl	-10890
oli	-10891
omi	-10892
omm	-10893
oon	-10894
opo	-10895
pat	-10896
pec	-10897
pot	-10898
rep	-10899
rip	-10900
rät	-10901
sef	-10902
seg	-10903
sex	-10904
sis	-10905
ski	-10906
spo	-10907
stö	-10908
tun	-10909
ula	-10910
wal	-10911
web	-10912
wig	-10913
wör	-10914
zes	-10915
ädt	-10916
ölf	-10917
▁07	-10918
▁1:	-10919
▁36	-10920
▁61	-10921
▁79	-10922
▁8.	-10923
▁93	-10924
▁98	-10925
▁cs	-10926
▁hd	-10927
▁hi	-10928
▁hl	-10929
▁ib	-10930
▁lü	-10931
▁má	-10932
▁od	-10933
▁tw	-10934
-200	-10935
-500	-10936
adar	-10937
agno	-10938
akul	-10939
amin	-10940
andt	-10941
anik	-10942
anka	-10943
apas	-10944
ardo	-10945
azzo	-10946
baid	-10947
bird	-10948
blau	-10949
boot	-10950
brik	-10951
butt	-10952
cept	-10953
chip	-10954
cias	-10955
cing	-10956
conf	-10957
deck	-10958
dest	-10959
ease	-10960
edet	-10961
ehin	-10962
eibe	-10963
eira	-10964
ensc	-10965
enta	-10966
enza	-10967
epro	-10968
erhö	-10969
etts	-10970
fein	-10971
ffur	-10972
früh	-10973
fuhr	-10974
gain	-10975
gekr	-10976
gies	-10977
gift	-10978
ging	-10979
glas	-10980
gnos	-10981
gäng	-10982
heiz	-10983
hows	-10984
iano	-10985
iche	-10986
iday	-10987
idel	-10988
ieur	-10989
ifik	-10990
ikon	-10991
ilen	-10992
imes	-10993
inki	-10994
ints	-10995
itee	-10996
iäre	-10997
kanz	-10998
kong	-10999
kräf	-11000
ktor	-11001
kund	-11002
kurs	-11003
kürz	-11004
leid	-11005
life	-11006
litz	-11007
lock	-11008
luft	-11009
ming	-11010
mäss	-11011
nahm	-11012
name	-11013
olas	-11014
omie	-11015
onie	-11016
onor	-11017
orth	-11018
ough	-11019
ovis	-11020
owie	-11021
plug	-11022
ptop	-11023
quin	-11024
rane	-11025
rede	-11026
riel	-11027
rive	-11028
roll	-11029
rung	-11030
saal	-11031
sack	-11032
sige	-11033
sist	-11034
sive	-11035
sper	-11036
ston	-11037
swer	-11038
tanz	-11039
tent	-11040
them	-11041
tics	-11042
tika	-11043
time	-11044
tium	-11045
tret	-11046
uage	-11047
uens	-11048
umpf	-11049
umph	-11050
utur	-11051
vorg	-11052
vort	-11053
wall	-11054
weiß	-11055
yout	-11056
zieh	-11057
zirk	-11058
äcke	-11059
ärkt	-11060
öhnt	-11061
üben	-11062
▁1,6	-11063
▁12-	-11064
▁149	-11065
▁160	-11066
▁24.	-11067
▁25.	-11068
▁31.	-11069
▁350	-11070
▁ads	-11071
▁alm	-11072
▁anm	-11073
▁bir	-11074
▁bol	-11075
▁brä	-11076
▁cab	-11077
▁cat	-11078
▁cen	-11079
▁cha	-11080
▁cho	-11081
▁cit	-11082
▁cot	-11083
▁cru	-11084
▁dat	-11085
▁dtp	-11086
▁duo	-11087
▁eco	-11088
▁ecu	-11089
▁eib	-11090
▁eit	-11091
▁ell	-11092
▁ess	-11093
▁fam	-11094
▁fan	-11095
▁fun	-11096
▁gay	-11097
▁gie	-11098
▁glu	-11099
▁gmo	-11100
▁gmp	-11101
▁gps	-11102
▁gui	-11103
▁gön	-11104
▁hab	-11105
▁heb	-11106
▁hiv	-11107
▁hot	-11108
▁hud	-11109
▁här	-11110
▁hüb	-11111
▁imp	-11112
▁iph	-11113
▁kni	-11114
▁kul	-11115
▁käu	-11116
▁lor	-11117
▁mem	-11118
▁moo	-11119
▁nan	-11120
▁nir	-11121
▁non	-11122
▁nos	-11123
▁oze	-11124
▁pek	-11125
▁pir	-11126
▁ple	-11127
▁qui	-11128
▁raw	-11129
▁rod	-11130
▁rut	-11131
▁ruß	-11132
▁röm	-11133
▁sar	-11134
▁six	-11135
▁sün	-11136
▁tcp	-11137
▁ted	-11138
▁tom	-11139
▁täu	-11140
▁usd	-11141
▁vip	-11142
▁voc	-11143
▁ärz	-11144
.2008	-11145
acher	-11146
aging	-11147
agnen	-11148
ahmen	-11149
aires	-11150
allen	-11151
aming	-11152
angem	-11153
annel	-11154
annes	-11155
arate	-11156
arats	-11157
ather	-11158
ating	-11159
atzen	-11160
bedür	-11161
befug	-11162
berat	-11163
betre	-11164
bettz	-11165
bezie	-11166
bring	-11167
busse	-11168
codes	-11169
dates	-11170
dehnt	-11171
derte	-11172
drich	-11173
egnet	-11174
egten	-11175
ehung	-11176
eisen	-11177
ektar	-11178
ektem	-11179
emann	-11180
ering	-11181
erleb	-11182
erzen	-11183
esien	-11184
eugen	-11185
ffern	-11186
field	-11187
filme	-11188
folgt	-11189
fotos	-11190
front	-11191
hlige	-11192
hlung	-11193
house	-11194
hängt	-11195
ierst	-11196
issen	-11197
itsch	-11198
kennt	-11199
kette	-11200
klaus	-11201
klick	-11202
kohol	-11203
kreis	-11204
krupp	-11205
kunde	-11206
lanze	-11207
laven	-11208
leger	-11209
läger	-11210
lösen	-11211
malia	-11212
matis	-11213
menge	-11214
mmeln	-11215
nimmt	-11216
nöten	-11217
ollow	-11218
ouren	-11219
phase	-11220
publi	-11221
quali	-11222
raums	-11223
reser	-11224
rhein	-11225
riens	-11226
riken	-11227
runde	-11228
samen	-11229
serie	-11230
sform	-11231
solid	-11232
ssitz	-11233
steht	-11234
stitu	-11235
titel	-11236
ustik	-11237
utern	-11238
vents	-11239
vices	-11240
ville	-11241
wachs	-11242
wanne	-11243
wards	-11244
woche	-11245
würfe	-11246
ziele	-11247
ziger	-11248
zippy	-11249
zucht	-11250
zweig	-11251
ätten	-11252
äumen	-11253
önten	-11254
ühnen	-11255
ürzen	-11256
▁00:0	-11257
▁10-1	-11258
▁1930	-11259
▁1974	-11260
▁1986	-11261
▁1987	-11262
▁abra	-11263
▁abst	-11264
▁amaz	-11265
▁amph	-11266
▁aser	-11267
▁aufw	-11268
▁away	-11269
▁bass	-11270
▁beat	-11271
▁been	-11272
▁beha	-11273
▁benz	-11274
▁besp	-11275
▁bien	-11276
▁bier	-11277
▁buen	-11278
▁butt	-11279
▁cash	-11280
▁clar	-11281
▁demo	-11282
▁dick	-11283
▁diss	-11284
▁easy	-11285
▁ehre	-11286
▁eins	-11287
▁eint	-11288
▁enti	-11289
▁entn	-11290
▁ents	-11291
▁expl	-11292
▁fass	-11293
▁flag	-11294
▁foss	-11295
▁froh	-11296
▁fuji	-11297
▁full	-11298
▁funk	-11299
▁gasp	-11300
▁gaza	-11301
▁gefü	-11302
▁gelt	-11303
▁gelö	-11304
▁gene	-11305
▁geop	-11306
▁glie	-11307
▁goed	-11308
▁grös	-11309
▁hall	-11310
▁hass	-11311
▁held	-11312
▁hels	-11313
▁hong	-11314
▁idea	-11315
▁ikon	-11316
▁immo	-11317
▁inak	-11318
▁info	-11319
▁ipad	-11320
▁jobs	-11321
▁john	-11322
▁knie	-11323
▁kund	-11324
▁lade	-11325
▁lago	-11326
▁leer	-11327
▁lift	-11328
▁lite	-11329
▁loch	-11330
▁look	-11331
▁lädt	-11332
▁mahl	-11333
▁malt	-11334
▁many	-11335
▁mond	-11336
▁mord	-11337
▁morg	-11338
▁mund	-11339
▁nase	-11340
▁nero	-11341
▁next	-11342
▁page	-11343
▁pakt	-11344
▁path	-11345
▁phän	-11346
▁plur	-11347
▁pläd	-11348
▁poln	-11349
▁poss	-11350
▁pula	-11351
▁raff	-11352
▁ries	-11353
▁rock	-11354
▁rose	-11355
▁saal	-11356
▁seen	-11357
▁sele	-11358
▁ship	-11359
▁slim	-11360
▁snow	-11361
▁spam	-11362
▁sper	-11363
▁tast	-11364
▁they	-11365
▁treu	-11366
▁trop	-11367
▁très	-11368
▁type	-11369
▁ulti	-11370
▁unab	-11371
▁vote	-11372
▁week	-11373
▁what	-11374
▁when	-11375
▁witz	-11376
▁wolf	-11377
▁wöch	-11378
▁zeug	-11379
▁zykl	-11380
▁züge	-11381
active	-11382
afrika	-11383
alters	-11384
amente	-11385
archen	-11386
archiv	-11387
arning	-11388
aubern	-11389
aufbau	-11390
bahnen	-11391
bauern	-11392
bedarf	-11393
benden	-11394
berühm	-11395
bilder	-11396
cement	-11397
chwork	-11398
deuten	-11399
dusche	-11400
eichte	-11401
eilung	-11402
erfolg	-11403
erican	-11404
esende	-11405
estand	-11406
fahrts	-11407
fielen	-11408
filter	-11409
format	-11410
forsch	-11411
frecht	-11412
funden	-11413
gelegt	-11414
gelten	-11415
geregt	-11416
gnügen	-11417
griffe	-11418
gängen	-11419
habern	-11420
haftet	-11421
ichtig	-11422
ierbar	-11423
iertem	-11424
ietern	-11425
ignano	-11426
itiert	-11427
jektiv	-11428
jenige	-11429
jährig	-11430
kamera	-11431
krisen	-11432
kturen	-11433
kunden	-11434
lagert	-11435
lasten	-11436
lehnen	-11437
leuten	-11438
listet	-11439
lizenz	-11440
lüssig	-11441
marken	-11442
massen	-11443
menade	-11444
menten	-11445
module	-11446
märkte	-11447
ologen	-11448
ologna	-11449
online	-11450
oriale	-11451
pflege	-11452
profil	-11453
präsen	-11454
raffur	-11455
recken	-11456
ränden	-11457
schied	-11458
schiff	-11459
schwei	-11460
sendes	-11461
serien	-11462
serwar	-11463
setzte	-11464
sexper	-11465
skolle	-11466
sommer	-11467
spaket	-11468
spitze	-11469
sports	-11470
spreis	-11471
staats	-11472
ströme	-11473
stätte	-11474
tainer	-11475
teuert	-11476
tiefst	-11477
uelles	-11478
ulinha	-11479
unktur	-11480
urteil	-11481
wellen	-11482
wendig	-11483
wertet	-11484
westen	-11485
wollen	-11486
ycling	-11487
zessen	-11488
zessin	-11489
zungen	-11490
zwecke	-11491
ängern	-11492
ökonom	-11493
öpfung	-11494
▁10:00	-11495
▁abgeb	-11496
▁album	-11497
▁apfel	-11498
▁award	-11499
▁based	-11500
▁basel	-11501
▁baumw	-11502
▁beauf	-11503
▁below	-11504
▁blüte	-11505
▁bruch	-11506
▁budge	-11507
▁canon	-11508
▁click	-11509
▁debat	-11510
▁decor	-11511
▁denkt	-11512
▁edlen	-11513
▁einla	-11514
▁elect	-11515
▁elfen	-11516
▁endes	-11517
▁engen	-11518
▁enger	-11519
▁enthü	-11520
▁erdbe	-11521
▁erwär	-11522
▁faire	-11523
▁ferne	-11524
▁final	-11525
▁flach	-11526
▁floor	-11527
▁frequ	-11528
▁fängt	-11529
▁fühlt	-11530
▁geehr	-11531
▁gewiß	-11532
▁gnade	-11533
▁größt	-11534
▁haare	-11535
▁hallo	-11536
▁hauch	-11537
▁heran	-11538
▁hohem	-11539
▁hügel	-11540
▁imper	-11541
▁index	-11542
▁inwie	-11543
▁josef	-11544
▁kabin	-11545
▁karne	-11546
▁kenne	-11547
▁klang	-11548
▁klick	-11549
▁kopie	-11550
▁korea	-11551
▁korri	-11552
▁kosme	-11553
▁kulin	-11554
▁kyoto	-11555
▁label	-11556
▁labor	-11557
▁lebte	-11558
▁lehnt	-11559
▁lehre	-11560
▁leise	-11561
▁leone	-11562
▁light	-11563
▁limit	-11564
▁lodge	-11565
▁lokal	-11566
▁magaz	-11567
▁maxdb	-11568
▁menüs	-11569
▁mexik	-11570
▁minim	-11571
▁music	-11572
▁nennt	-11573
▁neuem	-11574
▁nomin	-11575
▁north	-11576
▁notiz	-11577
▁numer	-11578
▁opera	-11579
▁payne	-11580
▁pfand	-11581
▁plant	-11582
▁polym	-11583
▁portu	-11584
▁prest	-11585
▁print	-11586
▁quark	-11587
▁rasse	-11588
▁reist	-11589
▁rezen	-11590
▁rhein	-11591
▁rosen	-11592
▁sauer	-11593
▁scher	-11594
▁senat	-11595
▁smart	-11596
▁solar	-11597
▁solle	-11598
▁sowje	-11599
▁spons	-11600
▁starb	-11601
▁state	-11602
▁store	-11603
▁storn	-11604
▁stütz	-11605
▁tacis	-11606
▁teilt	-11607
▁tempo	-11608
▁tolle	-11609
▁track	-11610
▁trenn	-11611
▁türen	-11612
▁umbau	-11613
▁umzug	-11614
▁unauf	-11615
▁unbek	-11616
▁under	-11617
▁unzur	-11618
▁verhe	-11619
▁verpa	-11620
▁vogel	-11621
▁waffe	-11622
▁weine	-11623
▁where	-11624
▁wilde	-11625
▁wirft	-11626
▁wirkt	-11627
▁wohin	-11628
▁zinss	-11629
▁zuerk	-11630
▁zumal	-11631
▁zwölf	-11632
▁zöger	-11633
▁zügig	-11634
▁übrig	-11635
aciones	-11636
alender	-11637
alerien	-11638
ansicht	-11639
artiger	-11640
artment	-11641
aufgabe	-11642
baidsch	-11643
beitrag	-11644
bestand	-11645
dringen	-11646
einspar	-11647
ektoren	-11648
enntnis	-11649
fassend	-11650
formate	-11651
fähiger	-11652
gebäude	-11653
geführt	-11654
gehende	-11655
gelände	-11656
gemacht	-11657
gründen	-11658
häusern	-11659
hörigen	-11660
imation	-11661
inenser	-11662
ipeline	-11663
kameras	-11664
lichere	-11665
lüsselt	-11666
manager	-11667
ologien	-11668
produkt	-11669
schafft	-11670
scheibe	-11671
schläge	-11672
sektors	-11673
sendung	-11674
skultur	-11675
sprozeß	-11676
steigen	-11677
strasse	-11678
swerter	-11679
tsystem	-11680
uldigen	-11681
ungslos	-11682
univers	-11683
urteile	-11684
veranst	-11685
wickelt	-11686
zeugung	-11687
zwingen	-11688
ünstler	-11689
▁abends	-11690
▁absurd	-11691
▁abziel	-11692
▁action	-11693
▁alters	-11694
▁andern	-11695
▁anhand	-11696
▁anlass	-11697
▁anlauf	-11698
▁anreiz	-11699
▁ansäss	-11700
▁apache	-11701
▁arrang	-11702
▁associ	-11703
▁aufsto	-11704
▁aussen	-11705
▁backup	-11706
▁beides	-11707
▁bester	-11708
▁betrag	-11709
▁billig	-11710
▁bitter	-11711
▁blauen	-11712
▁boston	-11713
▁börsen	-11714
▁change	-11715
▁course	-11716
▁credit	-11717
▁cultur	-11718
▁deinen	-11719
▁deuten	-11720
▁diebst	-11721
▁eignet	-11722
▁einkäu	-11723
▁erfüll	-11724
▁erlaub	-11725
▁etagen	-11726
▁events	-11727
▁exzell	-11728
▁faktor	-11729
▁fanden	-11730
▁fangen	-11731
▁feiert	-11732
▁feinen	-11733
▁fische	-11734
▁fiskal	-11735
▁fortzu	-11736
▁frisch	-11737
▁galler	-11738
▁gelder	-11739
▁genfer	-11740
▁global	-11741
▁größen	-11742
▁grünes	-11743
▁gärten	-11744
▁haftet	-11745
▁handge	-11746
▁health	-11747
▁hektar	-11748
▁hinten	-11749
▁hochmo	-11750
▁inklus	-11751
▁instru	-11752
▁iphone	-11753
▁jemals	-11754
▁jordan	-11755
▁kernen	-11756
▁klares	-11757
▁knoten	-11758
▁kohlen	-11759
▁konsul	-11760
▁kontra	-11761
▁kritis	-11762
▁kyrill	-11763
▁käufer	-11764
▁labour	-11765
▁lasten	-11766
▁leiter	-11767
▁lieber	-11768
▁ließen	-11769
▁listen	-11770
▁maison	-11771
▁mannes	-11772
▁massiv	-11773
▁medium	-11774
▁melden	-11775
▁mengen	-11776
▁michel	-11777
▁miguel	-11778
▁minden	-11779
▁mittag	-11780
▁monaco	-11781
▁montag	-11782
▁motion	-11783
▁multin	-11784
▁nament	-11785
▁netzes	-11786
▁neuere	-11787
▁offers	-11788
▁ostern	-11789
▁period	-11790
▁plätze	-11791
▁posten	-11792
▁prophe	-11793
▁protok	-11794
▁prozeß	-11795
▁public	-11796
▁publik	-11797
▁reiser	-11798
▁report	-11799
▁resour	-11800
▁retten	-11801
▁rollen	-11802
▁rubrik	-11803
▁russen	-11804
▁saddam	-11805
▁schaum	-11806
▁schaut	-11807
▁schulk	-11808
▁screen	-11809
▁second	-11810
▁sekund	-11811
▁serien	-11812
▁sinken	-11813
▁slides	-11814
▁spitze	-11815
▁sterne	-11816
▁stirbt	-11817
▁strikt	-11818
▁stufen	-11819
▁stärke	-11820
▁stärkt	-11821
▁säulen	-11822
▁tausch	-11823
▁textes	-11824
▁ticket	-11825
▁tiefen	-11826
▁toutes	-11827
▁treibt	-11828
▁ungarn	-11829
▁unvoll	-11830
▁unweit	-11831
▁verank	-11832
▁verstö	-11833
▁villen	-11834
▁vorbeu	-11835
▁winkel	-11836
▁wirken	-11837
▁wächst	-11838
▁zollen	-11839
▁zwangs	-11840
▁zögern	-11841
▁üblich	-11842
alitäten	-11843
artement	-11844
ausgaben	-11845
basierte	-11846
bereichs	-11847
betriebe	-11848
erhebung	-11849
ersystem	-11850
führungs	-11851
gbarkeit	-11852
gegangen	-11853
gerichts	-11854
gesetzte	-11855
gewichte	-11856
heiratet	-11857
ichtungs	-11858
ikatoren	-11859
institut	-11860
istinnen	-11861
konzepte	-11862
marktung	-11863
merkmale	-11864
personen	-11865
pression	-11866
reichung	-11867
sentwurf	-11868
services	-11869
sprüchen	-11870
sservice	-11871
stechnik	-11872
stheorie	-11873
stralien	-11874
stration	-11875
stritten	-11876
tausende	-11877
verbände	-11878
verschul	-11879
vollsten	-11880
vorstand	-11881
wertungs	-11882
zumachen	-11883
änderten	-11884
▁abweich	-11885
▁account	-11886
▁airport	-11887
▁airways	-11888
▁alkohol	-11889
▁alljähr	-11890
▁alltags	-11891
▁anklage	-11892
▁ankommt	-11893
▁antrags	-11894
▁auftakt	-11895
▁beamten	-11896
▁begeben	-11897
▁behoben	-11898
▁beinahe	-11899
▁benennt	-11900
▁berührt	-11901
▁besetzt	-11902
▁beständ	-11903
▁bewahrt	-11904
▁beweise	-11905
▁blieben	-11906
▁bologna	-11907
▁branche	-11908
▁castell	-11909
▁charles	-11910
▁clients	-11911
▁control	-11912
▁dankbar	-11913
▁demonst	-11914
▁diversi	-11915
▁dorthin	-11916
▁dritter	-11917
▁drucker	-11918
▁drängen	-11919
▁dungeon	-11920
▁dynamik	-11921
▁ehemals	-11922
▁eigener	-11923
▁eingabe	-11924
▁einwand	-11925
▁einzeln	-11926
▁einzelt	-11927
▁erneute	-11928
▁fahrrad	-11929
▁festung	-11930
▁firefox	-11931
▁fliegen	-11932
▁fragmen	-11933
▁frühere	-11934
▁gebucht	-11935
▁gefolgt	-11936
▁gehoben	-11937
▁gehörte	-11938
▁gekauft	-11939
▁geladen	-11940
▁gelangt	-11941
▁gelände	-11942
▁geteste	-11943
▁gezielt	-11944
▁gipfelt	-11945
▁gremien	-11946
▁hiermit	-11947
▁idealer	-11948
▁illegal	-11949
▁inkraft	-11950
▁jacques	-11951
▁jüngste	-11952
▁katalog	-11953
▁kondens	-11954
▁konkurs	-11955
▁konserv	-11956
▁konsult	-11957
▁korrekt	-11958
▁künftig	-11959
▁lambert	-11960
▁leichte	-11961
▁letztes	-11962
▁limited	-11963
▁litauen	-11964
▁lösungs	-11965
▁mandats	-11966
▁maximum	-11967
▁millenn	-11968
▁minibar	-11969
▁morgens	-11970
▁motoren	-11971
▁musikal	-11972
▁neutral	-11973
▁niedrig	-11974
▁nirgend	-11975
▁ohnehin	-11976
▁oranger	-11977
▁palette	-11978
▁paradox	-11979
▁passive	-11980
▁persone	-11981
▁pfeiler	-11982
▁platten	-11983
▁prendre	-11984
▁präzise	-11985
▁quartal	-11986
▁raketen	-11987
▁richard	-11988
▁saubere	-11989
▁schiffs	-11990
▁schmerz	-11991
▁schreck	-11992
▁seitdem	-11993
▁seminar	-11994
▁servers	-11995
▁shuttle	-11996
▁sklaven	-11997
▁somalia	-11998
▁spannen	-11999
▁spenden	-12000
▁spielte	-12001
▁spitzen	-12002
▁stammen	-12003
▁startet	-12004
▁stoppen	-12005
▁strasse	-12006
▁stützen	-12007
▁symptom	-12008
▁südoste	-12009
▁tagungs	-12010
▁termine	-12011
▁terrain	-12012
▁trauben	-12013
▁treppen	-12014
▁tropfen	-12015
▁twitter	-12016
▁unbesch	-12017
▁unregel	-12018
▁unschul	-12019
▁unteren	-12020
▁updates	-12021
▁upgrade	-12022
▁verdien	-12023
▁vereins	-12024
▁verlang	-12025
▁vervoll	-12026
▁village	-12027
▁virensc	-12028
▁vorfeld	-12029
▁vorlegt	-12030
▁vorwurf	-12031
▁völkern	-12032
▁wartung	-12033
▁wertsch	-12034
▁willens	-12035
▁windsur	-12036
▁wissens	-12037
▁written	-12038
▁zitiere	-12039
▁zivilis	-12040
▁zualler	-12041
▁zubehör	-12042
▁zuhören	-12043
▁zulässt	-12044
▁zunahme	-12045
▁zusagen	-12046
▁zustell	-12047
▁zwecken	-12048
▁züchter	-12049
▁äußeren	-12050
▁übliche	-12051
agenturen	-12052
ahrschein	-12053
angeboten	-12054
anwendung	-12055
bedienung	-12056
beschränk	-12057
betreiber	-12058
buchungen	-12059
charakter	-12060
deutschen	-12061
disziplin	-12062
dokumente	-12063
entlichen	-12064
erklärung	-12065
ettierung	-12066
fektionen	-12067
fertigung	-12068
forderten	-12069
gekrönten	-12070
haushalte	-12071
kehrungen	-12072
kriterien	-12073
laggebend	-12074
leistungs	-12075
leitungen	-12076
nachfrage	-12077
produktiv	-12078
projekten	-12079
protokoll	-12080
rechungen	-12081
senkungen	-12082
transport	-12083
twicklung	-12084
varianten	-12085
verhalten	-12086
vertreter	-12087
weiterung	-12088
zeichnete	-12089
▁abhängen	-12090
▁abschnit	-12091
▁airlines	-12092
▁american	-12093
▁amtszeit	-12094
▁analysen	-12095
▁angelegt	-12096
▁angeregt	-12097
▁annehmen	-12098
▁anschlag	-12099
▁anwender	-12100
▁aspekten	-12101
▁atlantik	-12102
▁audiovis	-12103
▁ausgesch	-12104
▁behalten	-12105
▁berliner	-12106
▁besseres	-12107
▁betreuen	-12108
▁blockade	-12109
▁consumer	-12110
▁diktatur	-12111
▁director	-12112
▁distrikt	-12113
▁einladen	-12114
▁einlegen	-12115
▁einreise	-12116
▁elemente	-12117
▁emulinha	-12118
▁ereignet	-12119
▁erfassen	-12120
▁erfolgte	-12121
▁erkunden	-12122
▁erlangen	-12123
▁ermessen	-12124
▁ersuchen	-12125
▁erwähnen	-12126
▁eröffnen	-12127
▁european	-12128
▁eurozone	-12129
▁falscher	-12130
▁festland	-12131
▁friedens	-12132
▁führungs	-12133
▁ganzheit	-12134
▁geachtet	-12135
▁gebunden	-12136
▁gedenken	-12137
▁geholfen	-12138
▁gelassen	-12139
▁generald	-12140
▁gerüstet	-12141
▁gesegnet	-12142
▁gesonder	-12143
▁gesunden	-12144
▁getränke	-12145
▁gewidmet	-12146
▁gewinner	-12147
▁gezielte	-12148
▁gitarren	-12149
▁günstige	-12150
▁harmonie	-12151
▁helsinki	-12152
▁herberge	-12153
▁hinweise	-12154
▁hongkong	-12155
▁inakzept	-12156
▁includes	-12157
▁jubiläum	-12158
▁jüdische	-12159
▁kommando	-12160
▁kontinen	-12161
▁konzerte	-12162
▁kreuzung	-12163
▁landhaus	-12164
▁language	-12165
▁leckeres	-12166
▁marbella	-12167
▁mindeste	-12168
▁miniatur	-12169
▁mittwoch	-12170
▁moderner	-12171
▁modified	-12172
▁nahrungs	-12173
▁nochmals	-12174
▁nächstes	-12175
▁obgleich	-12176
▁optimale	-12177
▁optionen	-12178
▁pakistan	-12179
▁perfekte	-12180
▁phänomen	-12181
▁products	-12182
▁qualifiz	-12183
▁rebellen	-12184
▁register	-12185
▁religion	-12186
▁repräsen	-12187
▁rundfunk	-12188
▁schadens	-12189
▁schalter	-12190
▁schenken	-12191
▁schlafen	-12192
▁schweine	-12193
▁schätzen	-12194
▁seltener	-12195
▁sexuelle	-12196
▁sicheren	-12197
▁sicherer	-12198
▁spaniens	-12199
▁spannung	-12200
▁späteren	-12201
▁stimmung	-12202
▁strenger	-12203
▁superior	-12204
▁symphony	-12205
▁tabellen	-12206
▁thailand	-12207
▁therapeu	-12208
▁transpor	-12209
▁tunesien	-12210
▁tutorial	-12211
▁umgebaut	-12212
▁unilater	-12213
▁unsicher	-12214
▁ursprung	-12215
▁variable	-12216
▁veranlas	-12217
▁verletzt	-12218
▁versetzt	-12219
▁versuche	-12220
▁vertraut	-12221
▁vielfach	-12222
▁vorsorge	-12223
▁wartungs	-12224
▁weisheit	-12225
▁weltraum	-12226
▁zentrums	-12227
▁zukunfts	-12228
▁zunichte	-12229
▁zutiefst	-12230
▁üblichen	-12231
ausrüstung	-12232
bekämpfung	-12233
entwickelt	-12234
fälligkeit	-12235
gliederung	-12236
ituationen	-12237
politische	-12238
sichtigung	-12239
spotenzial	-12240
strukturen	-12241
unterlagen	-12242
verhältnis	-12243
zeichneten	-12244
zeugnissen	-12245
▁abgedeckt	-12246
▁ablehnung	-12247
▁absprache	-12248
▁abteilung	-12249
▁abweichen	-12250
▁abzugeben	-12251
▁agenturen	-12252
▁aktuelles	-12253
▁akzeptanz	-12254
▁alexander	-12255
▁analphabe	-12256
▁angeblich	-12257
▁angewandt	-12258
▁angriffen	-12259
▁anordnung	-12260
▁anstellen	-12261
▁arbeitern	-12262
▁argumente	-12263
▁asiatisch	-12264
▁aufhebung	-12265
▁aufträgen	-12266
▁ausfallen	-12267
▁ausführen	-12268
▁ausfüllen	-12269
▁ausgelöst	-12270
▁ausgleich	-12271
▁ausmachen	-12272
▁auswirken	-12273
▁badewanne	-12274
▁begrenzte	-12275
▁behindern	-12276
▁benutzern	-12277
▁besetzung	-12278
▁bezahlung	-12279
▁broadcast	-12280
▁christian	-12281
▁computern	-12282
▁corporate	-12283
▁damaligen	-12284
▁daraufhin	-12285
▁definitiv	-12286
▁derselben	-12287
▁deutscher	-12288
▁dezentral	-12289
▁disziplin	-12290
▁dringlich	-12291
▁einnehmen	-12292
▁eleganten	-12293
▁empfangen	-12294
▁entlassen	-12295
▁erhaltung	-12296
▁ermittelt	-12297
▁errichten	-12298
▁erzeugung	-12299
▁europarat	-12300
▁fehlenden	-12301
▁fertigung	-12302
▁framework	-12303
▁friedrich	-12304
▁fundament	-12305
▁gefertigt	-12306
▁geführten	-12307
▁generator	-12308
▁geopoliti	-12309
▁geschenke	-12310
▁geschenkt	-12311
▁gesetzgeb	-12312
▁gesichert	-12313
▁gestrigen	-12314
▁gewachsen	-12315
▁gewässern	-12316
▁gläubiger	-12317
▁hotelsafe	-12318
▁ideologie	-12319
▁impressum	-12320
▁innovativ	-12321
▁kaufkraft	-12322
▁kohäsions	-12323
▁kollegium	-12324
▁kontakten	-12325
▁kreaturen	-12326
▁kurzfrist	-12327
▁liegenden	-12328
▁marktteil	-12329
▁matchwork	-12330
▁minderung	-12331
▁mitnehmen	-12332
▁mittelgro	-12333
▁multimedi	-12334
▁mündliche	-12335
▁negativen	-12336
▁nützliche	-12337
▁offenkund	-12338
▁offiziell	-12339
▁optimiert	-12340
▁orchestra	-12341
▁ortschaft	-12342
▁phantasie	-12343
▁portfolio	-12344
▁positives	-12345
▁praktiken	-12346
▁produzent	-12347
▁promenade	-12348
▁rechtsakt	-12349
▁reparatur	-12350
▁residence	-12351
▁russlands	-12352
▁schnelles	-12353
▁schraffur	-12354
▁schwachen	-12355
▁sendungen	-12356
▁sitzungen	-12357
▁speicherk	-12358
▁spektakul	-12359
▁spielzeug	-12360
▁stadtteil	-12361
▁stilvolle	-12362
▁stärkeren	-12363
▁störungen	-12364
▁südlichen	-12365
▁technisch	-12366
▁trockenen	-12367
▁unzureich	-12368
▁unzählige	-12369
▁varianten	-12370
▁verfassen	-12371
▁verfasser	-12372
▁verhaftet	-12373
▁verheugen	-12374
▁verknüpft	-12375
▁verlegung	-12376
▁versorgen	-12377
▁versteckt	-12378
▁verweisen	-12379
▁verwunder	-12380
▁vorherseh	-12381
▁vorlesung	-12382
▁vorredner	-12383
▁wirkliche	-12384
▁wirksamer	-12385
▁wunderbar	-12386
▁währungen	-12387
▁zugegeben	-12388
▁zukünftig	-12389
▁überlegen	-12390
ausstattung	-12391
einrichtung	-12392
freundliche	-12393
gerichtshof	-12394
herstellung	-12395
ministerium	-12396
mitarbeiter	-12397
regulierung	-12398
schreitende	-12399
sicherungen	-12400
speicherung	-12401
spolitische	-12402
universität	-12403
übersetzung	-12404
▁abzulehnen	-12405
▁aktualität	-12406
▁alternativ	-12407
▁analysiert	-12408
▁anzuwenden	-12409
▁arabischen	-12410
▁aufgeführt	-12411
▁aufgerufen	-12412
▁ausgegeben	-12413
▁ausgeprägt	-12414
▁australien	-12415
▁beantragen	-12416
▁bearbeiten	-12417
▁begrenzten	-12418
▁bekenntnis	-12419
▁benötigten	-12420
▁beobachter	-12421
▁beobachtet	-12422
▁bescheiden	-12423
▁bevorzugen	-12424
▁beziehungs	-12425
▁blockieren	-12426
▁busbahnhof	-12427
▁compliance	-12428
▁derjenigen	-12429
▁einkommens	-12430
▁einstellen	-12431
▁einstimmig	-12432
▁entstehung	-12433
▁erarbeitet	-12434
▁erfreulich	-12435
▁erfrischen	-12436
▁ergebenden	-12437
▁ernsthafte	-12438
▁errichtung	-12439
▁ethnischen	-12440
▁eventuelle	-12441
▁fasziniert	-12442
▁festhalten	-12443
▁festplatte	-12444
▁finanziell	-12445
▁flugzeugen	-12446
▁fraglichen	-12447
▁föderation	-12448
▁gastfreund	-12449
▁gehminuten	-12450
▁gepäckraum	-12451
▁geräumigen	-12452
▁geschäften	-12453
▁handhabung	-12454
▁hervorgeht	-12455
▁hochschule	-12456
▁hochwertig	-12457
▁ihrerseits	-12458
▁industriel	-12459
▁inhaltlich	-12460
▁interviews	-12461
▁jahresende	-12462
▁kategorien	-12463
▁klassische	-12464
▁kommissars	-12465
▁konjunktur	-12466
▁konzeption	-12467
▁kulturerbe	-12468
▁kunststoff	-12469
▁lebendigen	-12470
▁ländlichen	-12471
▁marktplatz	-12472
▁mobiltelef	-12473
▁modulation	-12474
▁monitoring	-12475
▁multimedia	-12476
▁navigation	-12477
▁oberfläche	-12478
▁ordentlich	-12479
▁passagiere	-12480
▁rationelle	-12481
▁realisiert	-12482
▁schokolade	-12483
▁sichtweise	-12484
▁standorten	-12485
▁strafrecht	-12486
▁sämtlichen	-12487
▁telekommun	-12488
▁tragischen	-12489
▁tropischen	-12490
▁unternimmt	-12491
▁unverständ	-12492
▁verbundene	-12493
▁verfolgten	-12494
▁verglichen	-12495
▁verschafft	-12496
▁verspricht	-12497
▁verstärken	-12498
▁vertrauens	-12499
▁vervielfäl	-12500
▁verwandelt	-12501
▁verwendete	-12502
▁verzichten	-12503
▁veränderte	-12504
▁vorgegeben	-12505
▁vorrangige	-12506
▁vorschlägt	-12507
▁vorzugehen	-12508
▁vorzulegen	-12509
▁völkermord	-12510
▁wachsendes	-12511
▁wahrnehmen	-12512
▁weltberühm	-12513
▁zubereitet	-12514
▁zugelassen	-12515
▁zugeordnet	-12516
▁zusammenzu	-12517
▁zuversicht	-12518
▁ökologisch	-12519
▁überqueren	-12520
▁überrascht	-12521
installation	-12522
schaffenheit	-12523
schreitenden	-12524
schreitender	-12525
verschuldung	-12526
▁amtierender	-12527
▁analysieren	-12528
▁anpassungen	-12529
▁anwesenheit	-12530
▁appartement	-12531
▁architekten	-12532
▁aserbaidsch	-12533
▁aufgelistet	-12534
▁ausbildungs	-12535
▁ausgebildet	-12536
▁ausgrenzung	-12537
▁ausschöpfen	-12538
▁außenhandel	-12539
▁bedeutenden	-12540
▁bedrohungen	-12541
▁beeindruckt	-12542
▁befriedigen	-12543
▁beherrschen	-12544
▁bekräftigen	-12545
▁beschreiben	-12546
▁continental	-12547
▁dafürhalten	-12548
▁dauerhaften	-12549
▁demokratien	-12550
▁effizienter	-12551
▁eigentliche	-12552
▁eingetreten	-12553
▁einzunehmen	-12554
▁elektrische	-12555
▁enttäuschen	-12556
▁erarbeitung	-12557
▁erheblichen	-12558
▁ernsthaften	-12559
▁erstaunlich	-12560
▁evaluierung	-12561
▁formulieren	-12562
▁fortsetzung	-12563
▁frankreichs	-12564
▁freigesetzt	-12565
▁freihandels	-12566
▁friedenstru	-12567
▁gastronomie	-12568
▁gefährliche	-12569
▁geschlechts	-12570
▁großartigen	-12571
▁grundlegend	-12572
▁herstellern	-12573
▁hervorrufen	-12574
▁hostelsclub	-12575
▁humanitärer	-12576
▁interkultur	-12577
▁islamischen	-12578
▁kapazitäten	-12579
▁kernenergie	-12580
▁kollektiven	-12581
▁kompromisse	-12582
▁konferenzen	-12583
▁kontaktiert	-12584
▁körperliche	-12585
▁lebensdauer	-12586
▁lieferungen	-12587
▁lieferwagen	-12588
▁menschliche	-12589
▁ministerrat	-12590
▁missachtung	-12591
▁mitarbeiten	-12592
▁niedrigsten	-12593
▁nordamerika	-12594
▁philosophie	-12595
▁platzierung	-12596
▁praktischer	-12597
▁problematik	-12598
▁reflektiert	-12599
▁reformieren	-12600
▁reservieren	-12601
▁respektiert	-12602
▁schätzungen	-12603
▁territorium	-12604
▁theoretisch	-12605
▁tschetschen	-12606
▁unannehmbar	-12607
▁unterkünfte	-12608
▁unterlaufen	-12609
▁unverändert	-12610
▁veranlassen	-12611
▁verbesserte	-12612
▁verbündeten	-12613
▁vereinbaren	-12614
▁vergleichen	-12615
▁verheiratet	-12616
▁verknüpfung	-12617
▁vertreibung	-12618
▁verurteilen	-12619
▁voraussicht	-12620
▁vorgetragen	-12621
▁wahrnehmung	-12622
▁weltmeister	-12623
▁werkstätten	-12624
▁wohnbereich	-12625
▁zuallererst	-12626
▁zunehmenden	-12627
▁ökologische	-12628
▁überflüssig	-12629
▁übermitteln	-12630
▁überraschen	-12631
▁übersetzung	-12632
haushaltsplan	-12633
kennzeichnung	-12634
verantwortung	-12635
▁abgeordneter	-12636
▁abwechslungs	-12637
▁angemessener	-12638
▁aufgeführten	-12639
▁auftraggeber	-12640
▁auftretenden	-12641
▁ausarbeitung	-12642
▁ausgeglichen	-12643
▁auszeichnung	-12644
▁balkanländer	-12645
▁bearbeitungs	-12646
▁beibehaltung	-12647
▁bestellungen	-12648
▁durchschnitt	-12649
▁eingesetzten	-12650
▁einheimische	-12651
▁einigermaßen	-12652
▁einschränken	-12653
▁einsparungen	-12654
▁einzubringen	-12655
▁einzurichten	-12656
▁elektrizität	-12657
▁erkrankungen	-12658
▁erneuerbaren	-12659
▁erneuerbarer	-12660
▁fachpersonal	-12661
▁fantastische	-12662
▁finanzhilfen	-12663
▁formulierung	-12664
▁glückwünsche	-12665
▁griechischen	-12666
▁hinterlassen	-12667
▁instrumenten	-12668
▁katastrophal	-12669
▁katastrophen	-12670
▁klimawandels	-12671
▁kommerzielle	-12672
▁konvertieren	-12673
▁kostenfreiem	-12674
▁kostenpflich	-12675
▁letztendlich	-12676
▁mobiltelefon	-12677
▁nachhaltiger	-12678
▁nachhaltiges	-12679
▁progressiven	-12680
▁quadratmeter	-12681
▁respektieren	-12682
▁schrittweise	-12683
▁serviceleist	-12684
▁sprachlichen	-12685
▁systematisch	-12686
▁tageszeitung	-12687
▁territoriale	-12688
▁thyssenkrupp	-12689
▁touristische	-12690
▁treibhausgas	-12691
▁unabhängiges	-12692
▁unterbreiten	-12693
▁verbindungen	-12694
▁verbrauchern	-12695
▁verhältnisse	-12696
▁verlängerung	-12697
▁verschiebung	-12698
▁verschwinden	-12699
▁verschärfung	-12700
▁verständlich	-12701
▁verweigerung	-12702
▁voranbringen	-12703
▁vorgesehenen	-12704
▁vorherrschen	-12705
▁wahrgenommen	-12706
▁wirkungsvoll	-12707
▁zertifiziert	-12708
▁zurückkommen	-12709
▁zusammenhalt	-12710
▁zwischenzeit	-12711
beschränkungen	-12712
▁afrikanischen	-12713
▁aktualisieren	-12714
▁amerikanische	-12715
▁arbeitskräfte	-12716
▁auftragnehmer	-12717
▁ausführlicher	-12718
▁auszusprechen	-12719
▁beeindruckend	-12720
▁behinderungen	-12721
▁berichtigungs	-12722
▁campingplätze	-12723
▁einheimischen	-12724
▁entscheidungs	-12725
▁erweiterungen	-12726
▁ferienwohnung	-12727
▁fußgängerzone	-12728
▁geschlossenen	-12729
▁geschmackvoll	-12730
▁gipfeltreffen	-12731
▁grundlegender	-12732
▁haushaltsjahr	-12733
▁hoheitsgebiet	-12734
▁individuelles	-12735
▁inkrafttreten	-12736
▁konfigurieren	-12737
▁mittelfristig	-12738
▁ordnungsgemäß	-12739
▁palästinenser	-12740
▁prozentpunkte	-12741
▁rechnungshofs	-12742
▁rechtsverbind	-12743
▁reichhaltiges	-12744
▁schnittstelle	-12745
▁strukturellen	-12746
▁tatsächlichen	-12747
▁unterdrückung	-12748
▁unterscheidet	-12749
▁unverbindlich	-12750
▁vereinigungen	-12751
▁verschlüsselt	-12752
▁wellnesshotel	-12753
▁zufriedenheit	-12754
▁zurückgreifen	-12755
▁zuverlässigen	-12756
ungsunternehmen	-12757
▁administration	-12758
▁besonderheiten	-12759
▁betriebssystem	-12760
▁bevorstehenden	-12761
▁eindrucksvolle	-12762
▁familienzimmer	-12763
▁fertigstellung	-12764
▁fragmentierung	-12765
▁gegebenenfalls	-12766
▁gewerkschaften	-12767
▁konventionelle	-12768
▁menschenhandel	-12769
▁parlamentarier	-12770
▁preisgekrönten	-12771
▁schlüsselrolle	-12772
▁sichergestellt	-12773
▁traditionelles	-12774
▁unvergessliche	-12775
▁verabschiedung	-12776
▁veranstaltungs	-12777
▁zusammenhängen	-12778
wirtschaftlichen	-12779
▁ausschlaggebend	-12780
▁beaufsichtigung	-12781
▁beeinträchtigen	-12782
▁charakterisiert	-12783
▁einkaufszentrum	-12784
▁finanzkontrolle	-12785
▁fischereisektor	-12786
▁geschwindigkeit	-12787
▁internationaler	-12788
▁kommunistischen	-12789
▁kontraproduktiv	-12790
▁konventionellen	-12791
▁landwirtschafts	-12792
▁menschenrechten	-12793
▁preisstabilität	-12794
▁regionalpolitik	-12795
▁technologischen	-12796
▁terroristischen	-12797
▁verkehrsmitteln	-12798
▁vizepräsidenten	-12799
▁volkswirtschaft	-12800
▁wellnessbereich	-12801
▁österreichische	-12802
'-	-12803
++	-12804
,3	-12805
,4	-12806
-2	-12807
-6	-12808
16	-12809
17	-12810
1:	-12811
2.	-12812
27	-12813
3-	-12814
34	-12815
38	-12816
46	-12817
49	-12818
64	-12819
66	-12820
67	-12821
78	-12822
89	-12823
95	-12824
97	-12825
bc	-12826
bö	-12827
cy	-12828
dn	-12829
dä	-12830
ee	-12831
eo	-12832
ey	-12833
hd	-12834
ky	-12835
lé	-12836
mw	-12837
ny	-12838
pi	-12839
rs	-12840
rö	-12841
sn	-12842
tb	-12843
tc	-12844
tl	-12845
té	-12846
ua	-12847
vu	-12848
xx	-12849
yk	-12850
zl	-12851
ás	-12852
èr	-12853
ín	-12854
ök	-12855
üm	-12856
-21	-12857
.08	-12858
1/+	-12859
600	-12860
900	-12861
:30	-12862
agd	-12863
aku	-12864
alo	-12865
alz	-12866
amo	-12867
anf	-12868
apt	-12869
awi	-12870
aya	-12871
ays	-12872
beg	-12873
bir	-12874
bom	-12875
bsd	-12876
bsp	-12877
but	-12878
cas	-12879
cau	-12880
cli	-12881
cot	-12882
cup	-12883
cía	-12884
dar	-12885
dom	-12886
don	-12887
dos	-12888
dro	-12889
dun	-12890
edt	-12891
ehe	-12892
eir	-12893
eis	-12894
eli	-12895
erl	-12896
eum	-12897
ezi	-12898
feu	-12899
fia	-12900
fic	-12901
fix	-12902
ful	-12903
fur	-12904
gni	-12905
gon	-12906
gow	-12907
hat	-12908
hoc	-12909
hte	-12910
iat	-12911
ibt	-12912
ijk	-12913
ili	-12914
irn	-12915
isa	-12916
ize	-12917
iös	-12918
joy	-12919
jpg	-12920
kel	-12921
kep	-12922
klü	-12923
kok	-12924
kol	-12925
kri	-12926
kul	-12927
kör	-12928
lee	-12929
lem	-12930
lia	-12931
lor	-12932
lov	-12933
mac	-12934
mei	-12935
mpf	-12936
mün	-12937
nau	-12938
nek	-12939
nel	-12940
not	-12941
oba	-12942
odi	-12943
oir	-12944
ool	-12945
opf	-12946
opt	-12947
opu	-12948
osh	-12949
ota	-12950
ouv	-12951
ova	-12952
owo	-12953
peg	-12954
rix	-12955
roy	-12956
räu	-12957
sia	-12958
ssa	-12959
tal	-12960
tec	-12961
tor	-12962
tri	-12963
tru	-12964
tze	-12965
ues	-12966
uhr	-12967
ulp	-12968
urz	-12969
usr	-12970
ußt	-12971
ved	-12972
vez	-12973
vit	-12974
was	-12975
wur	-12976
www	-12977
xid	-12978
yak	-12979
ynn	-12980
zet	-12981
zza	-12982
ßig	-12983
ähn	-12984
ärm	-12985
äts	-12986
éci	-12987
ürt	-12988
üss	-12989
▁56	-12990
▁58	-12991
▁6-	-12992
▁6.	-12993
▁64	-12994
▁67	-12995
▁81	-12996
▁95	-12997
▁99	-12998
▁az	-12999
▁bs	-13000
▁bv	-13001
▁cy	-13002
▁có	-13003
▁ea	-13004
▁fm	-13005
▁gg	-13006
▁gh	-13007
▁gt	-13008
▁hp	-13009
▁ia	-13010
▁ic	-13011
▁id	-13012
▁ix	-13013
▁jä	-13014
▁kb	-13015
▁lt	-13016
▁mc	-13017
▁mä	-13018
▁ny	-13019
▁né	-13020
▁og	-13021
▁pv	-13022
▁pä	-13023
▁ry	-13024
▁ue	-13025
▁uf	-13026
▁wd	-13027
▁wu	-13028
▁wx	-13029
▁wü	-13030
▁zo	-13031
abet	-13032
abot	-13033
acas	-13034
acio	-13035
aded	-13036
agog	-13037
ahrt	-13038
ails	-13039
alin	-13040
alls	-13041
amet	-13042
amos	-13043
anas	-13044
andy	-13045
anes	-13046
anni	-13047
arab	-13048
aran	-13049
aray	-13050
ario	-13051
arow	-13052
arts	-13053
asee	-13054
aska	-13055
ason	-13056
atix	-13057
atmo	-13058
aton	-13059
back	-13060
bard	-13061
baus	-13062
behr	-13063
beln	-13064
bere	-13065
bill	-13066
blig	-13067
body	-13068
chef	-13069
cion	-13070
come	-13071
cont	-13072
ctic	-13073
dach	-13074
drip	-13075
dukt	-13076
dump	-13077
edul	-13078
eher	-13079
ehme	-13080
eilt	-13081
elan	-13082
eman	-13083
emil	-13084
ence	-13085
enna	-13086
enti	-13087
erta	-13088
esan	-13089
essa	-13090
esta	-13091
ests	-13092
esty	-13093
estä	-13094
etan	-13095
etti	-13096
fair	-13097
farb	-13098
ffee	-13099
ffic	-13100
find	-13101
fizi	-13102
fony	-13103
frag	-13104
free	-13105
gall	-13106
gant	-13107
gell	-13108
gemä	-13109
habi	-13110
hals	-13111
heid	-13112
herr	-13113
herz	-13114
hine	-13115
hode	-13116
home	-13117
host	-13118
hrer	-13119
hton	-13120
icef	-13121
icio	-13122
idem	-13123
idos	-13124
iegs	-13125
iegt	-13126
iera	-13127
iety	-13128
iked	-13129
ilit	-13130
ilog	-13131
inde	-13132
inte	-13133
irac	-13134
iram	-13135
itas	-13136
itis	-13137
itte	-13138
iver	-13139
iwod	-13140
jell	-13141
jour	-13142
kler	-13143
kopf	-13144
kova	-13145
kömm	-13146
lade	-13147
like	-13148
link	-13149
lizz	-13150
llah	-13151
löst	-13152
main	-13153
mass	-13154
mech	-13155
mmar	-13156
mund	-13157
mung	-13158
männ	-13159
nien	-13160
nier	-13161
obel	-13162
obos	-13163
odat	-13164
ohne	-13165
olen	-13166
oler	-13167
ollt	-13168
omet	-13169
onas	-13170
oney	-13171
orer	-13172
orts	-13173
oses	-13174
otyp	-13175
oßen	-13176
part	-13177
paso	-13178
pect	-13179
pens	-13180
pfer	-13181
phie	-13182
phil	-13183
ples	-13184
ppel	-13185
pper	-13186
prei	-13187
ragt	-13188
rand	-13189
real	-13190
rein	-13191
rend	-13192
rent	-13193
reuz	-13194
rice	-13195
rios	-13196
rten	-13197
rufe	-13198
rufs	-13199
ruhe	-13200
rund	-13201
rypt	-13202
sage	-13203
sbür	-13204
schu	-13205
skap	-13206
skri	-13207
spal	-13208
span	-13209
stab	-13210
stei	-13211
sung	-13212
sure	-13213
teln	-13214
tely	-13215
test	-13216
teur	-13217
tica	-13218
tini	-13219
toin	-13220
tsah	-13221
tzen	-13222
udig	-13223
uket	-13224
ulev	-13225
umbo	-13226
umes	-13227
umin	-13228
unen	-13229
unic	-13230
unts	-13231
ures	-13232
usik	-13233
usin	-13234
vais	-13235
vian	-13236
wann	-13237
ween	-13238
wehr	-13239
wett	-13240
znei	-13241
zugs	-13242
ávez	-13243
älen	-13244
änen	-13245
énov	-13246
öpfe	-13247
ührt	-13248
üren	-13249
ütte	-13250
▁0.0	-13251
▁00:	-13252
▁01.	-13253
▁1,2	-13254
▁107	-13255
▁110	-13256
▁140	-13257
▁16.	-13258
▁18-	-13259
▁185	-13260
▁2.1	-13261
▁2.5	-13262
▁230	-13263
▁240	-13264
▁256	-13265
▁26.	-13266
▁3.0	-13267
▁420	-13268
▁abs	-13269
▁act	-13270
▁adi	-13271
▁afp	-13272
▁age	-13273
▁ali	-13274
▁alp	-13275
▁amn	-13276
▁atr	-13277
▁beh	-13278
▁bia	-13279
▁bid	-13280
▁big	-13281
▁bij	-13282
▁bip	-13283
▁bmw	-13284
▁cel	-13285
▁chf	-13286
▁chr	-13287
▁cid	-13288
▁cnc	-13289
▁cos	-13290
▁ddr	-13291
▁dei	-13292
▁div	-13293
▁dob	-13294
▁dvd	-13295
▁eck	-13296
▁eds	-13297
▁eli	-13298
▁epa	-13299
▁era	-13300
▁esp	-13301
▁fie	-13302
▁fus	-13303
▁fün	-13304
▁geo	-13305
▁gib	-13306
▁gig	-13307
▁gri	-13308
▁guy	-13309
▁gän	-13310
▁hay	-13311
▁hen	-13312
▁hir	-13313
▁hob	-13314
▁hur	-13315
▁hus	-13316
▁hyp	-13317
▁höl	-13318
▁ico	-13319
▁jer	-13320
▁jes	-13321
▁jul	-13322
▁kas	-13323
▁kei	-13324
▁kna	-13325
▁kno	-13326
▁knü	-13327
▁kub	-13328
▁kün	-13329
▁lac	-13330
▁lar	-13331
▁lav	-13332
▁law	-13333
▁lea	-13334
▁liu	-13335
▁lud	-13336
▁luf	-13337
▁lum	-13338
▁mby	-13339
▁mob	-13340
▁mäd	-13341
▁nro	-13342
▁old	-13343
▁ole	-13344
▁pag	-13345
▁pcs	-13346
▁pel	-13347
▁pes	-13348
▁pho	-13349
▁päd	-13350
▁rek	-13351
▁rgb	-13352
▁ric	-13353
▁rid	-13354
▁riv	-13355
▁rss	-13356
▁rud	-13357
▁sak	-13358
▁saß	-13359
▁sdl	-13360
▁seg	-13361
▁sms	-13362
▁sog	-13363
▁stä	-13364
▁sym	-13365
▁süß	-13366
▁tec	-13367
▁til	-13368
▁tit	-13369
▁tok	-13370
▁tox	-13371
▁ums	-13372
▁ups	-13373
▁uss	-13374
▁vgl	-13375
▁vin	-13376
▁wav	-13377
▁wet	-13378
▁wmv	-13379
▁xia	-13380
▁yen	-13381
▁yit	-13382
▁zap	-13383
▁öko	-13384
▁üpp	-13385
/2008	-13386
1.200	-13387
abile	-13388
abine	-13389
abler	-13390
ached	-13391
aches	-13392
ademi	-13393
adern	-13394
agaur	-13395
aille	-13396
alles	-13397
alpes	-13398
alyse	-13399
anspr	-13400
antes	-13401
anzig	-13402
arden	-13403
armen	-13404
asmus	-13405
assel	-13406
ators	-13407
attle	-13408
auten	-13409
azion	-13410
baden	-13411
banon	-13412
barei	-13413
barem	-13414
bargo	-13415
basis	-13416
bereg	-13417
berto	-13418
beste	-13419
beweg	-13420
bewus	-13421
bogen	-13422
boxen	-13423
burgr	-13424
bäder	-13425
chner	-13426
decke	-13427
delux	-13428
derne	-13429
deter	-13430
digte	-13431
drige	-13432
dsten	-13433
echen	-13434
ehmer	-13435
eiert	-13436
eihen	-13437
elder	-13438
eldet	-13439
eless	-13440
emsen	-13441
endel	-13442
ensur	-13443
entag	-13444
erife	-13445
erika	-13446
ersch	-13447
essel	-13448
estag	-13449
ethik	-13450
eucht	-13451
faden	-13452
falen	-13453
felds	-13454
feuer	-13455
ffect	-13456
ffekt	-13457
fonie	-13458
forge	-13459
ftung	-13460
fällt	-13461
garve	-13462
geist	-13463
grill	-13464
group	-13465
hause	-13466
hlsch	-13467
holen	-13468
horiz	-13469
hänge	-13470
iance	-13471
ident	-13472
ierre	-13473
igner	-13474
illes	-13475
immer	-13476
ioden	-13477
isine	-13478
isode	-13479
itano	-13480
itzen	-13481
kampf	-13482
klein	-13483
klärt	-13484
kodex	-13485
komme	-13486
korre	-13487
küste	-13488
label	-13489
lades	-13490
lange	-13491
lehen	-13492
lerin	-13493
lesen	-13494
level	-13495
liebe	-13496
liess	-13497
llose	-13498
lloyd	-13499
lucht	-13500
luckt	-13501
läufe	-13502
macks	-13503
milch	-13504
minen	-13505
mmung	-13506
mäler	-13507
nacks	-13508
netze	-13509
obern	-13510
oboda	-13511
odore	-13512
okina	-13513
ontan	-13514
optim	-13515
osite	-13516
oskop	-13517
other	-13518
otten	-13519
otter	-13520
paper	-13521
pfalz	-13522
point	-13523
poten	-13524
power	-13525
quote	-13526
rages	-13527
rasen	-13528
rator	-13529
räder	-13530
räter	-13531
spann	-13532
spark	-13533
ssier	-13534
stall	-13535
start	-13536
stext	-13537
tappe	-13538
taten	-13539
texts	-13540
ticle	-13541
tiken	-13542
tipps	-13543
tique	-13544
tirol	-13545
tools	-13546
ttini	-13547
tümer	-13548
urken	-13549
urlau	-13550
utine	-13551
vence	-13552
verfü	-13553
werbs	-13554
wärts	-13555
yster	-13556
ysées	-13557
zieht	-13558
zione	-13559
zweif	-13560
zügen	-13561
ßchen	-13562
ändes	-13563
ärfer	-13564
ärung	-13565
ömung	-13566
üchte	-13567
ühlen	-13568
üssen	-13569
ütten	-13570
▁+1/+	-13571
▁10.0	-13572
▁10.2	-13573
▁11.0	-13574
▁1500	-13575
▁1600	-13576
▁1922	-13577
▁1955	-13578
▁1964	-13579
▁1985	-13580
▁1992	-13581
▁1994	-13582
▁2012	-13583
▁adop	-13584
▁alde	-13585
▁alla	-13586
▁alph	-13587
▁alpt	-13588
▁ambi	-13589
▁anna	-13590
▁aqua	-13591
▁arro	-13592
▁arts	-13593
▁ausn	-13594
▁aust	-13595
▁baby	-13596
▁bath	-13597
▁bela	-13598
▁bell	-13599
▁besa	-13600
▁bike	-13601
▁body	-13602
▁boni	-13603
▁bonu	-13604
▁bres	-13605
▁bugs	-13606
▁böhm	-13607
▁böse	-13608
▁came	-13609
▁canc	-13610
▁casa	-13611
▁case	-13612
▁chal	-13613
▁chic	-13614
▁chri	-13615
▁chro	-13616
▁como	-13617
▁corn	-13618
▁cott	-13619
▁days	-13620
▁disp	-13621
▁doll	-13622
▁drau	-13623
▁drop	-13624
▁dual	-13625
▁echo	-13626
▁ecke	-13627
▁edel	-13628
▁eden	-13629
▁edit	-13630
▁eifr	-13631
▁emas	-13632
▁espa	-13633
▁essa	-13634
▁euph	-13635
▁exek	-13636
▁face	-13637
▁fand	-13638
▁farm	-13639
▁feel	-13640
▁fels	-13641
▁fiat	-13642
▁flat	-13643
▁fres	-13644
▁fügt	-13645
▁gatt	-13646
▁gaui	-13647
▁geli	-13648
▁gepo	-13649
▁gers	-13650
▁gift	-13651
▁giov	-13652
▁glet	-13653
▁glän	-13654
▁glüh	-13655
▁gott	-13656
▁gour	-13657
▁grab	-13658
▁grob	-13659
▁gäng	-13660
▁hakk	-13661
▁haug	-13662
▁hebt	-13663
▁heiß	-13664
▁hipo	-13665
▁holl	-13666
▁hugo	-13667
▁hund	-13668
▁huss	-13669
▁härt	-13670
▁imag	-13671
▁inne	-13672
▁intu	-13673
▁irre	-13674
▁jazz	-13675
▁josé	-13676
▁jpeg	-13677
▁jura	-13678
▁kall	-13679
▁keil	-13680
▁kell	-13681
▁kids	-13682
▁kiew	-13683
▁kirk	-13684
▁kite	-13685
▁kore	-13686
▁krei	-13687
▁kris	-13688
▁lake	-13689
▁lanc	-13690
▁laus	-13691
▁lebe	-13692
▁leck	-13693
▁leds	-13694
▁left	-13695
▁lege	-13696
▁lein	-13697
▁lenk	-13698
▁leon	-13699
▁lied	-13700
▁lief	-13701
▁liga	-13702
▁long	-13703
▁lots	-13704
▁make	-13705
▁male	-13706
▁mant	-13707
▁maps	-13708
▁mart	-13709
▁marx	-13710
▁mast	-13711
▁matt	-13712
▁maut	-13713
▁most	-13714
▁moun	-13715
▁nbsp	-13716
▁need	-13717
▁nice	-13718
▁nine	-13719
▁nudi	-13720
▁nähr	-13721
▁oase	-13722
▁olaf	-13723
▁pand	-13724
▁past	-13725
▁peti	-13726
▁pfle	-13727
▁pian	-13728
▁pomp	-13729
▁prie	-13730
▁prov	-13731
▁puis	-13732
▁puls	-13733
▁quan	-13734
▁raid	-13735
▁ramp	-13736
▁rehn	-13737
▁reiz	-13738
▁rett	-13739
▁rico	-13740
▁rief	-13741
▁ring	-13742
▁riou	-13743
▁roht	-13744
▁said	-13745
▁samt	-13746
▁senk	-13747
▁sexy	-13748
▁sher	-13749
▁sieg	-13750
▁sien	-13751
▁solo	-13752
▁solu	-13753
▁song	-13754
▁soul	-13755
▁stim	-13756
▁stän	-13757
▁tagt	-13758
▁tang	-13759
▁teat	-13760
▁tepp	-13761
▁thai	-13762
▁tibe	-13763
▁toil	-13764
▁tous	-13765
▁traf	-13766
▁trav	-13767
▁troj	-13768
▁ufer	-13769
▁umso	-13770
▁unum	-13771
▁vieh	-13772
▁virt	-13773
▁vorf	-13774
▁warm	-13775
▁wehr	-13776
▁weib	-13777
▁word	-13778
▁wozu	-13779
▁xvid	-13780
▁zeig	-13781
▁zoom	-13782
▁zorn	-13783
▁zwie	-13784
▁zwin	-13785
affung	-13786
agnose	-13787
agnost	-13788
aktien	-13789
andelt	-13790
anders	-13791
ansatz	-13792
antrag	-13793
applik	-13794
atabot	-13795
auchen	-13796
aufent	-13797
bagger	-13798
balanc	-13799
becken	-13800
bedded	-13801
bedürf	-13802
beteil	-13803
bewerb	-13804
bewohn	-13805
binder	-13806
blauch	-13807
brücke	-13808
bständ	-13809
bädern	-13810
commod	-13811
copter	-13812
decken	-13813
demand	-13814
dialog	-13815
dichte	-13816
digend	-13817
drücke	-13818
ebenen	-13819
elnden	-13820
ematix	-13821
emiles	-13822
endern	-13823
endung	-13824
engine	-13825
entsch	-13826
erlegt	-13827
ermäch	-13828
ersatz	-13829
farben	-13830
ferien	-13831
flusst	-13832
flüsse	-13833
former	-13834
ftigen	-13835
fungen	-13836
gefühl	-13837
gerien	-13838
geschn	-13839
gängig	-13840
gästen	-13841
harmon	-13842
heater	-13843
henden	-13844
herden	-13845
iegelt	-13846
ildren	-13847
inerie	-13848
ington	-13849
inseln	-13850
intern	-13851
kammer	-13852
kernel	-13853
kleber	-13854
kooper	-13855
kühlen	-13856
künfte	-13857
lagern	-13858
lebens	-13859
leiden	-13860
locken	-13861
lässig	-13862
lücken	-13863
macher	-13864
markts	-13865
master	-13866
mauern	-13867
melden	-13868
metall	-13869
mische	-13870
museum	-13871
mässig	-13872
neiden	-13873
oliber	-13874
olvenz	-13875
omiten	-13876
onente	-13877
osevic	-13878
otypen	-13879
pakete	-13880
pakets	-13881
papier	-13882
player	-13883
posten	-13884
proben	-13885
prozen	-13886
quarie	-13887
rachen	-13888
recher	-13889
reflex	-13890
regend	-13891
reicht	-13892
ropole	-13893
routen	-13894
sbasis	-13895
sionen	-13896
sorten	-13897
speise	-13898
sphere	-13899
splatz	-13900
spritz	-13901
sraten	-13902
status	-13903
stimme	-13904
stofft	-13905
stoßen	-13906
strahl	-13907
swerte	-13908
tasche	-13909
teilte	-13910
ticket	-13911
tified	-13912
timent	-13913
traten	-13914
träger	-13915
ueller	-13916
uliere	-13917
ulptur	-13918
urfing	-13919
useppe	-13920
versch	-13921
wahlen	-13922
warten	-13923
weilig	-13924
wimmen	-13925
winkel	-13926
wohnen	-13927
xpress	-13928
yright	-13929
zenden	-13930
zyklus	-13931
äglich	-13932
ätigen	-13933
öglich	-13934
ützten	-13935
▁1.000	-13936
▁10-19	-13937
▁12.00	-13938
▁15.00	-13939
▁abbas	-13940
▁abger	-13941
▁about	-13942
▁again	-13943
▁aktie	-13944
▁alias	-13945
▁améri	-13946
▁anden	-13947
▁anker	-13948
▁appro	-13949
▁archä	-13950
▁arist	-13951
▁bathr	-13952
▁befol	-13953
▁beför	-13954
▁beine	-13955
▁blair	-13956
▁brett	-13957
▁bulls	-13958
▁böden	-13959
▁bühne	-13960
▁cafes	-13961
▁cafés	-13962
▁calme	-13963
▁carte	-13964
▁cater	-13965
▁chaos	-13966
▁clear	-13967
▁colle	-13968
▁color	-13969
▁coton	-13970
▁cross	-13971
▁david	-13972
▁deckt	-13973
▁delik	-13974
▁depot	-13975
▁devel	-13976
▁dhabi	-13977
▁donau	-13978
▁drang	-13979
▁dreht	-13980
▁drive	-13981
▁egnos	-13982
▁einmü	-13983
▁enorm	-13984
▁entre	-13985
▁equip	-13986
▁erbau	-13987
▁ernte	-13988
▁euren	-13989
▁every	-13990
▁fasst	-13991
▁feder	-13992
▁feind	-13993
▁festa	-13994
▁figur	-13995
▁float	-13996
▁foren	-13997
▁freut	-13998
▁futur	-13999
▁fährt	-14000
▁gebil	-14001
▁gebir	-14002
▁giuli	-14003
▁glatt	-14004
▁greif	-14005
▁grupp	-14006
▁gründ	-14007
▁grüne	-14008
▁habit	-14009
▁hamas	-14010
▁haust	-14011
▁heart	-14012
▁helle	-14013
▁herum	-14014
▁hielt	-14015
▁holte	-14016
▁ikone	-14017
▁immen	-14018
▁incen	-14019
▁inser	-14020
▁inten	-14021
▁intra	-14022
▁irrit	-14023
▁jacks	-14024
▁james	-14025
▁jenem	-14026
▁kanad	-14027
▁kapit	-14028
▁kehrt	-14029
▁keram	-14030
▁klebe	-14031
▁kochn	-14032
▁kogni	-14033
▁kopft	-14034
▁krebs	-14035
▁krone	-14036
▁krypt	-14037
▁kürze	-14038
▁lanka	-14039
▁lehne	-14040
▁lenkt	-14041
▁liked	-14042
▁louis	-14043
▁länge	-14044
▁lösch	-14045
▁magen	-14046
▁makes	-14047
▁marke	-14048
▁marks	-14049
▁masch	-14050
▁matra	-14051
▁melod	-14052
▁merkt	-14053
▁miete	-14054
▁milde	-14055
▁minut	-14056
▁misch	-14057
▁monta	-14058
▁moren	-14059
▁mount	-14060
▁müsse	-14061
▁napol	-14062
▁nikon	-14063
▁oblig	-14064
▁offic	-14065
▁offre	-14066
▁ohren	-14067
▁optik	-14068
▁oster	-14069
▁pages	-14070
▁paint	-14071
▁palma	-14072
▁panik	-14073
▁parti	-14074
▁paulo	-14075
▁petit	-14076
▁pferd	-14077
▁piste	-14078
▁plans	-14079
▁pools	-14080
▁press	-14081
▁prima	-14082
▁punta	-14083
▁putin	-14084
▁quasi	-14085
▁quote	-14086
▁radik	-14087
▁raray	-14088
▁raten	-14089
▁reale	-14090
▁reine	-14091
▁relie	-14092
▁rhyth	-14093
▁rigor	-14094
▁route	-14095
▁runde	-14096
▁rénov	-14097
▁salon	-14098
▁sanyo	-14099
▁sarge	-14100
▁saudi	-14101
▁scand	-14102
▁seele	-14103
▁segel	-14104
▁selts	-14105
▁sende	-14106
▁shops	-14107
▁simil	-14108
▁simul	-14109
▁skrip	-14110
▁sozio	-14111
▁spass	-14112
▁speis	-14113
▁stich	-14114
▁stoff	-14115
▁storm	-14116
▁summe	-14117
▁szene	-14118
▁tapas	-14119
▁tatra	-14120
▁teams	-14121
▁teddy	-14122
▁teich	-14123
▁teils	-14124
▁texts	-14125
▁their	-14126
▁tiger	-14127
▁tipps	-14128
▁titan	-14129
▁torre	-14130
▁touch	-14131
▁traur	-14132
▁treff	-14133
▁typen	-14134
▁ueber	-14135
▁umgew	-14136
▁umhin	-14137
▁unbew	-14138
▁unend	-14139
▁ungen	-14140
▁unlös	-14141
▁until	-14142
▁usern	-14143
▁using	-14144
▁value	-14145
▁vente	-14146
▁verun	-14147
▁ville	-14148
▁voice	-14149
▁vorab	-14150
▁vorne	-14151
▁votes	-14152
▁wales	-14153
▁walls	-14154
▁warme	-14155
▁weiss	-14156
▁welch	-14157
▁while	-14158
▁wollt	-14159
▁worum	-14160
▁wuchs	-14161
▁ziels	-14162
▁zielt	-14163
account	-14164
afrikan	-14165
agaures	-14166
amenten	-14167
angaben	-14168
angenen	-14169
artikel	-14170
auswahl	-14171
autoren	-14172
beamten	-14173
berater	-14174
blicken	-14175
brauchs	-14176
browser	-14177
dingbar	-14178
display	-14179
dumping	-14180
eigenen	-14181
eingabe	-14182
einsatz	-14183
eiteten	-14184
empfang	-14185
endaten	-14186
endeten	-14187
entiert	-14188
esystem	-14189
fahrten	-14190
fahrung	-14191
füllung	-14192
genutzt	-14193
gericht	-14194
geräten	-14195
gration	-14196
haftung	-14197
herapie	-14198
ichtung	-14199
irektor	-14200
issance	-14201
izieren	-14202
kanlage	-14203
ketball	-14204
kollege	-14205
komfort	-14206
konstru	-14207
konzern	-14208
koordin	-14209
kreisen	-14210
landern	-14211
machung	-14212
marktes	-14213
marquis	-14214
meldung	-14215
merkmal	-14216
mittler	-14217
mächten	-14218
nutzern	-14219
objekte	-14220
palette	-14221
pfeiler	-14222
präsenz	-14223
rachten	-14224
ransfer	-14225
reibers	-14226
reitete	-14227
rierten	-14228
ränkter	-14229
schirme	-14230
segment	-14231
senkung	-14232
sitzung	-14233
skolleg	-14234
spartei	-14235
standes	-14236
steuern	-14237
streben	-14238
strecke	-14239
städten	-14240
stücken	-14241
support	-14242
swertes	-14243
systeme	-14244
taschen	-14245
ternoon	-14246
trauens	-14247
treiben	-14248
tretung	-14249
tsahara	-14250
ulierte	-14251
ungssch	-14252
venient	-14253
verkauf	-14254
volumen	-14255
vorauss	-14256
wechsel	-14257
zubehör	-14258
ßnahmen	-14259
ändlern	-14260
èrement	-14261
▁40.000	-14262
▁across	-14263
▁active	-14264
▁adress	-14265
▁affäre	-14266
▁akuten	-14267
▁akzent	-14268
▁amphit	-14269
▁analog	-14270
▁angabe	-14271
▁angeln	-14272
▁anhang	-14273
▁anstoß	-14274
▁anwalt	-14275
▁appart	-14276
▁around	-14277
▁artist	-14278
▁asiens	-14279
▁aufgew	-14280
▁aufruf	-14281
▁ausser	-14282
▁awards	-14283
▁bahnen	-14284
▁bayern	-14285
▁beauft	-14286
▁beheiz	-14287
▁beigem	-14288
▁beinen	-14289
▁belang	-14290
▁bemüht	-14291
▁besatz	-14292
▁beschn	-14293
▁bestes	-14294
▁besteu	-14295
▁bestra	-14296
▁bewegt	-14297
▁bienen	-14298
▁boulev	-14299
▁brennt	-14300
▁bühnen	-14301
▁cannes	-14302
▁castle	-14303
▁castro	-14304
▁chirac	-14305
▁chávez	-14306
▁common	-14307
▁cookie	-14308
▁daniel	-14309
▁darfur	-14310
▁dazuge	-14311
▁deines	-14312
▁diesel	-14313
▁dispon	-14314
▁drehen	-14315
▁dreier	-14316
▁dörfer	-14317
▁düngem	-14318
▁echter	-14319
▁ecofin	-14320
▁effect	-14321
▁einsam	-14322
▁einsei	-14323
▁either	-14324
▁eiweiß	-14325
▁emblem	-14326
▁empire	-14327
▁enders	-14328
▁energy	-14329
▁engere	-14330
▁epidem	-14331
▁erdgas	-14332
▁ernste	-14333
▁erwerb	-14334
▁erwies	-14335
▁expand	-14336
▁expans	-14337
▁fakten	-14338
▁fakult	-14339
▁family	-14340
▁feucht	-14341
▁filter	-14342
▁fließt	-14343
▁flotte	-14344
▁follow	-14345
▁formel	-14346
▁fremde	-14347
▁fällig	-14348
▁galaxy	-14349
▁gaming	-14350
▁garage	-14351
▁geduld	-14352
▁geeint	-14353
▁gehalt	-14354
▁gentoo	-14355
▁genuss	-14356
▁genügt	-14357
▁gesell	-14358
▁gesund	-14359
▁gewohn	-14360
▁gitter	-14361
▁gottes	-14362
▁grafen	-14363
▁gratis	-14364
▁gönner	-14365
▁helden	-14366
▁herbei	-14367
▁hübsch	-14368
▁intens	-14369
▁intran	-14370
▁involv	-14371
▁island	-14372
▁jahrel	-14373
▁julian	-14374
▁kalten	-14375
▁kathol	-14376
▁ketten	-14377
▁klarer	-14378
▁klassi	-14379
▁koloni	-14380
▁konkur	-14381
▁kriege	-14382
▁kriter	-14383
▁kuchen	-14384
▁kultiv	-14385
▁kurden	-14386
▁königs	-14387
▁kürzer	-14388
▁labors	-14389
▁laguna	-14390
▁laptop	-14391
▁leidet	-14392
▁lernte	-14393
▁liebes	-14394
▁lieder	-14395
▁linien	-14396
▁lippen	-14397
▁liquid	-14398
▁lokale	-14399
▁luzern	-14400
▁lücken	-14401
▁malaga	-14402
▁margin	-14403
▁marmor	-14404
▁mauern	-14405
▁middle	-14406
▁moldau	-14407
▁mongol	-14408
▁monnet	-14409
▁motors	-14410
▁mugabe	-14411
▁murter	-14412
▁nahost	-14413
▁nation	-14414
▁nettes	-14415
▁neubau	-14416
▁nonnen	-14417
▁nächst	-14418
▁orange	-14419
▁ordner	-14420
▁packen	-14421
▁papier	-14422
▁partic	-14423
▁passer	-14424
▁patent	-14425
▁peking	-14426
▁pferde	-14427
▁photos	-14428
▁phuket	-14429
▁physik	-14430
▁pierre	-14431
▁pisten	-14432
▁plugin	-14433
▁policy	-14434
▁pracht	-14435
▁protag	-14436
▁protes	-14437
▁präven	-14438
▁putins	-14439
▁radios	-14440
▁raffin	-14441
▁realen	-14442
▁reiche	-14443
▁reiter	-14444
▁renomm	-14445
▁rutsch	-14446
▁sachen	-14447
▁sagten	-14448
▁schade	-14449
▁schalt	-14450
▁schein	-14451
▁selben	-14452
▁select	-14453
▁sender	-14454
▁sendet	-14455
▁setzte	-14456
▁skizze	-14457
▁skript	-14458
▁sowjet	-14459
▁spiels	-14460
▁sports	-14461
▁sprich	-14462
▁stable	-14463
▁starts	-14464
▁statue	-14465
▁stayed	-14466
▁steckt	-14467
▁steine	-14468
▁stetig	-14469
▁stoßen	-14470
▁streng	-14471
▁stress	-14472
▁suites	-14473
▁sänger	-14474
▁tanken	-14475
[...]
